#version: 0.2
Ġ d
e s
e n
Ġd e
Ġ l
Ġ a
e r
Ġ p
Ġ c
a r
c i
o n
Ġ s
t a
o s
o r
e l
q u
Ġl a
a n
i n
r e
a l
Ġ m
u n
Ã ³
Ġ t
Ġ qu
Ġ el
en t
a d
t i
a s
Ġqu e
Ġ en
Ġ i
o m
Ġ f
Ġ es
i s
Ġ n
ci Ã³
Ġ un
i c
r a
Ġ v
Ġ h
r o
Ġc on
Ã ©
Ã Ń
o l
a t
Ġde l
e m
Ġ y
Ġs e
Ġp er
r es
r i
i d
Ġ o
Ġ in
Ġ Ċ
e c
Ġa l
i t
Ġ re
Ġc om
Ġ C
a m
â Ģ
Ã ¡
Ġ e
a ciÃ³
u s
t e
Ġ b
Ã ł
Ġ g
Ã© s
u l
Ġp ar
l e
i a
Ġp ro
e d
Ġn o
ci on
ta t
u r
i l
m b
g u
Ġh a
d o
Ġun a
âĢ Ļ
Ġl os
Ġ P
i r
Ġ S
Ġ E
Ġ A
Ã ¨
Ġl es
Ġ M
t er
t o
Ġ 1
ad a
Ġs u
t u
i m
c a
i x
Ġd es
l a
o d
Ġa n
ta l
o t
Ġp or
ci a
an t
Ġ (
Ġla s
Ġd i
ta n
Ġa mb
aciÃ³ n
Ã ²
b l
qu es
t r
v a
Ġ L
Ġel s
or m
Ã º
Ġ 2
o c
Ġa c
i g
ent e
Ġ D
ic a
ciÃ³ n
is t
er a
i ci
Ġe x
Ã³ n
s e
Ġ j
em p
Ġs er
ad o
Ġ B
a c
d i
ar i
Ġ T
o b
h e
s i
e t
u c
Ġpar a
Ã ±
a b
e g
r an
u m
Ġ R
d e
d a
0 0
Ġ G
u t
v er
ÃŃ a
Ġ res
E l
Ġv a
Ġcom p
t es
Ġ I
ti v
i en
Ġ r
id ad
t ra
Ġ F
i tat
Ġ Ã©s
a p
t s
ti c
p or
Ġ ent
l o
Ġ "
i ent
on s
Ġcon s
Ġc u
m ent
p er
Ġt he
t or
Ġp u
Ġs i
Ã¡ s
t ar
i z
Ġ w
p l
el l
Ġp re
Ġre c
Ġi m
f er
Ġdel s
Ġm Ã©s
cion es
Ġ J
i o
o ci
am ent
Ã §
Ġp res
Ġt o
ad or
Ġes ta
Ġt ra
al s
Ġl l
Ġa s
Ġa r
Ġp r
L a
Ġ V
in g
al es
on a
Ġes p
re c
e ix
t en
cion s
p os
ri m
Ġ N
Ġd is
Ġ ta
Ã¨ n
a j
t os
p ar
E n
en ta
Ġcom o
Ġo f
f ic
Ġa ques
it z
u e
Ġp od
en d
Ġl o
Ġf in
i b
al l
i er
Ã¡ n
i v
u es
u d
a v
an y
f orm
a g
. .
Ġc ar
ob re
Ġc as
Ġper s
Ġo b
Ġp os
Ġf orm
U n
E s
Ġt ot
on es
ÃŃ s
u p
Ċ Ċ
id a
Ġm e
en s
ĠE s
en er
Ġ or
Ġin ter
ad es
e b
em b
ent s
Ġ H
an do
Ġs obre
i p
Ġm Ã¡s
in a
ta s
Ġp as
c ul
o g
m a
Ġes t
Ġ1 9
an a
ri a
id o
Ġent re
e u
c e
m in
h a
il l
h o
Ġ 3
u g
Ġc ap
Ġp rim
Ġpar ti
qu e
d uc
ient o
ad os
Ġa d
Ġm an
Ġt en
ar c
ti l
er o
Ã¨n cia
p a
g un
Ġc l
Ġ O
c l
Â ·
a tal
is m
at s
Ġm at
v en
c es
p i
t in
v i
Ġc or
Ġ2 0
Ġm ol
ta d
ri b
Ġta mb
en cia
v e
n a
- -
Ġt er
es ti
ti ca
Ġ tan
Ġs ol
Ġc ol
is i
t ro
Ġa p
is ta
e x
Ġn os
Ġs us
Ġre al
or a
or d
an te
Ġ emp
ÃŃ n
Ġc an
or es
ti va
ar a
) .
g ra
ic o
Ġh an
Ġp l
Ã© n
p res
r as
Ġes c
en ci
g e
u er
Ġa b
ĠE l
Ġin s
Ġan d
Ġc re
a y
t res
Ġc am
a ci
ĠI n
an s
e z
t re
) ,
b le
cion al
e ci
Ġ on
f ec
Ġh i
Ġp el
Ġf er
Ġen c
Ġ âĢ
ec es
Ġm ed
g a
er s
ci p
o p
Ġs in
i u
Ġse g
Ġg ran
Ġ us
g o
Ġse u
Ġr el
Ġre g
Ġc os
u b
g an
y s
Ġal s
Ġpu ed
y a
Ãº n
Ġv ol
ta ment
ad as
Ġd on
ver s
ent es
p on
m ente
on al
Ġs oci
Ġl le
j ec
ti tu
Ġn om
o v
d u
tu ra
ur s
f es
em a
Ġ Un
f ici
i ta
Ġa m
ĠL a
Ġin form
v ol
Ġse va
Ġes te
Ġa Ã±
Ġc al
Ġ20 1
b a
i or
Ġm ar
Ġ 4
ari o
i es
Ġg r
or n
Ġaques t
Ġp a
Ġv er
Ġm en
Ġ2 00
Ġv an
l es
Ġp ol
Ġde b
ĠC om
Ġd os
Ġha b
Ġse gu
Ġl e
Ġf un
c er
r en
Ġd ur
Ġs al
Ġn eces
Ġa ix
bl es
u ra
Ġdes p
ti m
Ġt re
Ġper Ã²
ul ar
Ãº bl
Ġres p
d ad
Ġ 5
Ġs on
un a
Ġm un
Ġmol t
it ar
Ġp ot
an d
Ġt od
ener al
ti r
i Ã³
Ġm es
ÃŃ cul
Ã ¯
u y
Ġc ent
ĠE n
d ic
am ente
Ġj a
Ġde m
Ġen s
Ġal gun
g r
ti u
Ġqu al
Ġpro duc
Ġm od
Ġtamb Ã©
or s
Ġc o
Ġf or
Ġcon tra
Ġc ada
c ed
ĠA l
Ġt ran
ĠC on
s a
v es
c o
tu al
Ġt emp
Ġt e
i fic
Ġdi fer
in s
o u
Ġt h
it u
Ġper m
i Ã³n
ta do
ro b
tat s
en a
Ġp la
Ġ W
ar d
p e
Ġsi gu
Ġa ut
ĠC atal
r os
ĠM ar
si Ã³
Ġdi rec
Ãº s
" .
Ġdes c
b aj
Ġim por
Ã§ a
Ġesp eci
Ġn i
tan t
Ġt Ã©
Ġs en
Ġm i
Ġform a
Ġv al
i Ã©n
Ġp o
Ġc a
tiv o
b re
b all
Ġ u
i f
" ,
Ġs Ã³n
Ġh o
Ġse c
Ġemp res
n o
Ġser v
l l
a ques
em os
i os
tr os
Ġcom un
z a
âĢ Ŀ
pl ic
Ġc r
Ã ¼
d es
Ġin c
Ãł n
Ġp un
Ġ U
j o
c h
Ġc er
idad es
Ġa qu
Ġt r
Ġtran s
ĠD E
d os
u ro
j a
P er
e p
em ent
Ġp Ãºbl
Ġ 6
Ġprim er
Ġf a
Ġt ien
itat s
m e
ism o
Ġfin al
Ġ ra
ci es
Ġtra baj
Ġb as
Ġpr in
tr uc
emb re
Ġpro fes
ol a
Ġo c
Ġ em
ol og
v o
Ġtre ball
Ġcon tin
tu di
Ġan ys
am b
Ġ tal
an o
Ġm ill
j e
a i
E S
ic s
Ġaques ta
Ġfin s
-- --
ig n
ar Ãł
Ġe qu
Ġsu b
Ã¨ s
Ġh as
pos i
Ġac tiv
ĠA n
im ent
ari os
A l
om ent
Ã± a
Ġd ia
Ġ -
Ġn ue
t ur
ĉ ĉ
Ġ Â
Ġf r
Ġmat eix
Ġde f
Ġ ec
Ġp e
l os
ce p
x im
Ġde ci
u al
r Ãł
ÃŃ as
ti s
qu Ã¨
Ġpas s
por t
i al
Ġs ent
Ġf am
Ġu til
Ġpar t
or ia
ist ra
un d
Ġs itu
er e
gu t
j un
Ãº l
c ar
N o
Ġpol ÃŃ
ĠâĢ ľ
Ġ K
arc el
Ġsu per
Ġs ist
Ġy a
Ġo p
a Ã±
Ġf et
Ġper o
Ġ X
in t
Ġv e
h i
ti on
Ġa f
m iento
ar ia
er v
Ġt u
e v
u el
un ya
Ġt i
ant s
Ġin cl
Ġa v
E R
Ġ era
Ġs o
Ġg ra
C I
il i
er ci
Ġc ul
Ġor gan
Ġd oc
Ġn ues
Ġres ul
emp re
gu a
Q u
ar an
r Ã©s
Ġpu bl
us t
Ġman era
Ġpro gra
Ġ .
Ġqu an
ĠCatal unya
Ġprin cip
Ġv ida
Ġas s
Ġ 7
Ġm ay
Ġ ri
Ġf ue
I n
Ġg u
Ġper quÃ¨
v id
00 0
Ġcon f
1 9
as s
d en
t ÃŃcul
ador es
Ġespeci al
Ġc atal
Ġpro p
ar Ã¡
min istra
ab le
O N
se gu
Ġ |
Ġ 8
arcel ona
S i
Ġ1 8
r er
Ġ 9
Ġtamb iÃ©n
Ġtot s
Ġto do
ic os
Ġa par
Ġm oment
Ġel ec
Ġt res
ar ro
Ġ ro
Ġpued e
ĠS an
id os
Ġreal iz
am os
ul a
b il
Ġm uc
er c
2 0
E N
Ġ z
it s
Ġm o
Ġcu al
Ã³ m
re m
Ġes tat
Ġl i
Ġprim era
Ġdes de
Ġin f
Ġc iu
Ġl oc
Ġs ab
Ġaix Ã²
Ġi s
Ġ1 0
ĠR e
Ġm in
i e
El s
ter ior
Ġh ist
es p
Ġj un
Ġm al
c n
g es
Ġgr up
b or
Ġd ic
Ġm uy
Ġrel a
es c
ĠaÃ± os
Ġd ist
i vers
tr as
Ġre pres
ver n
Ġcon c
ta c
g i
Ġim p
Ġme j
Ġpod er
ar is
Ġest Ã¡
it o
L os
Ġpers on
Ġpl an
Ġcons id
v ia
Ġes tudi
Ġ x
Ġh e
Ġw eb
Ġe fec
Ġhas ta
ic as
p any
ĠB arcelona
Ġpar te
l ar
Â »
itz aciÃ³
Ġse us
Ġt rob
at ur
ar se
it j
ur os
re t
p o
es s
tad os
n os
Ġin d
ant es
r Ã¡
Ġre f
ta ciÃ³
Ġt ip
Ġest Ãł
Ġpers ones
Ġs or
ism e
i on
in e
iz aciÃ³n
Ġt in
z o
Ġb en
h os
tÃŃcul o
Ġn eg
Ġll oc
Ġc el
Ãł ria
Ġsen se
om e
Ġec on
isi Ã³n
Ġpers onal
Ġal tres
t h
i ente
Ġp oc
Ġcom en
A R
Ġin v
Ġ k
A ques
Ġn orm
Ġg eneral
O S
ĠP ro
u re
r ar
ĠA r
el la
ist es
Ġ Y
ĠC ar
g ar
Ġtra v
tic o
Ġw as
an da
r ic
Ġc i
Ġv i
Ã ī
itz ar
Ã² ria
ĠP ar
ien do
.. .
Ġe t
ol l
h an
Ġcontin u
Ġ Ãºl
in o
ador s
Ġpa ÃŃs
en do
Ġparti cip
Ġmun ici
at ge
Ġn a
Ġcu ando
Ġtod os
Ġserv ici
Ġpre v
Ġpro jec
Ġtrav Ã©s
ug ar
Ġto tal
Ġsist ema
tan te
tiv os
Ġ er
o vern
Ã± o
ri p
Ġsoci al
er n
f ica
om o
Ġse t
ta ciÃ³n
i gu
ti us
p ec
Ġ1 5
Ġg ener
Ġar rib
rib u
Ġv eu
ib le
im iento
er g
Ġf e
Ġes tar
Ġcomp le
ĠP er
Ġser ve
Ġn iv
Ġac tual
Ġv is
n e
Ġm a
Ġpro bl
Ġa t
os a
al a
A S
D e
Ġtan t
ĠG eneral
t ec
S e
Ġqu Ã¨
ver si
ĠaÃ± o
id as
Ġm on
Ãł s
Ġm ant
ed ad
Ġmat er
Ġm as
ĠC as
C on
Ġequ ip
j ar
l an
' s
ĠD e
d er
Ġm is
Ġ Ã¡
it e
am iento
pl ica
qu ier
ca b
ent ar
Ġm or
ĠÂ «
Ġtien e
Ġb ar
Ġcon v
Ġre fer
Ġb e
at os
Ã² m
g en
Ġmed i
ÃŃ t
Ã² n
Ġex per
Ġas ÃŃ
.. ..
ĠL e
P or
u en
Ġdon de
A r
ec u
A L
Ã³ s
Ġc urs
er os
it h
Ġal l
en tal
er ra
Ãº m
Ġap ro
ĠJ o
Ġd ar
ri es
Ġti emp
p end
Ġs im
Ġv eg
Ġpos i
Ġpres enta
Ġ19 9
Ġcas o
u eg
ĠC ons
es ta
ri d
A N
Ġp at
Ġdur ant
Ġl eg
Ġdes arro
Ġcon t
Ġe di
Ġpro pi
Ġcon di
Ġnom Ã©s
Ġresp ons
Ġm arc
el ec
Ġcon tro
Ġt ras
m os
Ġa g
Ġe v
ti ques
Ġtemp s
Ġm os
Ġm itj
a ix
Ġh um
Ġdesp rÃ©s
Ġe j
Ġcel eb
l i
Ġha y
Ġdi vers
r ada
ri g
Ġv ez
s os
in es
res pon
Ġa ra
a ciones
Ġpro v
Ġpubl ic
ar s
en y
in i
Ġd ir
l as
e a
ent re
t on
ĠV al
Ġdoc um
e o
Ġs an
ar on
Ãī s
Ã¨n cies
y ec
ĠE uro
O R
l s
er es
ad i
b an
Ġs em
Ġpro ced
Ġresp ec
om a
qu i
c Ã©s
Ġaix ÃŃ
Ġmej or
Ġre ci
il la
Ġg esti
h ora
ĠEs pa
ti t
on t
ĠS ant
Ġac tu
Ġd ÃŃa
Ġcor respon
Ġmay or
f r
ti fic
Ġtra c
ell s
e ta
Ġha cer
tic as
o y
Ġl ib
ĠD i
Ġre p
em Ã¡s
ri tor
u da
an Ã§
es t
Ġb ien
ci as
Ġpres id
Ġc in
ient os
c al
Ġdur ante
Ġp ag
Ġtiemp o
al tres
Â ł
ĠN o
Ġparti r
enci as
Ġo tros
Ġp ens
Ġre v
ci o
Ġp ri
Ġ1 2
te d
A n
ab or
ĠÃºl tim
g l
Ġde ix
ĠC h
ĠIn ter
l ament
Ġmill or
tic s
l u
ĠA s
Ġm erc
a cions
Ġt orn
Ġloc al
ent ro
I C
tu d
ÃŃ an
Ġm ismo
ĠT he
Ġsec tor
an es
i ques
Ġi de
m en
ab il
a u
Ġn Ãºm
ri l
ici al
Ġp es
Ã³ r
r al
I I
Ġpers ona
Ġaut or
d re
ud ad
Ġrec on
Ġh om
Ġesp ec
ec n
ter min
Ġt el
Ġob s
Ġa plic
L es
Ġmunici p
Ġdifer ents
esti g
Ġo fer
Ġcomun ic
Ġus u
Ġenc ara
Ġtrabaj o
Ġval or
c on
ter i
n es
Ġs ign
Ġca us
Ġh em
A s
Ġm aj
Ġc ab
Un a
at ura
Ġc at
Ġdes en
Ġpos si
Ġv en
ta da
o to
1 0
Ġf u
Ġe uros
gu al
Ġn atur
ci l
A D
x a
in al
Ġ Ã©
L as
Ġo bl
on g
Ġex p
le g
Ġpro ces
gu i
ĠF ran
Ġperson as
Ġconsid er
ÃŃ m
Ġt ar
Ġw ith
Ġv iv
ĠS e
Ġfun cion
---- ----
Ġun o
ci n
Ġque d
Ġh or
Ġf aci
Ġten ir
Ġw h
t ell
Ġl ugar
Ġtan to
2 00
c an
vol u
Ġf al
Ġse ves
ol u
ari as
Ġutil iz
k e
ci d
Ġ emb
Ġc h
Ġth at
si Ã³n
Ġa y
g res
ĠR eg
Ġc ir
em as
z ar
or i
ic h
ci s
Ġcas a
ĠâĢ ĵ
tr ar
Ġll ib
re g
Ġf ac
Ġcomp l
Ġcam b
ra c
at e
at re
Ġcu enta
Ã© r
Ġ '
eix en
jun tament
Ġf uer
Ġb us
Ġm il
Ġinform aciÃ³n
Ġ1 7
Ġin de
Ġj ug
u i
Ġ3 0
m ar
ac ter
Ġa j
Ġ 0
re u
if ica
Ġv isi
ĠJ os
Ã³ lo
at o
ient es
er m
Ãł r
Ġcomp r
Ġinter na
Ġj o
ent o
Ã¡ c
Ġac on
ar g
Ġd in
Ġn e
c om
ĠS al
Ġd om
tan ts
Ġa cab
Ġqu i
C om
Ġno u
Ġ Ãºn
a f
c s
tiv es
Ġb Ã©
Ġpre m
Ġar tÃŃculo
Ġg overn
Ġde termin
ĠA d
pany a
Ġprogra ma
Ġempres a
Ġa fec
Ġ ur
ul l
Ãł c
Ġ1 4
Ġesta bl
re a
o k
i cia
Ġveu re
Ġ1 6
Ġin t
ob le
Ġcl as
u j
Ġes tan
Ġpro du
se vol
ra t
ÃŃ fic
Ġdi f
Ġan ti
aques t
Ġcomp ar
Ġde rec
Ġ ,
l am
Ġ1 3
Ġz ona
Ġor ig
ĠM ad
Ġciu tat
Ġpod en
Ġl ÃŃn
ed i
Ġres ta
Ġha via
Ġs ido
Ġa gr
Ġci udad
Ġpued en
Ġpro yec
em es
Ġes tos
Ġy ou
ri r
Ġt ur
ar go
Ġf il
Ġpo bl
an os
Ġcon ten
Ġdis c
tiv as
er t
Ġm us
Ġa u
Ġesc ri
Ġesta ble
e tat
Ġb aj
T amb
Ġin te
Ġs ÃŃ
Ġf i
Ġenc u
l y
Ġmod el
Ġp en
Ġtot es
ul o
is tas
u per
is te
Ġun s
D es
m o
ib il
ĠS oci
Ġob je
re d
Ġs empre
Ġla bor
Ġin ten
un que
ec e
v ar
Ġ Ã
Ġlle g
u Ã©s
Ġtra ta
Ġd en
Ġcos a
it er
Ġan y
aques ta
Ġobl ig
Ġb y
h t
Ġad ministra
h as
l ec
Ġprincip al
Ġ1 1
Ġdis posi
ol s
Ġprogra m
Ġtemp or
Ġm Ã³n
Ġt end
Ġt it
si on
Ġpod r
n et
un ta
Ġc op
Ġcan vi
Ġcom erci
em ente
Ġcontro l
Ġc ri
Ġcual quier
Ġqual sevol
Ġt ecn
Ġ Z
Ã³ g
ĠEspa Ã±a
Ġest Ã¡n
l lo
Ġp on
tic os
Ġm Ãł
ix er
ĠL l
Ġpro pos
Ġesp any
av or
Ġrec urs
ĠM an
Ġi d
Ġnom bre
un t
Ġg ent
Ġh ec
ar es
it os
Ġet c
ĠN a
ol es
Ġpel s
Ġpass at
Ġprojec te
Ġno v
ĠC am
ueg o
3 0
ÃŃ o
ador a
Ġb anda
Ġdis pon
Ġb o
tan tes
q Ã¼
Ġll en
Ġ2 5
ord in
Ġdi es
j os
Ġy o
ĠC ol
Ġter ritor
Ġpu es
m p
Ġnos tre
Ġdis s
Ġnos tra
i tal
ot s
ĠA c
Ġv in
Ġi gual
ta mente
si ons
A T
P ara
1 1
Ġde cl
ti ma
Ġcar acter
ra g
ĠpolÃŃ tica
gra f
om b
âĢ ĵ
Ġaqu ell
Ġtip o
ĠC o
ÃŃ l
Ġd atos
ĠC or
un ci
Ġha ce
tr u
Ġcons um
Ġdi rig
av ant
p en
ĠM on
ĠnÃºm ero
Ġcl ar
c el
Ġd ues
ĠC an
A d
Ġ Q
Ġdon ar
ĠO r
Ġp i
ues to
Ġin di
i ones
e fici
Ġmant en
ĠP a
Ġten en
Ġal um
Ġsi empre
Ġm Ãºs
Ġr en
r era
end re
ar t
ĠG u
r on
I S
olog ÃŃa
ĠMad rid
segu ir
Ġp ap
Ġg as
Ġo tras
Ġcon jun
Ġo tro
Â ¿
Ġes tr
Ġinv estig
ut s
Ġaques ts
r is
I N
Ġcomen Ã§
Ġins tal
er ia
Ġp op
Ġmun do
vol up
Ġm ov
s titu
Ġparti ci
Ġenc on
Ã² g
Ġl im
Ġi t
Ġn ing
Ġcon ver
Ġinform aciÃ³
âĢĿ .
it y
Ġrepres enta
Ġcons ul
Ġd ades
Ġv ig
Ġcons titu
Ġt ex
e f
e qu
uer do
Ġd a
Ġ19 8
Ġservici os
h er
Ġp aci
Ġam pl
Ġse gun
cl us
es a
gu in
Ġv ia
Ġneces s
Ã± os
Ġcas os
Ġf ran
l ic
E C
p le
im a
Ġin ici
u z
Ġt ener
d as
Ġdirec tor
Ġse a
Ġcomp et
Ġmen os
Ġcon oci
in ar
. -
Ġcap aci
Ġes per
Ġserve is
i versi
Ġob ten
Ã¨ cn
er ÃŃa
Ġser Ãł
Ġbas e
o f
Ġpor que
1 2
w n
ens a
Ġa ten
u res
Ġtr adi
Ġre b
ĠP la
Ġex pres
Ġnue vo
Ġniv el
Ġnue v
Ġsigu i
e ti
Ġs elec
i an
ĠC l
id e
Ġdist in
Ġdes tin
Ġfun d
Ġmoment o
Ġll am
Ġf on
Ġ Qu
ĠCom un
p re
Ġset m
Ġtod as
Ġrela cion
Ġesp aÃ±
ĠM un
Ġf ir
ab a
ĠUn ivers
Ġj ul
Ġcon ven
Ġp al
Ġre d
Ġb on
Ġto ta
ĠP or
Ġg en
Ġre qu
Ġd re
le x
ĠL A
Ġd o
Ġins titu
Ġs Ã³lo
Ġ Ġ
ri dad
as e
Ġpre par
T he
Ġm et
Ġpres ent
Ġre un
Ġser Ã¡
ĠL le
Ġre m
Ġnatur al
Ġelec tr
ĠDi rec
Ġab ans
itz at
Ġan terior
i onal
Ġres id
EN T
Ġm ad
Ġid ent
A juntament
Ġnos tres
Ġdi v
ier no
olog ia
ic al
Ġd avant
Ġcons truc
g ina
Ġ Ãł
tur al
Ġex plic
c u
f or
Ġcom b
Ġter min
Ġsu p
form a
Ġdesen volup
Ġs a
Ġperm et
Ãłn cia
Ġd ÃŃas
Ã¡ l
i qu
ec er
el s
Ġaqu ÃŃ
enci al
ĠA m
Ġpe ti
Ġf ut
u ta
Ġesta s
Ġencu ent
i ti
Ġt ro
or por
Ġi l
Ġex ist
r up
at ges
ol Ã³g
a z
Ġcatal Ãł
ĠLe y
d ia
ec a
os t
Ġfr om
Ġde c
Ġan tes
âĢ ¢
Ġna cional
Ġf oto
Aques t
se g
I D
Ġo tra
par tament
Ġb u
Ġ /
A ix
Ġalgun a
il a
Ġsegu ir
tu bre
Ġac ces
in ter
g on
Ġes to
Ġdeb e
ul s
Ã¨ r
Ġrec om
id es
Ġd ins
Ġt ÃŃt
tan do
Ġi r
Ġan im
Ġac om
i ra
Ġor den
Ġm Ã©
ues ta
Ġs ur
Ġnues tro
iz ar
Ġecon Ã²m
Ġm Ã¡
end er
Ġa por
Ġp an
Ġseg ons
c rip
tor es
Ġsol u
ÃŃs tica
Ġfin an
ĠE x
A CI
ĠtÃ© cn
ar e
er on
Ġrec ord
Ġinde pend
ĠB ar
Ãł l
Ġf avor
im en
it or
Ġg an
Ġ2 4
Ġdesp uÃ©s
im ents
Ġde dic
Ġveg ada
Ġpre gun
Ġf an
ez a
A c
Ġb aix
Ġfaci l
Ġinter es
al u
Ġsol ici
Ġmol ts
Ġneces si
Ġno va
Ġ ol
Ġob jec
Ġc la
Ġben efici
5 0
fer m
Ġqu ier
Ġpun t
itz a
Ġno t
âĢĿ ,
el a
ter a
Ġj orn
Ġsol o
ent os
ĠEs tado
Ġex tra
Ġus o
c he
u pos
Ġm ÃŃn
Ġex emp
Ġrec or
Ġreci b
ĠC al
ĠP ol
ĠCon se
res a
ig a
Ã² r
tic ular
Ġab s
Ġtip us
Ġl ec
ĠpÃºbl ic
b ol
_ _
Ġb i
Ãł ries
Ġneg oci
Ġof rec
Ġa unque
ĠL os
in d
uer ra
Ġman i
Ã² s
Ġtien en
on i
Ġcam p
ac h
Ġe uro
Es ta
us o
g in
Ġservici o
iv il
pi tal
un s
l la
er ic
cion ales
Ġqu als
um pl
Ġsuper ior
aj e
Ġp Ã¡
ific aciÃ³n
p ro
Ġqu ien
E M
Ġfam ili
Ġserve i
Ġ ĉĉ
iversi tat
Ġcon eix
port un
Ġoc as
Ġal tre
Ġt ri
ra f
Ġpres ente
Ġp in
ĠEl s
Ġun os
Ġad emÃ¡s
Ġciu tad
Ġdes ta
Ġt or
Ġt om
Ġfam ÃŃl
Ġin dic
ob ierno
te g
Ġ [
ĠEuro pe
1 8
Ġm ul
ĠM ed
it es
Ġproduc tos
Ġh ores
at ro
Ġdesarro llo
Ġva ig
tra t
Ġgu any
Ġtrob ar
I T
Ġseg Ã¼
Ġan ar
Ġt Ã¨cn
Ġmed io
Ġparti t
Ġdeb er
n s
ri t
Ġg aran
Ġh is
Ġrecurs os
Ġv ari
la bor
Ġimpor tant
Ġj us
Ġ201 0
Ġaques tes
Ġel lo
tor s
et s
Ġpr omo
Ġcap ital
ĠM in
Ġp ed
Ġhec ho
ĠG ran
iu re
ic e
um en
Ġarrib ar
Ġesta do
Ġ1 00
Ã¨ ixer
Ġnues tra
Ġpr om
Ġdef ini
A mb
Ġcon tac
Ġcat eg
Ġg l
Ġ2 2
at or
Ġdis p
du ca
ti a
1 5
oc at
Ġv ir
Ġ201 1
c en
Ġmen ys
Ġej emp
O M
is c
Ġel la
ĠmÃºs ica
Ġpoc o
Ġal tra
Ġcent re
âĢ ¦
Ġmuc ho
Ġen erg
Ġpro por
bil itat
ig o
Es te
Ġv ÃŃ
Ġ19 7
on e
Ġseg Ãºn
Ġcon cep
Ġc ob
er va
di al
Ġmi emb
C E
19 9
Ġdivers os
Ġpro tec
is tr
m es
ĠM a
! !
Ġdeci d
Ġsab er
Ġun ivers
i ar
Ġs om
ĠNa cional
Ġj ur
Ġob ra
Ġpar ticular
ed er
Ġrespons abil
Ġequip o
Ġes ti
Ġas pec
p ia
Ġinc orpor
ĠGeneral itat
Ġac uerdo
el o
ti da
gu es
Ġre du
Ġes e
om en
Ġter me
is is
Ġsin Ã³
ac tiv
an g
il ar
Ġ2 1
ol Ã²g
C u
ci al
Ġpri v
Ġempres as
cion ar
Ġ5 0
ĠT er
is s
Ġal ter
gu ts
ific ar
Ġpe que
Ġprobl ema
Ġd entro
Ġgrup o
ĠT or
o ta
Ġdesarro ll
ĠS er
Ġw ere
ci do
Ġmani fes
Ġel los
ament s
a qu
Ġb uen
ĠE N
a tiva
Ġemp le
Ġpr Ã²
ĠJ u
ĠpÃºbl ica
Ġpres entar
Ãł m
et es
Ġin m
Ġactiv itats
Ġs os
tad es
Ġr om
Ġdifer entes
Ġpartici par
ai re
tic le
Ġmedi ante
Ġhab ÃŃa
ul es
Ġb an
Ġpor ta
w w
Ġdecl ar
Ġsu port
A M
Ġgran s
Ġindi vid
1 3
âĢ Ķ
or k
Ġp oble
Ġf em
tan cia
Ġtod a
Ġecon Ã³m
on d
Ġs es
Ġpop ular
z as
ti en
Ġmis ma
Ġsitu aciÃ³
R E
Ġn av
Ġm uj
ĠJo an
Ġse Ã±
Aques ta
Ġhor as
s t
al e
Ġa plica
1 4
Ġnue va
oc ar
Ġv os
am e
seg ur
truc tura
S eg
Ġin icia
Ġinterna cional
v is
ĠP res
Per Ã²
Ġind ust
Ġcre ar
Ġimpor tante
Ġpos ar
Ġdis e
Ġh er
Ġlle v
g os
ient ras
Ġa re
Ã ĵ
Ġcal idad
Ġh ora
iz a
i re
Ġcon form
g n
Ġt ema
Ġpro cÃ©s
por te
ĠS i
ĠConse jo
i ons
Ġrec uper
h or
Ġf eb
ed a
i as
Ġalgun s
Ġdist ribu
r u
Ġsigu iente
ĠE m
Ġproyec to
da p
Ġf ÃŃs
Ġp Ãł
Ġtempor ada
os o
on om
Ġcar rer
al la
Ġm ag
Ġoc up
D esp
ar Ã¡n
Ġfal ta
Ġincl u
R O
os pital
in c
Ġal g
Ġcons tru
Ġc umpl
Ġha ur
Ġan te
an ia
Ġcon oc
Ġb lo
ici o
c at
Ġmateix a
Ġun es
ĠSan ta
ĠD ec
ra ciÃ³
Ġmater ial
Ġ os
Ġpresid ent
Ġmaj or
Ġsin o
Ġdem os
Ġs ig
Ġnorm al
Ġinter ess
ac te
em ents
Ġen ferm
on ar
m an
Ġx ar
Ġve h
s er
Tamb Ã©
A C
ci r
Ġsetm ana
er ta
p s
P ero
ut or
U E
Ġim ag
Ġe duca
ĠD es
cion als
Ġconc re
Ġa hora
id or
emb la
ix en
Ġcul tura
Ġha ver
1 7
ell es
Ġim pres
Ġdis pos
Ġrepres en
posi ciÃ³
j as
Ã¡ m
Ġinte gr
m ac
Ġf es
Ar tÃŃculo
Ġalgun os
Ġniv ell
Ġconsid era
Ġcompr om
oc up
Ġa dap
i od
Ġcol or
Ġper d
Ġc ier
Ġb ona
Ġpro per
ĠR o
â Ĥ
Ġpr Ãłc
E x
a va
dos e
am ental
ĠAd ministra
1 6
as t
ien tal
Ġpre ci
Ġd ret
d ica
Ġcon tr
Ġe d
Ġ2 6
Ġcos es
Ġpossi ble
Ġdeci r
ĠmÃŃn im
Ġqu atre
Â» .
Ġf ec
am a
av en
m ientos
Ġc Ãłr
Ġse x
Ġcor rec
Ġex ig
ĠV all
Ġ2 3
Ġcaus a
ac ord
lament o
ĠCons ell
Ġrec lam
us e
ĠA ques
Ġcomp any
Ġgr Ãł
ed ades
Ã¯ t
Ã¨ g
Ġc ient
i ol
Ġemb argo
Ġm ig
Ġd ol
Ġc ur
Ġan al
âĤ ¬
er as
Ġrealiz ar
Ġcaracter ÃŃs
ul tura
is siÃ³
Ġde tal
âĢ ľ
Ġm ir
Ġb lan
om in
Ġhist Ã²ria
Ġf ar
Ġmuc hos
ĠI s
ibil idad
Ġa gua
qu en
re tat
Ġqual itat
ÃŃcul a
at ed
os os
Ġsal ud
Ġm ili
n ov
Ġcondi ciones
l ici
P ro
v in
an til
gl Ã©s
Ġo portun
er ca
Ġev itar
Ġpro f
Ġter cer
Ġjorn ada
ot el
ĠAn d
Ġal go
ï ¿
D ur
Ġleg is
r in
Ġcontra c
ï¿ ½
Ġpos ible
Ġpun to
ien cia
Ġfam il
tu res
Â Ń
Ġdem an
Ġexemp le
b e
T ot
Ġempres es
equ ip
anÃ§ ant
Ġm ai
Ġbaj o
ĠS ec
Ġsoci etat
Ġmunicip al
Ġsent it
b er
ĠP S
Ġll arg
ĠE L
Ġsigu ientes
qu it
Ġesc ol
bl o
Ġtal l
an to
Ġen vi
h om
Ġac ced
Ġactiv idad
ti ons
Ġv o
ĠL as
ic ament
Ġmol tes
Ġform aciÃ³
h ib
Ġactiv idades
gu e
Ġim m
Ġaplic aciÃ³n
ac k
Ġ200 9
Ġv enta
od e
xim o
ar ca
Ġpl ante
Ġop era
Ġmes es
Ġcomerci al
Ã³m o
Ġin tro
' t
Ġay ud
Ġde ri
ĠL es
teri orm
Ġque da
tra c
Ġv uel
Ġtin d
Ġejemp lo
Ġdes tac
Ġla n
ÃŃ cia
Ġpobl aciÃ³
Ġcas tell
ĠUn iversitat
Ġm ot
ĠSoci al
is ter
Ġel abor
Ad emÃ¡s
Ġcomp aÃ±
Ġcon se
ĠcomenÃ§ ar
-------- --------
Ġcan d
Ġ2 7
o cia
Ġim pl
Ġcomp eti
ism os
Ġderec ho
Ġpr Ã¡c
Ġv ista
Ġaf ir
Ġ2 8
ĠP al
Ġeuro pe
Ġreg ul
Ġc ic
Ġsegu ridad
Ġha cia
Ġrel aciÃ³n
em Ãł
at er
Ġpass ar
Ġqu Ã©
Ġho y
ĠC i
Ġmes os
Ġres olu
ĠE S
ĠInter na
Ġcons ecu
Ġam or
I V
Ġel ement
Ġl ÃŃ
ĠmÃł xim
d ico
r ado
Es tat
Ġvi ol
ier on
p id
Ġesp aci
Ġ19 6
Ġd ones
Ġpod rÃ¡
uc h
Ġcent ro
Ġper fec
Ġre par
Ġm entre
di ente
ĠRe al
ĠÃ© l
ĠJ or
Ġincl uy
en o
Ġsign ifica
Ġllib re
ov es
enta ciÃ³n
Ġinter ven
Ġf ill
Ġproces o
c ol
po ca
c k
is h
ĠJos ep
ti do
Ġta s
v ant
Ġp ad
Ġter c
Ġcons erv
Ġa do
e as
Ġmill ones
Ã© c
ec h
p r
Ġd ona
gu da
Ì ģ
Ġll u
ĠS ol
ĠEuro pa
Ġhab itu
Ġfinan ci
Ġide a
Ġm emb
g les
Ġrespons able
ist ro
c os
Ġof icial
ĠG overn
Ġperm an
ĠJos Ã©
u bl
Ġal ta
ĠM us
ed or
ion ales
ĠS eg
as i
Ġof ici
or gan
ra ciÃ³n
E L
b o
iz ado
ĠJ a
Ġcomp te
titu d
Ġex cep
Ġespany ol
Ġdre ts
Ġfuer on
l oc
ob jec
im e
quit ec
Ġar t
Ġdif ÃŃ
x es
ĠF und
Ġsoci als
ed ia
ta gon
u ri
all y
an as
Ġf ab
Ġav ui
Ġ201 2
Ġo per
T A
Ġcon ta
Ġserv ir
Ġs ob
Ġpod em
Ġgran des
Ġedi fici
Ġlabor al
to t
ĠCom isiÃ³n
le t
Ġm ientras
di o
U N
Ġdef in
Ġseg le
Ġv am
Ġent orn
ĠV ic
Ġdi u
ĠI I
Ġau to
ut ar
Ġgesti Ã³
Ġ Ã¨
Ġ4 0
Ġes o
g el
Ġtrac ta
Ġcatal ana
Ġex pl
Ġr ad
in as
Ġri es
Ãºbl ica
Ġllen gua
Ġs embla
Ġex clus
isi Ã³
enta ciÃ³
c ri
ĠM as
Ġmerc ado
ĠG ir
Ġpun ts
Ġ ub
Ġpr ue
Ġal can
cul ar
Ġf ent
Ġmaj oria
Ġacon seguir
im os
Ġsu pos
Ġso ta
Ġdi ci
Ġim pos
ĠC ON
e j
Ġqu in
Â ´
Ġl iter
Ġprofes s
r Ã¡n
Ġtra m
Ã§ os
Ġ2 9
Ġseg ona
4 0
b res
Ġado p
la v
Ġej erci
Ġmitj anÃ§ant
Ġm er
Ġinc re
ti o
si onal
Ġac ord
ig ht
e w
Ġes a
y o
Ġpas ado
posi ciÃ³n
Ġav an
Ġper iod
ific aciÃ³
Ġnues tros
Ġel eg
S in
Ġs iendo
Ġex plica
Ġres pon
a ud
Ġcent ral
rib un
Ġ200 8
Ġinter pre
Ġhab er
ĠAn ton
ĠÂ ¿
ien e
uel a
Ġcon duc
emp resa
itz ada
oci aciÃ³
Ġv ot
Ġten im
Ġpla zo
i va
l and
tr um
ĠUnivers idad
Ġcan ciÃ³n
Ġapro v
Ġform aciÃ³n
Ġrel aciÃ³
Ġencuent ra
it en
Ġno ves
Ġestudi o
Ġ %
ci pi
r ers
Ġcl ub
Ã© u
ĠÃ ģ
z e
ut os
O L
Ġsitu aciÃ³n
ÃŃ tica
ĠpÃºbl ico
Ġcul tural
Ġ200 7
m as
Ġdi gi
n i
Ġjun to
f il
Ġcand id
Ġcont emp
Ġpro tagon
Ġprofes ional
Ġes tim
Ġtrata miento
Ġdesenvolup ament
ĠInter net
Ġdigi tal
Ġdeix ar
Ġwh ich
ĠMar t
I A
Ġg us
Ġj ust
Ã¨ c
Ġdivers es
Ġpla ta
ci miento
en se
r or
Ġcan ti
m at
tad as
I M
ug h
ĠJu an
Ã³ d
m on
Ġfor Ã§a
Ġleg al
re to
ĠcÃłr rec
Ġex ten
Ġf Ã¡
ĠL u
Q ue
Ġm y
Ġg o
Aix ÃŃ
Ã¯ sos
2 2
ĠI N
ĠB en
t em
j ud
Ġacces o
Ġdem oc
Ġjun y
Ġv ul
Ġsu f
Ġhist oria
Ġse par
Ġs ens
ac ciÃ³
Ġseg on
Ġfe ina
Ġg aire
Ġtrans m
Ġs ac
Ã³ p
Ġnos altres
ĠC ap
c le
w e
Ġp il
Ġp is
Ã± as
Ġv eces
on o
Ġcar a
Ġproduc tes
u ria
. ,
ir Ãł
Ġcu atro
Ġgesti Ã³n
ar ra
Ġcomp or
tr ic
Ġj u
ues tra
Ġcon e
tud is
Ġindust ri
Ġg uerra
tat ge
Ġcondi cions
Ġap r
Ġa um
ĠEs tados
tur as
Ġj oc
Ġc ivil
om as
Ġv ic
Ġal iment
ap ar
Ġprov in
ĠT h
l or
Ġpr Ã³
Ġg ol
Ġfut ur
Ġdiss eny
ĠR es
Ġapar tado
Ã¨ m
2 5
Ġcar re
Ġde j
Ġtel ev
Ġj ud
ĠB o
Ġm ec
Ġcu er
En tre
Ġcam ÃŃ
Ġma ig
t ri
p h
Ġvol un
Â» ,
Ġf ou
Ġm em
si ones
ĠT e
Ġn ada
ĠâĢ ĺ
Ġp s
Ġel l
ai gua
g er
Ġprojec tes
Ġmili ons
Ġparticip aciÃ³
r y
fic ul
Ġme u
Ġf igu
ĠP P
Ġh ad
ĠespaÃ± ol
Ġinc lo
mb it
ĠÃºltim o
I L
Ġin gres
As s
ĠA mb
Ġcomunic aciÃ³
ac e
Ġex iste
ĠA b
Ġfec ha
ti z
Ġap oy
Ġmiemb ros
Ġaj ud
Ġdis fr
Ġseu a
qu il
Ġpro teg
Ġperm ite
Ġel ls
Ġad ecu
Ġmuc has
ĠSe gu
ĠR ep
Ġcir c
L o
f i
ĠS u
bil idad
8 0
es tat
ĠDe partament
Ã© g
t el
Ġtr ad
es tar
Ġs ome
Ã¡c ter
U R
ĠC r
Ġob res
Ġcateg or
Ġobje tivo
Ġa h
Ġespec ÃŃfic
Ġgra tu
Ġdici embre
Ġcar Ã¡cter
ĠT ar
l us
gu Ã©s
Ġl argo
Ġcom ent
Ġnav eg
C omo
en c
cal de
S u
Ġur ban
Ġm ica
fici al
Ġb al
i tan
c ola
Ġub ic
pos ta
ĠS E
Ġgl ob
Ġser ie
Ġm ens
Tamb iÃ©n
Ġcon cer
Ġe vid
ta ciones
is tir
Ġfab ric
Ġra z
ĠEs panya
ĠT ra
ĠM or
Ġf os
Ġval enci
ag o
.... ....
Ġten ia
Ġjul iol
Ġconv ocat
Ġterritor i
Ġco ordin
Ġcer tific
ĠM o
Ġg ar
Ġel im
ÃŃ fica
ĠtÃ© r
Ġgrup s
Ġprofes ionales
Ġprin cipi
Ġno us
Ġderec hos
Ġmater i
Ġd im
Ġle y
Ġlle gar
Ġmar ca
objec tiu
Ġacab ar
Ġjur ÃŃ
ACI ON
ĠEurope a
Ġobs erv
Ġcon Ã¨ixer
Ġ3 1
Ġdef ensa
Ġv el
Ġcol abor
Ġg e
p u
k s
Ġaf eg
Ġper ÃŃ
Ġfoto graf
tr an
Ġfamil ia
Ġt ren
Ġbar ri
Ġprobl emas
th er
Ġtrans form
Ġb ut
Ġent rada
Ġmed idas
Ġveg ades
Ġtit ular
g as
Ġha v
ĠCas tell
Ġt ard
Ġm uer
Ġe jec
Ġrequ er
Ġdi ficul
Ġde r
Ġsu fici
Ġefec tos
Ġsegu retat
i tir
ĠfamÃŃl ia
ĠdifÃŃ cil
) :
O r
ier ra
en da
Ġreal itat
Ġer en
im ientos
ĠR ec
Ġse p
is ti
ĠpaÃŃs es
Ġtro ba
ĠP rem
til la
tiv al
o per
Ġsub ven
Ġrel ig
ĠG obierno
Ġsegun do
w s
Ġ Ìģ
Ġfu era
ĠV il
ĠG o
Ġcomp os
gra t
Ġpobl aciÃ³n
Ġpues to
Ġc ad
ta cions
Ġr Ãł
U L
Ġun as
ul d
or te
ca pa
ĠJor di
Ġv arios
Ġincl uso
Ġf Ãł
Ġneces ario
Ġalum nes
Ġe duc
es qu
in os
v il
Ġreal itz
ĠC ent
t Ã¡
Ġ6 0
Ġmo do
ĠDE L
sion als
Ġpar e
Ġcont ribu
te x
ĠT ur
c ur
ad al
Ġsa tis
r ero
C ons
ĠF er
Ġset embre
Ġpod rÃł
Ġj oves
ĠReg lamento
on as
Ġorig inal
Ġsen y
ÃŃ em
Ġha bl
Ġconc urs
6 0
i ot
v al
Ġla do
iv o
ĠGir ona
Ġreal itzar
Ġcas i
ĠIn stitu
Ġap rob
Ġrespec te
Ġcol ec
Ġconf ir
di entes
Ġmunici pi
i k
qÃ¼ esti
Ġ Ãīs
ol d
T R
Ġacon segu
ĠH e
Ġmitj ans
Ġdi jo
f a
Ġinter ior
ĠP e
ot ros
Ġresul tados
Ġin fer
Ġcamb io
Ġnuev as
Ġc Ã³mo
tis ta
Ġa ga
et ra
r ad
Ġem o
un ca
ĠVal enci
Ġjun io
Ġsu c
Ġjul io
Ġcri ter
Ġd it
Ġan unci
ĠÃ¡ mb
Ġconc ent
ar ga
Ġalgun es
Ġencon trar
Ġnuev os
ta ble
R e
ti onal
Ġb ot
Ġj uego
p ol
Ġter ra
ĠInterna cional
g ent
Ġdic ho
og raf
i Ã¨ncia
Ġpat rim
in form
ĠP at
Cu ando
Desp rÃ©s
Ġde tec
Ġesp ai
Ġlegis l
id er
g ia
Ġpun tos
o ur
Ġsim pl
Ġ qÃ¼esti
Ġpaci entes
ĠLle i
Ġ19 3
Ġpas sa
ues tos
Ġf el
ci endo
ist Ã¨ncia
ter s
Ġv ac
ab te
ĠA ut
Ġf ot
Ġpre ten
Ġalgun as
Ġex tre
Ġinvestig aciÃ³n
Ġrequ is
ĠvÃŃ de
Ġin nov
Ġel ev
Ġes de
Ġl ÃŃm
ac tual
Ġpres s
Ġsobre tot
Ġdom in
Ġre duc
Ġent itats
Ġpar l
Ġrespec to
Ġvisi ta
ĠR am
ĠP rim
g re
Ġpap er
an ta
ĠF or
vi embre
n as
al tra
l ine
Ġmen or
Ġinicia tiva
Ġusu arios
Ġtorn ar
d ol
um e
t Ã³
Ġa vi
gu en
Ġimp uls
la cions
ec en
Ġprofes sional
A P
Ġdon cs
Ġpens ar
ti es
et re
ĠA y
ĠlÃŃn ia
Ġd ub
j es
ĠS erv
h ab
Ġins trum
Ġlib er
Ġmar Ã§
Ġpre fer
Ġcl ient
Ġplan ta
Ġtreball ar
i bles
us iÃ³n
Ġcar rera
gu er
u als
e e
z os
Ġdes embre
Ġcent res
un y
Ã į
ib er
P ar
Ġprofes sionals
en es
c ho
ĠC entre
ĠP lan
E D
Ġhabitu al
Ġp ob
ĠMar ia
Ġindepend ent
2 1
u ari
V a
ĠPres id
u ales
r Ã³
ap ro
Ġn it
Ġth is
Ġalter na
ÃŃt ulo
Ġpla Ã§a
Ã© l
Ã¡ tica
on ces
aques ts
Ġfr ente
Ġhaur Ãł
tor a
Ġr u
ab an
i ciÃ³
an cia
oc al
Ġmemb res
Ġmayor ÃŃa
Ġni Ã±os
m s
Ġconjun t
w o
Ġver dad
Ġres ol
v os
at ori
Ġprobl emes
Ġesta ba
Ġes por
Ġsig lo
Ġrec og
Ġad qui
An d
Ġ up
Ġac ep
tan y
ur al
ĠpÃł gina
Ã² l
Ġha ya
iv e
Ġref lex
c as
Ġsos ten
at es
ĠtÃ©r min
Ġa ug
a k
ici p
qu ÃŃ
E T
Ġd ura
Ġdeb en
Ġmay o
Ġsegun da
Ġj ugar
ic k
ĠCl ub
Ġg aud
Ġf ase
Ġmil itar
Ġresta ur
Ġcomp on
Ġqu er
Ġcar Ãłc
ig h
Ġh emos
ues tas
Ġdef ens
an za
Ġconver tir
w are
ĠgrÃł cies
Ġconoc er
Ã³ l
Ġpu e
Ġa di
ĠD el
Ġconf lic
Ġnom b
Ġpor tar
iz ada
Ġt us
j u
ri e
es e
t y
Ġad m
Ġcos tat
Ġmuj eres
ribun al
Ġxar xa
Ġc ita
b Ã©
Ġta mp
Ã Ģ
Ġaut om
Ġpar lar
b as
ĠC u
Ġpre cis
Ġg al
ĉĉ ĉĉ
A B
Ġd u
Â «
a bles
Ġpre ven
Ġent ren
ĠX V
it ud
Ġcer ca
Ġc rec
es tudi
Ġf ora
Ġv id
Ġcos as
bl iot
Ġcient ÃŃfic
Ġde por
Ġfr u
b it
Ġcompl ement
Ġay uda
ĠÃºl tima
Ġsu el
Ġparti ts
Ġderi v
Ġelectr Ã³n
ent emente
Ġcu anto
ca ba
Ġexp ed
oc tubre
Ġno viembre
labor aciÃ³
Ġpres en
Ġso f
Ġab ril
Ġs Ã©
ĠJ unta
Ġcin c
Des de
Ġd Ã³n
or ca
2 4
ĠP as
Ġpubl ici
ĠÃºn ica
Ġent rar
is o
Ġtamp oc
Ġmar zo
iz o
Ġproduc to
Ġpropor cion
Ġmos tra
Ġrep ro
Ġproduc ciÃ³n
Ġfacil itar
ĠlÃŃn ea
p eci
ĠsegÃ¼ ent
tr al
Ġlloc s
lo w
de z
Ġresul tats
it ari
Ġvin cul
ri do
Ġcomunic aciÃ³n
Ġpod emos
Ġcab o
re o
re z
ab ril
Ġestudi os
h av
Ġtrabaj adores
Ã¡ b
ĠW eb
U P
ob ra
Ġelectr Ã²n
et ro
ĠR os
Ġsi tio
Ġ200 6
Ġmed ios
ĠT amb
I B
Ġtemp er
ĠP en
ol id
Ġmater ia
a h
Ġcons ci
Qu an
Ġin icial
m ien
Ġpodr Ã¡n
an i
Ġaten ciÃ³n
ist encia
Ġrec ep
Ġoc tubre
ti embre
Ġnorm ativa
Ġcanti dad
Ġh ip
ubl ic
H i
ĠG rup
ĠpÃ¡ gina
Ġ19 4
2 3
pa Ã±
Ġqued ar
di endo
Ġter ren
ac cÃ©s
Ġexper iencia
la ciones
tor ia
ic amente
Ġen ero
Ġbu ena
Ġcre a
Ġnov embre
Ġha ve
Ġ Ã³r
Ġrec oll
z ado
Ġpa Ã¯sos
Ġve Ã¯
Ġb and
all es
Ġde p
Ġsub s
Ġsem ana
ier e
ĠcarÃłc ter
Ġmin uts
Ġcapaci dad
Ġsin dic
H a
ĠM arc
ad ament
ĠU N
activ itat
Ġn um
Ġrecon oci
ici os
ĠF ac
Ġd aÃ±
Ġde u
onom ia
Ġe volu
le d
umen ge
Ġequ i
Â º
Ġ19 5
ĠO b
s es
tiv amente
Ġas oci
ica ciones
Ġab and
r om
ĠB i
p as
ĠA ix
Ġmes ures
ĠP ed
r ÃŃa
Ġen v
Ġcatal ans
ul os
Ġinform e
ĠVal Ã¨ncia
Ġpro b
is cal
Ġmas sa
Ã¡n dose
Ġespecial ment
Ġn ens
Ġf re
Ġa gu
ĠaÃ± ad
u ig
Ġcu b
Ġrec erca
Ġm ic
Ġglob al
Ġser ia
Ġmor t
es pa
Ġries go
Ġfun ciÃ³n
' m
R ES
Ġcre ix
Ġda ta
Ġusu ario
Ġusu aris
ari al
ĠseÃ± al
tiv e
Ġmal al
l d
ĠN av
end res
Ġmod er
um p
Ġob ras
Ġins ta
Ġn ord
Ġser Ã¡n
ĠF ern
Ġinter Ã©s
Ġll iure
Ġsal ut
Ġpal ab
ĠF eder
Ġk no
Ġcuer po
am p
Ġme va
tiv ament
or e
__ __
Ġ200 0
ĠsegÃ¼ ents
ĠG al
ĠComun idad
O E
Ġtradi cional
Ġapro xim
on or
Ġcons ell
on at
Ġprop io
tor al
Ġan ual
Ãł mbit
Ġdecid ir
Ġsist emas
Ġtot hom
Ġsu pon
Ġinf lu
Ġpap el
ĠG ar
Ġning Ãºn
Ġes qu
Ġbus car
Ġlim ita
Ġcre aciÃ³
Ġgu ard
Ġ9 0
E m
I CI
Ġsent ido
Ġcon ci
ĠM at
Ã¨ ria
Ġh ub
Ġon e
Ġconten ido
Ġpress upos
rec u
ed o
Ġpos t
ing Ã¼
Ġ ul
tal es
ĠâĢ Ķ
Ġofrec e
ĠX X
tien e
Ġes trat
Ġblo g
P od
ĠB er
Ġcin co
Ġpr on
Ġa Ãºn
Ġacom pany
Ġdiss abte
ĠAdministra ciÃ³n
d em
ed uc
ti cia
Ġn unca
Ġpu gui
Ġt eu
Ġparti do
Ġp le
U S
Ġsoci ales
Ġcurs os
Ġpued a
R ec
teri ores
Ġedi ciÃ³
m enta
Ġcurs o
a is
ĠC os
Ġmerc at
Ġpa is
w ay
Ġcontin guts
tad or
Ġcu esti
Ġl uc
As ÃŃ
f o
ob il
Ġs Ã¨
Ġp rac
Ġpre cio
Ġprem i
I R
Ġlle var
ar em
Ġcam panya
Ġintro du
z Ã³
h es
le gi
Ġorgan itz
ĠS uper
Ġtreball adors
Ġejerci cio
Ġpan tal
Ġk m
ing s
Ġint el
Ġr Ã¡
Ġse an
aques tes
Ġpod ria
Ġf ons
ist re
Ġprincip als
Ġhab i
ĠperÃŃ ode
Ġterc era
Ġv ist
ment s
ci dad
Ġconstruc ciÃ³
ÃŃ p
f ac
Ġlo gr
ran s
Ġelec cions
Ġejec u
ĠÃ¡mb ito
Ġpas o
Ġpropos ta
erra mien
Ã©g imen
Ġorig en
v ent
Ġcon ced
A ra
Ġpre ocup
C al
Ġent onces
Ġesta va
it ario
I m
un da
Ġaquell os
Ġenferm edad
Ġcl ientes
Ġlle i
Ġsal a
Ġprincip ales
el lo
Ġ8 0
Ġes tu
Ġg ente
is to
Ġcr Ã©
Ġ ÃŃn
Ġdem Ã¡s
k a
Ġdemoc rÃł
da vant
im o
eg a
Ġha gi
Ġprop ia
ig ur
Ġgra cias
d in
Ġcon n
ĠB an
Ġden omin
Ġs il
Ġco in
Ġcr isi
n er
ca p
Ġsoci edad
unta miento
Ġen fr
Ġsep tiembre
ĠUn a
or ar
Ġsent ir
Ġinfer ior
Ġecon om
Ġdesta car
Ġm Ã¨
ĠCon ven
Ġb Ã¡s
fic o
es per
ĠR od
Ġtrac tament
Ġmos tr
Ġe ta
Ġdirec ciÃ³n
ica cions
Ġpos terior
Ġau di
Ġtermin i
u til
ueg os
Ġv iu
Ġres to
Ġpro gres
Ġcomp ra
p ir
ĠV er
Ġindivid ual
Ġdesc on
rag ona
Ġform at
Ġmodel o
Ã¡l isis
Ġv as
Ġev alu
Ġmed ida
ĠP l
Ġre pe
Ġ rob
Ġexplic ar
xim a
Ġtar de
Ġb os
ul as
Ġcapaci tat
Ġorgan iz
ÃŃs tic
Ġfr on
D i
ad amente
II I
Ġur b
Ġresul tat
Ġac ad
Ġinf antil
Ġmat ÃŃ
an Ã§a
7 0
te ix
Ġdeber Ã¡
Ġdeb ido
2 9
Ġvis itar
tar ia
Ġde partament
r ÃŃ
Ġmillor ar
ĠMun icip
F inal
od os
) ;
any s
Ġlib re
ent ment
Ġals o
ĠpolÃŃ tic
T E
Ġmej ores
Ġtin gut
an ce
x it
b u
ĠCam p
Ġincre ment
e y
ĠEs c
Ġmun dial
cul o
Ġde pend
Ġfigu ra
Ġresul ta
ĠM ol
ĠA g
Ġprim ers
Ġv arias
Ġf recu
ĠS in
Ġe fica
ĠJ es
Ġmol ta
Ġespaci o
Ãº til
Ġ âĤ¬
teriorm ente
Ġaqu ells
Ġer an
t Ãłncia
Ġes tructura
Ġf arÃł
Ġvel oci
Ġac cep
en ce
Ġe dad
Ġproyec tos
Ġconsul ta
ister io
ill as
bl ement
Ġin versi
Â ¡
ministra ciÃ³
Ġfamili ar
Ãĵ N
gen es
Ġmo tiu
tiv idad
Ġt ir
o ut
tu ro
Ġmanten ir
Ġr end
a utor
Ġobje to
Ġex cel
Ġform ar
Ġel las
O C
pres a
Ãł tic
Ġcu ales
itar ia
p es
og le
Ġc oc
Ġequi pos
ĠM ont
Ġl uego
is a
un es
ci dos
Ġdel eg
Ġdise Ã±o
Ġpar tes
bl emente
Ġform ul
e te
Ġampl i
T o
Ġha uria
isi ones
Ġciutad ans
Ġimpor tantes
esc ola
Ġh erramien
Ġcon tex
if e
Ġpag ar
Ġ200 5
Ġviv ien
Ġcomb in
Ġar quitec
Ġefec to
Ġw e
Ġen d
ar y
/ /
glÃ©s ia
Ġpu guin
t ing
Ġsol s
Ġorig in
iv al
ĠC ultura
ap a
Ġgr upos
ĠPer Ã²
ĠM Ã©
am eric
Ġelement os
Ġpon er
Ġs h
Aix Ã²
ra ment
Ġcon seguir
ar ticle
ĠDec reto
Ġpes ar
Ġdes ign
Ġim plic
Ġgaud ir
ĠmÃ¡ ximo
Ġen ll
ĠR E
Ã© is
ÃŃ ci
Ġi ts
2 8
Ġyo ur
ĠtÃŃt ulo
qu et
il lo
Ġcom er
Ġpresenta ciÃ³
ĠÃ© x
ĠpolÃŃ tiques
2 6
Ġdesp la
ir Ã¡
Ġest em
Ġpres Ã¨ncia
Ġcon fer
ĠG ra
ĠH o
di Ã³
Ġ201 5
ita ciÃ³n
Ġl en
Ġdi umenge
av ier
Ġdol or
Ġcap a
Ġ :
or ld
Ġa segur
Ġh ospital
ĠfÃł cil
Ġ ĉ
Ġalg Ãºn
Ġpropi et
u to
Ġs ap
ar en
ĠF orm
it Ãłria
Ġdis min
Ġpri or
tÃŃcul os
si fic
Ġdirec ciÃ³
al t
Ġmed ia
Ġpresid ente
Ġno che
in ici
M e
ĠQ UE
ĠcaracterÃŃs ticas
ĠLle ida
Ġr isc
t Ã²ria
is e
Ġs ÃŃn
Ġb Ãłs
at en
Ġd oble
Ġs is
us uari
ĠJ ul
I O
Ġ201 6
Ġutiliz ar
b um
Ġorgan izaciÃ³n
Ġpro hib
Ġpued an
ĠeconÃ²m ica
Ġmag n
Ġno ta
Ġtind rÃł
Ġsor tir
k ing
any a
Ġh otel
Ġespecial mente
Ġpres up
ĠC OM
Ġfeb rer
Es to
ĠD av
ci pl
Ġdesc ar
Ġs ta
tiv itat
' ,
Ġser an
qui era
ti ble
lav ors
Ġcontinu ar
on ia
ĠpolÃŃ tics
Ġprotec ciÃ³n
ĠMun dial
Ġemp ez
Ġall Ã²
Ġhab il
C O
Ġal em
Ġcorrespon diente
ĠA p
Ġabs olu
Ġf lu
Ġquan ti
Ġo ut
Ġaj us
Ġ201 7
Ġpar ece
ĠTar ragona
m ina
Ġg re
Ġs enci
Ġmod ern
Ġthe ir
Ġb r
Ġresul tado
ator io
Ġpro u
ĠtÃŃt ol
Ġprofess or
Ġllib er
Ġim atge
Ġindustri al
Ġnecessi tats
pa Ã±a
Ġsen si
2 7
Ã¨ tica
Ġdesc ob
Ġfun ciones
ĠUn idos
Ġarrib a
19 8
ĠSer ve
Ġcompar tir
bliot eca
ĠO l
Ġesc en
Ġrev ista
il ib
Ġveh ÃŃcul
Ġsol id
ĠfamÃŃl ies
ĠFund aciÃ³
u mb
Ġceleb rar
Ġmus ical
Ġnecessi tat
Ġcomp rar
Ġdesc ub
ĠÃºltim os
Ġan omen
Dur ant
J o
ĠCons titu
ter n
t Ãł
f e
ĠfÃ¡ cil
Ġman o
Ġde jar
Ġh ome
Ġtecn olog
Ġten emos
ĠQ ue
id ors
Ġgaire bÃ©
Ġv iure
s im
Ġf as
Ġamb iental
Ġinform a
Ġveh ic
Ġb at
op era
D O
ici na
ĠprÃ² pia
Ġnos otros
Ġg ro
Ġy e
ac tu
Ġcl ÃŃn
Ġdiv endres
v estig
ĠMart ÃŃn
Ġtit ul
Ġconse qÃ¼
Ġcu ar
Ġloc als
Ġh erm
ig os
Ã¼ es
Ġreal idad
Ġjus tific
d ades
* *
Ġencon tr
Ġmet res
Ġel ements
Ġde pen
Ġar tic
T O
Ġconeix ement
Ġn uc
ĠCatal ana
Ġimag en
Ġproduc ciÃ³
s on
Ġefec tu
Ġ201 3
k i
Ġproced imiento
A m
Ġor ien
ar ts
ti g
ĠF es
Ġactiv itat
i era
Ġes truc
Ġf l
Ġres erva
s o
Ã¡ tico
se Ã±
Ġbas es
Ġcor por
Ġceleb ra
Ġprimer os
ĠM erc
ci den
R es
I F
Ã§ ar
Ġnorm a
ĠEs ta
In stitu
Ġcent ros
ix a
Ġcer t
Ġg obierno
9 0
Ġdi vid
ra es
ĠÃºn ico
Ġf ol
Ġent r
ĠRep Ãºblica
Ġpot ser
C ar
b r
Ġex erci
Ġpodr ÃŃa
Ġll um
Ġrecon eix
Ġper ten
ens o
Ġneces idad
Ġpro va
Ġv aria
Ġm ismos
Ġaqu ella
Ġresolu ciÃ³n
Ġconstru ir
ant ar
Ġw ho
ec ho
p ed
esp ec
Ġesp era
ĠMar ÃŃa
ĠJ un
Ġdic ha
Ġcarre tera
Ġcom m
od i
Ġconjun to
ĠS a
u do
y e
ĠI t
T en
Ġg ir
Ġf esta
Ġsec ret
ic ar
Ġsem bl
ari tat
Ã³ vil
Ġ3 5
iv os
Ġan at
Ġab ier
Ġ200 4
Ġ201 4
Ġcos ta
Ġtex t
j at
Ġfun ciÃ³
Ġcom arca
ĠÃ³r gan
Ġrefer Ã¨ncia
Ã© tica
Ġfeb rero
Ġmant ener
Ġvol em
Ġcon si
Ġmin utos
Ġre tir
ter o
C ada
adas c
eg o
re di
I G
ĠP r
Ġal to
Ġpod ran
: //
Ġf o
an ti
Ġprim ero
Ġres posta
Ġcr ÃŃ
Ġpos ibilidad
ĠT ribunal
Ġneces idades
Ġ( "
Ġplata forma
f f
Ġe p
Ġofer eix
k et
4 5
Ġbe en
Ġreg ular
Ġpod eu
en ar
Ġrefer encia
Ġprev ist
ĠsÃ¨ rie
Ġus ted
O b
ĠD ip
Ġllib res
Ġsu d
e tas
Ġextra ordin
Ġar gu
Ġutil itz
Ġnorm as
s in
Ġcr isis
Ġcom ien
Ġresponsabil idad
ĠG uerra
ĠL OS
Ġar tÃŃculos
Ġcar go
Ġimpor tants
ex o
er to
in f
Ġfut bol
Ġpas ar
Ã¨ l
Ġfir st
de ix
Es panya
l le
Ġes tudis
esti u
ĠC entro
Ġdefini tiva
ri o
Ã©r ica
Ġtend rÃ¡
Ġesp ais
ĠD ur
ĠCar los
Ġpres encia
ĠP ere
d s
Ġmill ors
Ġex am
Ġa de
Ġ7 0
u x
an ces
ĠC ivil
Ġap ren
Ġfund amental
Ġad ul
Ġc ot
ol o
Ġvis ual
Ġcom Ãºn
Ġre bre
Ġor g
Ġdesta ca
Ġtu vo
3 5
re as
Ġpre u
Ġfu turo
Ġtar da
Ġh izo
r ent
ri ll
Ġparticip aciÃ³n
on io
Ġhom es
t ware
n at
c ha
Ġofer ta
Ġmis s
ĠN ew
Ġ ran
aj o
el y
Ġf oment
ĠO c
Ġa ta
tal s
ĠĠ ĠĠ
ĠAnton io
ci tat
os es
ĠU r
Ġmec an
Ġps ic
tan cias
Ġl ong
Ġrecord ar
ir se
Ġins crip
ÃŃo do
Seg ons
ĠdÃ³n a
Ġs ho
Ġdisposi ciÃ³n
Ġdar rer
ĠvÃŃde o
Ġhav ien
Ġacom paÃ±
Ġren ov
Ġlle va
Ġten ÃŃa
ĠP o
Ġpue blo
Ġ201 8
i Ãł
es tre
Ġcam po
ĠpÃºbl ics
ĠMin isterio
Al gun
Ġmul ti
T h
Ġsigu in
Ġreb ut
Ġf rac
ĠM al
Ġman d
Ġpe tit
es te
Ġin cid
Ġrespons ables
si va
il d
Ã© m
o fer
g at
A v
Ġpag o
ĠC iu
Ġpla y
Ġapoy o
Ġtex to
Ġ Ãºtil
Ġdin ero
Ġri g
Ġmes ura
ĠC ab
Ġre t
Ġmejor ar
gr Ã©s
Ġper fil
Ġt ime
Ġpued es
Ġmos trar
ĠIn d
Ġes f
Ġconten idos
esc rip
Ġa ire
Ġmuj er
Ġfuncion amiento
al gun
Ã² ries
ĠAy untamiento
Ġent idades
Ġenerg ÃŃa
ĠlÃŃ der
Ġcul tur
Ġre ac
or o
al um
tr ica
h n
ĠfÃŃs ica
ĠI m
ĠÃ©x ito
Ġlib ro
Ġthe y
Ġequip s
Ġp ac
qu ia
Ġcon tar
Ġbus c
educ aciÃ³
Ġcon ces
im ismo
Ġt emes
gu any
Ġal eg
Ġinte gra
Ġesc rib
Ġprue ba
S ong
ĠIn form
ap lic
Ġs ing
Ġg erm
om es
Ġjug ador
Ġ200 3
Ġdic e
ĠP re
Ġf us
L A
ĠT el
Ġn eu
Ġning Ãº
Ġhom bre
enci ar
Ġpossi bilitat
Ġfill s
I P
Ġgen era
g ado
tar Ãł
ĠI II
Ġmen cion
Ġn ad
ĠMunicip al
Ġa trac
3 6
a ug
p eu
Ġoc ur
% .
ĠIn s
Ġreg istr
ĠUn iÃ³n
Ġt em
le y
ĠEspa Ã±
ĠT o
Ġar ch
J a
Ġpro ve
eb o
or t
ĠPa ÃŃs
Ġdom ici
Ġres erv
ĠEs te
l aciÃ³
ĠB e
Ġdesc ans
espa i
Ġobten er
Ġconoci miento
ĠFran cis
ent rada
Ġcor az
Ġselec cion
Ġpropos tes
Ġdem anda
Ġme tros
ĠC er
om Ã©s
ĠAl b
os to
ess in
ĠtÃ©cn icas
Ġconstruc ciÃ³n
ĠE con
Ġder ro
Ġsu m
Ġlec tura
ĠB ale
Ġsim ilar
Ġinsta laciones
Ġper ÃŃodo
Ġapro f
Ġagr ad
Ġcomple ta
an ar
Ġfin es
ĠA t
gles ia
Ġconf ian
Ãłn ia
rem os
Ġri t
Ġespany ola
Ġl uz
hi le
Ġh id
Ġcomun itat
Ġro d
ĠM ay
ĠM ag
Ġcu ad
ĠC ul
Ġprogram as
ue va
me tros
og rÃ¡
Ã¡ r
ĠPar lament
U s
ĠM os
im p
ita ciÃ³
Ġpregun ta
ĠJa ume
Ġpara ules
ĠP uig
Ġc adasc
Ġb ec
i em
Ġpar ts
v el
gu Ã©
Ġin ver
Ġmot or
Ġanti gu
Ġnatur ales
I X
Ġa tra
ĠDip u
ĠT V
ul aciÃ³n
Ġac cid
it Ã©
v as
v an
ĠMan uel
Ġex terior
Ã³ c
ĠF el
lici tud
ĠY ork
de pend
Ġop in
ĠG e
Ġla ter
Ġpar es
Ġdeb at
Ġb ol
E uro
ĠA L
am or
7 5
Ġcir cul
ri en
Ġmill ora
Ġdon at
ĠGo ogle
Ġesde ven
gra ma
u a
Ġvol tant
ir an
Ġcons olid
D is
ĠcompaÃ± ÃŃa
Ġr Ã©gimen
Ġll ista
Ġv end
olÃ²g ic
us a
Ãł tica
at ures
ov int
Ġte va
olÃ³g ico
et os
Ġmar xa
Ġmitj Ãł
Ġb eb
Ġcre aciÃ³n
ex per
at h
Ġdin ers
pl es
k er
Ġobjec tiu
ĠM all
ĠAl em
Ġdistin tos
Ġint entar
Ġcon tras
Ġo ver
Ġmov iment
l les
en as
aj a
ĠB r
ĠL o
Ġdisfr utar
Ġpi el
Ġbaix a
Ġprotec ciÃ³
a ut
Ġdirec ta
Ġm obil
Ġguany ar
Ġprop uesta
Ġz onas
En s
es es
Ġes tra
ri Ã³
ass es
ur g
Ġpar la
Ġade qu
un cia
er tura
d is
Ġf oc
ĠR om
organ itzaciÃ³
Ġm ent
id ores
Ġdise Ã±
Ġver siÃ³n
Ġpartici pa
Ġa us
ed ores
volu par
Ġcam ino
H ay
ĠP op
Ġm uestra
Ġnov el
ut ri
Ġcomp ta
Ġb loc
r el
Ġsec und
Ġcl iente
Institu t
ag e
f on
ven es
it ed
Ġav anÃ§
Ġg es
Ġb ro
Ġenc ar
Ġz ones
Ã³d igo
In ter
u di
Ġfe ia
Ġen davant
Ġdi pu
Ġobjec tius
ĠJes Ãºs
ac o
Ġprincip io
arc ÃŃa
Ġdeman ar
Ġac ciÃ³n
i ciÃ³n
Ġl ista
Ġd ado
Ġmuer te
Ġresponsabil itat
Ġlliber tat
Ġp ista
Ġvol unt
Ġsor tida
ĠC E
Ġcontin gut
ĠmÃ© to
Ġdifer ent
u it
ĠLu is
Ġdre ta
es tr
4 8
re e
r end
Ġon line
Ġcan al
Ġdismin u
Ġmateix os
Ġsuper fici
ig en
Ġ &
dic os
Ã² ric
Ġha cen
Ġas es
Ġcontinu a
ĠP Ãºbl
f ar
au to
ĠM ic
Ġsus titu
Ã¡n dez
Ġag osto
Ġk il
Ġor din
Ġw o
Ġmod ific
Ġcu id
Ġdetal l
iqu en
c or
u Ã±a
Ġsigu e
A b
Ġen la
Ġdi ver
i ana
Ġcal or
Ġalum nos
Ġconsum o
3 3
Ġtrans fer
Ġ om
Ġind ica
Ġse is
aci n
ĠvÃŃ c
s ar
Ġb ra
Ġfran ces
Ġcamb ios
ist ema
ĠS ab
Ġ4 5
ĠCas a
Ġf iscal
Ġobje tivos
Ġcor reu
Ġutil itzar
ĠespaÃ± ola
Ġpre vi
Ġent idad
Ġsim ple
Ġnecess ari
ĠO n
Ass ociaciÃ³
Ġcateg oria
Ġim par
Ġpar cial
t p
Seg Ãºn
Ġrecor re
Ġl ic
Ġpo gut
Ġan Ã¡lisis
as ta
Ġac cions
tor n
Ġe fici
Ġcal le
Ã¡n ica
Ġen f
ĠDav id
Ġprac tic
ĠAs s
ĠrÃ¡ p
Ġcontac te
tan ya
as c
Ġ +
Ġm Ã²
ĠeconÃ³m ica
Ġmor e
i le
Ġmod al
Ġar tis
P A
ci da
Ġf res
S E
Ãº a
Ġa z
ĠR ob
emb le
ing o
ĠB lan
Ġ Ãºs
Ġvig or
ent itat
Ġre forma
ism es
Ġimpor tancia
Ġmod ifica
che z
u ed
Ġparticip ants
ra ts
w er
Ġb or
Ġdesen volupar
Ġpressupos t
Ġex ac
ĠAques t
ĠEs tat
ĠO ri
Ġhom bres
ĠcrÃ© d
Ġconsecu encia
ĠL AS
w ard
Ġtempor al
og rÃł
Ãł ri
Ġmiemb ro
Ġb el
.... ..
ra m
Ġll iu
Ġnues tras
Ġm om
vo ca
al tre
ri to
Ġfot os
Ġimp ac
duc ciÃ³n
Ġre volu
R C
Ġtom ar
Ġneg a
Ġr uta
ĠprÃ¡c tica
Ġpreci os
Ġqu ad
olÃ²g ica
al ta
Ġt es
Ã³ venes
Ġrecuper ar
ĠOr den
Ġs ir
Ġamb os
Ġedi ciÃ³n
Ġtran quil
ĠÃ¡ rea
Ġaplic ar
Ġtrad uc
ot es
Ġad el
ag a
ĠprÃłc tica
Ġen seÃ±
Ġcomen Ã§a
h ip
Ġac ciones
Ġcontra to
Ġpl at
Ġf it
ĠD on
Ġa caba
Ġd imen
Ġred ac
ar rib
Ġl lo
ĠI V
eix i
Ġestrat Ã¨g
Ġmat Ã¨ria
gl Ã¨s
Ġi di
ĠP AR
aj es
Ġdes e
ĠR ed
ĠL lu
Ġexp lo
Ġdispon ible
uy e
T ER
Ġar m
Ġcre u
Ġb la
h abil
Ġac um
itat ge
Ã³n ica
Ġfet s
Ġfem en
Ġform al
Ġpl ena
Ġsuper ar
Ġb all
Ġactual ment
Ġin to
Ġvolun tat
oci aciÃ³n
Ġagr ada
Ġcan vis
D E
ĠCom issiÃ³
Ġpantal la
Ġvol en
6 5
am ientos
aÃ± ana
9 9
Ġas segu
Ġo ther
Ġentre v
Ġac os
Ġwh en
ĠP RO
Ac tual
on da
ill uns
Ġinv esti
di z
ĠG arcÃŃa
H ist
ĠH a
Ġllu ita
cl es
Ġtecn ologÃŃa
Ġesti lo
Ġtrans porte
Ġfuncion ament
" )
Ġti pos
ĠU s
Ġcolabor aciÃ³n
Ġcar ta
Ġb omb
Ġl lavors
ĠV a
Ġn orte
Ġposi ciÃ³
Ġt wo
Ã¡ ticos
Ġning una
P T
Ã¨g im
i us
Ġvid eo
Ãºl ti
ed at
Ġus ar
por ts
Ġcu ya
igu el
Ġin fec
teriorm ent
Ġ201 9
Ġencuent ran
Ġcan Ã§
Ġen g
re ci
ĠB al
Ġaspec tes
Ġass ol
Ġcla u
Ãł leg
ag ost
Ġclas se
ibil itat
Ġcu yo
Dur ante
Ġt ierra
ĠPed ro
Ġas segur
aten ciÃ³
re ga
Ġli ke
r ere
Ġmunicip io
Ġf all
Ġdistin tas
pres id
Ġelim in
on z
Ġth ere
Ġcon ec
Ġser ÃŃa
Ġcons iste
ĠD oc
Ġv esti
an c
Y ou
Ġdocum ent
Ġquier e
ver y
ww w
Ġre des
Ġdirec tamente
Ġmunicip als
j ada
Ġexper iÃ¨ncia
Ġquier o
ĠD Ã©u
Ġpr endre
Ġs p
tal l
pi es
Ġestable cido
Ġ200 2
on Ã²m
ĠD esp
Ġcr isti
ĠÃ© poca
ĠV ir
Ġtas ca
Ġper ju
Ã¨ d
si ble
d on
Ġcompor ta
ĠN O
Ġpel ÃŃcula
k y
ĠA C
ell as
Ġrealiz ado
Ġelec toral
ĠFrancis co
Ġmateri ales
v iv
Ġgaran ti
Ġbaj a
Ġcl ara
min istr
Ġobs tante
S er
Ġemple o
Ġcons ist
o bl
Ġi tal
ha ver
z ada
Ġmom ents
ĠveÃ¯ ns
Ġprovin cia
Ġinici ar
Ġpar al
Ġresp uesta
Ġcanvi ar
Ġobten ir
Ġval ors
ENT E
Ġindepend Ã¨ncia
ĠFran ces
Ġdecl ara
Ġpers pec
Ġall ÃŃ
hav ia
Ġeta pa
Ġenvi ar
Ġap un
ĠTamb Ã©
Ġdia gn
tar se
Ġentorn o
Ġcu ri
ĠInstitu to
H e
ĠM en
Ġman s
Ġpaci ente
us iÃ³
b al
Ġsist emes
ien cias
Y o
Ġdirec tament
u par
iz ados
Ġcons ta
is os
Ġcomp ren
ti fica
ĠPro fes
Ã²n ica
od a
et res
Ġlleg ir
Ġf en
Ġespec ta
Ġsegu ro
iqu el
Ġimpor tÃłncia
Ġdes emp
olÃ³g ica
Ġ200 1
ĠMall orca
P el
Ġmay ores
ĠH ist
qu in
Ġtal es
o o
ĠÃ Ģ
Ġrad io
Ġer r
Ġest Ã©
Ġj ard
ĠP ala
Ġparti da
Ġpot s
peci al
Ġno tific
ĠP ara
n ing
Ġreg al
m er
Ġ $
ĠH um
Ġpeti ts
Ġinf raes
Ġkno w
Ġjo ve
Ġmar e
Ġobs tant
Ġrelig ios
Ġco oper
Ã§ ada
Ġclient s
Ġdi bu
Ġpresenta ciÃ³n
Ġj Ã³venes
t ina
Ġp ul
Ġfin anÃ§
ador as
el d
T e
Ġv ÃŃa
i ri
R A
Ġd orm
ĠeconÃ²m ic
Ġjug adores
ĠmÃ© dico
ĠF il
cin di
Ġta ula
ĠAques ta
ĠE duc
Ġmen a
al calde
ĠU S
Ġcategor ÃŃa
ÃŃm p
Ġtrabaj os
Ġproduc te
Ġcontac to
Ġquanti tat
Ġenll Ãł
% ,
Ġmal a
ĠpÃºbl iques
---------------- ----------------
Ġclas sific
Ġcon tes
Ġprogram es
ĠtÃ©cn ica
tan a
Ġins truc
h ar
av ÃŃa
tic amente
5 00
ĠB or
Ġtras l
Ġs ovint
Ġperm itir
Ġaug ment
Ġver itat
Ġim plica
Ġpu di
Ġquien es
Ġconsul tar
Ġesf uer
ĠPS OE
Ġdar rers
gu ez
or th
Ġposi ciÃ³n
Ġofrec er
c ada
Ġnivel es
0 5
Ġpro te
d el
ĠUn iÃ³
Ġescri to
Ġhum an
Ġprue bas
Ġex pos
em n
enta do
Ġdifer encia
Ġ *
ut es
Ġv ers
qu isi
Ġc oci
ur as
Ġtras ll
Ġb ici
cul os
io do
Ġinstitu cions
Ġhi jos
Ġdisc urs
Ġdispon ibles
Ġal mac
ĠÃºltim s
Ġesta mos
ra el
Ġm aÃ±ana
U M
Ġinc om
Ã ģ
w it
Ġtin c
A unque
isi on
Ġnatural eza
Ġref or
ĠO ficial
Ġsex ual
Ġtemper atura
Ġes ca
T ras
Ġhi jo
ĠM il
Ġesta ven
P res
Ġp ena
Ġref iere
ĠP ers
Es cola
Ã² p
Ġpes o
P re
Ġinter net
Ġcumpl imiento
Ġm ÃŃ
ol i
Ġex ter
ad e
Ġempres arial
ĠS ala
Ġpublic ar
Ġclar o
ĠL ond
ĠC O
f ons
Ġgas tos
Ġtreball s
Ġsolici tud
Ġmo tiv
N os
um in
re ta
Ġper dre
Ġnot ÃŃcia
Ġm Ãºlti
Ġc og
Ġtrob em
ta men
Ġah ir
Ġdar rera
0 8
Ġ ......
is p
Ġac tes
y es
3 4
y n
Ġal red
ci na
Ġpr Ã¨
Ãłl isi
Ġper jud
ĠDirec tiva
h ores
ĠValenci ana
Ã©r d
x ic
Ġm u
Ġb atal
D on
Ġcon clus
Ġrequis itos
Ġre iv
Ġexclus iv
t le
Ġtall er
3 8
a ta
ĠT rans
Ġfir m
it arios
Ġval ores
Ġas ign
ebo ok
ĠE d
av e
Ġfon amental
ĠTer ritor
Ġcon du
Ġpr en
ĠpÃł g
ti Ã³
d r
Ġdeber Ã¡n
Ġvol ver
Ġdisp uesto
Ġide al
Y a
ĠI b
ar ÃŃa
Ġc ens
Ġaspec tos
Ġcompl ic
Ġf ix
Ġes os
Ġincluy e
Ġac us
gu em
Ġefec tes
Ġmus ic
Ġfinal ment
Ġestabl ecer
Ġden unci
Ġfinal itat
Ġsol a
Ġes s
Ġterritor io
Ġpro to
Ġac redi
am es
Ġm it
ĠIn f
ĠR ib
lec tiu
Ġprov oc
Ġper ill
Ġpalab ras
pi ra
Ġcier to
Ġbas tante
Ġrel le
Ã© cn
Ġimpor te
Ġcor reo
Ã¯ da
ĠF in
g al
ĠP od
Ġdub te
fr ica
Ġexped iente
Ġacced ir
Ġdel ic
Ġcar rers
Ġhist Ã³r
Ġtrans port
Ġsub stitu
3 9
Ġra Ã³
Ġfin als
Ġdis capa
ag rada
ĠU E
Ġhum ana
' .
Ġsup uesto
Ġsegu it
i res
os e
Ġconform idad
Ġneces ita
Ġdemos tr
Ġpot encial
Ġsim il
CI ON
Ġc av
gu des
Ġri u
Ġper iodo
Ġestudi ants
Ġamb iente
ĠA ra
ĠM iguel
Ġam ena
Ġol vid
re es
Ġmal grat
c ent
ant ÃŃa
Ġalg Ãº
ĠD ios
Ġmarc ha
Ġl la
f iques
Ġestabl ece
Ġten ga
Ġcoraz Ã³n
qu id
Ġnum eros
Ġpeti ta
ar te
Ġsen z
Ġprincipi os
Ġd illuns
Ġn aci
ĠFes tival
ou re
Ġd uda
uer to
AD O
ch es
Ġl ig
Ġproces os
c ara
3 7
h am
Ġconsider ar
Ġten ido
Ġprev eu
ĠtÃ©rmin os
x ico
Ġt era
Ġcirc uns
l er
Ġimp ed
1 00
Ġar te
Ġcastell Ãł
Ġqu ÃŃm
Ġactu acions
Ġtrabaj ar
Ġman os
o j
Ġclas e
ĠH er
ĠÃ©s te
Ġl ingÃ¼
Ã¡ genes
ĠG re
in k
Ġb re
Ġliter atura
Ġd Ã©
Ġeduc aciÃ³n
Ġj ut
ĠprÃ³ ximo
Ġdocum ental
Ġreg iÃ³n
Ġbus ca
Ġan teriores
Ġafir ma
Ġmon ta
Ġen lla
Ġavi at
Ġdeci siÃ³
r g
ciden tal
i gua
Ġt rib
ĠC D
Ġex ces
Ġxar xes
Ġcomun idad
Ġfun cional
m ad
s ia
ĠS ub
Ġt on
Ġcre cimiento
ĠSegu ridad
ĠqÃ¼esti Ã³
Ġcontinu aciÃ³n
Ġv ent
Ġen ci
ĠEs tats
ID AD
Ġta ma
h ol
Ġpos a
Ġsof tware
Ġescol ar
Ġciutad ania
Ġjud icial
Ġha ciendo
ĠDirec ciÃ³n
Ã¡n chez
Ġal t
P S
. "
ĠSal ud
Ġofer ir
ĠcaracterÃŃs tiques
Ġraz Ã³n
Ġescri t
ici s
Ġsitu ada
Ġtex tos
Ġt emas
ad ell
Ġmateri als
Ġentre ga
4 6
Ġfer ro
i ro
C ap
Ġmitj ana
fici na
Ġmic ro
Ġm Ã³vil
Ġes for
an im
ĠPop ular
d or
tit z
ĠD is
Ãłn cies
Ġrecom end
Ã²n ia
Ġr Ã¨gim
Ġtrob en
ĠM iquel
Ġal hora
edi fici
Ġcreix ement
ĠV ila
Ġt esti
Ġpar lament
Ġrela cions
o x
qu ina
Ġimpres cindi
ord en
Ġequ ival
Ġform as
Ġo tor
Ġb rit
Ġac oll
Ġdoc tor
Ġdis co
Ġ3 00
L E
Ġmad re
est Ãł
Ġg Ã¨n
ent en
Ġpoc s
Ġp Ã©rd
Ġim atges
U C
Ġob tin
Ġb et
ĠAnd al
Ġgr ado
t ria
E duc
e uros
Ġd id
ĠG onz
Ġes til
tic ament
ĠAs ociaciÃ³n
Ġajud ar
an al
Ġconvocat Ã²ria
Ġceleb r
f in
Ãłn ica
Ġh onor
Ġre quier
c re
ol esc
Ġseg ur
ĠA D
Ġ )
Ġprincip is
aplic aciÃ³
e tats
Ġl ider
Ġdijo us
Ġr os
ĠSan ti
Ġa pos
ĠC at
Ġw ork
Ġver siÃ³
Ġcon vers
7 8
ÃŃs tico
j ero
ĠR a
tic al
Ġen orm
Ġel Ã©c
un g
ies ta
Ġdi ari
n gel
Ġ5 00
Ġconoci do
Ã³p ez
Ġarrib at
ĠD O
Ġl it
B arcelona
Ġhab ita
Ġ6 5
Ġdocum entos
ĠConven io
Ġses siÃ³
ĠT r
ĠCar les
Ġob ert
Ġfor t
ur ar
Ġwo uld
ĠmÃŃnim o
h en
Ġrecon e
Ġfac ul
par a
Ġfuer za
Ġconta min
Ġjun tament
ĠP rin
Ġveg e
ĠM e
Ġaf ter
ĠÂ ¡
Ġpor tal
Ġconn ec
Ġ199 9
Ġrealiz aciÃ³n
ism as
y r
c urs
Ġpro ves
Ġpublic aciÃ³n
Ġcos t
Ġcorrespon ent
Ġr enta
Ġtod avÃŃa
Ġesc al
Ġcom Ãº
Ġass eny
ven il
Ġmor ir
ÃŃt ol
Ġin vi
ev illa
Ġent ender
b ia
Ġcompany ia
duc ciÃ³
Ġde ten
A quÃŃ
ĠAut Ã³n
ocia cions
Ġim Ã¡genes
ĠFran Ã§a
Ġop ciÃ³n
Ġequ ilib
Ġta b
Ġpos at
Qu Ã©
Ġpatrim oni
or g
Ġnegoci o
l ÃŃcula
ĠT a
Ġadministra tiva
ĠD iv
c la
ograf ÃŃa
Ġpel ig
Ġten go
Ġperson als
Ġperm iti
Ġdes apar
O n
Ġacced er
or ra
Ġgener ar
Ġhay an
Ġe ix
Ġactu aciÃ³n
ul t
Ġm el
x e
es os
T ÃŃtulo
Ġdis cipl
in do
le z
esqu erra
ĠV ol
9 5
Ġtotal ment
ĠCatal uÃ±a
Ġexist en
Ġaprov ech
Ġcor ri
Ġbo ti
Euro pa
Ġpropi etat
âĢ ĥ
Ġgran de
Ġg Ã©n
Ġloc ales
P os
ĠSuper ior
ĠB as
Ġtrob ada
b ar
Ġprimer es
gent ina
Ġfran c
ĠM ari
Ġpro tes
Av ui
Ġestudi ar
ĠMus eu
Ġm ur
ras sa
Ġfil m
Ġr ÃŃo
un o
Ġdesc ri
Ġconf igu
Ġrela ciones
ĠPS C
ĠelectrÃ²n ic
ĠUn its
ĠSal v
Ġmej ora
Ġc ed
Ġh im
Ġp ic
- ,
Ġmen jar
Ġcar b
ĠCent ral
Ġrecib ir
eny ament
ĠJo hn
U T
Ġb a
Ġlo ve
ĠM i
ĠJ us
itat ges
Ġreun iÃ³
Ġpeque Ã±o
Ġm s
ĠT ecn
Ġfun cions
Ġcab eza
ĠP au
Ġaplica ciones
l bum
Ġmov imiento
ĠMon ts
Ġme ta
ĠS Ã¡nchez
Ġsuperfici e
Ġt ÃŃp
d rÃł
Ãłl ia
4 4
Ġprof und
Ġejecu ciÃ³n
ĠpÃºbl icos
ÃŃ cies
l en
re ts
Ġhab ÃŃan
ĠBale ars
Ġw ww
c ons
aqu ÃŃ
ĠCos ta
Ġamb ient
ob ili
tu re
Ġtien es
el es
Ġenferm edades
Ġver ano
tar ÃŃa
itar is
ĠOr gan
t bol
Ġconfir m
os of
ĠD ia
gin y
Ġopera ciones
Ġbo ca
Ġth ro
S al
Ġm embre
in te
A ll
Ġha c
Ġconcer t
Ġfin ales
gi ques
P ued
Ġsetm anes
ĠPar ÃŃs
Ġpad re
Ġcal end
Ġad re
gen ier
z quier
Ġterritor ial
Ġsign ific
6 8
ĠS o
p ren
ĠM er
Ġd am
Ġutil izaciÃ³n
tr Ã¡s
ĠC amb
jec te
Ġsu elo
Ġcorrespon dientes
atur al
tar Ã¡
Ġexplic at
ef e
Ġsegu eix
Ġcomp rob
Ġcompet encia
Ġme z
ĠCul tural
Ġre form
Ġa gra
Ġar ran
3 1
Ġc iento
aix a
Ġactual idad
Ġf lex
Ġdetermin ar
ul aciÃ³
Ġj ue
ĠT re
Ġvia je
ĠL Ã³pez
Se gu
ĠrÃł pid
Ġmanten imiento
M ol
inform aciÃ³
Ġref ug
am pl
Ġm ismas
ĠJ ap
ĠelectrÃ³n ico
Ġcomp ens
Ġpre t
Ġsal ida
Ġocas iones
Ġll ic
Ġmarc o
Ġcir cu
Ġesc oll
Ġha gut
Ġrealiz a
Ġdem and
ov is
se t
ĠVal encia
Ġind emn
ĠD er
Ġgaran tir
ĠO s
erra t
Ġcontro lar
Ġmen tal
que ta
Ġl ine
l ig
Ġas c
ĠP OR
Ġrecorre gut
gin as
Ġmo tivo
ĠD r
Ġconcep to
Ġencon tra
Ġinde pen
ĠM aj
ĠEspaÃ± ola
Ġpod ia
un to
Ġgra u
inter Ã¨s
Q U
ĠS h
Ġass oci
P rim
Ġpos ibil
Ġt oc
tac le
Ġanim ales
ec res
Ġam ics
Ġmunicip is
Ġpr os
Ġdispos a
Ġdi versi
Ġdisposi ciÃ³
emb er
i ores
on Ã³m
Ãłs s
itor ial
Ġprofes or
ER C
ĠV en
Ġa si
Ġcon vid
emble a
ĠS im
Ġpad res
Ã§ at
Ãº tbol
ur Ãł
0 1
Ġc ant
t ÃŃ
Ġal im
Ġimpl an
ĠtÃ¨cn ica
3 2
Ġesp Ã¨
Ġj uegos
Ġmod ificar
Ġn utri
Ġ/ /
Ã¡ fico
ĠtÃ¨cn iques
Ġdesarroll ar
t om
ÃŃ os
ĠCon gres
Ġgener ales
Ġcomprom ÃŃs
ov ent
Ġan tic
0 6
Ġsu g
la b
Ġh t
Ġpas se
Ġten ien
er an
ĠH i
tan d
Ġdes per
T IC
Ġcla ve
ĠH ar
ĠD em
to d
ĠP arc
Ã³r m
ĠDirec tor
Ġespeci e
Ġcic le
Ġsolu ciÃ³n
ĠeconÃ³m ico
Ġm ues
Ġass ist
Ġayud ar
Ġprem is
Ġcons tant
S on
? ?
Ġqu ina
Ġciu tats
uc ÃŃa
Ġll uny
Ġprem sa
Ġon ly
Ġf igur
io graf
in ada
5 5
ĠprÃłc tiques
A hora
r ados
A g
le o
Ġampl ia
Ġx if
Ġfuer te
Ġre per
Ãłri ament
emp res
Ġv iene
Ġalred edor
ĠH ospital
or y
Ġactu aciones
4 7
Ġfon do
Ġpriv ada
9 8
Ġpag ament
Ġreg istro
Ġcriter ios
Ġlugar es
Ġb ur
Ġ20 20
Ġafec ta
Ġte atre
Ġident ific
Ã© rez
Ġpro ba
j etos
Ġcol eg
Ġem erg
Ġv ots
oc k
ĠFund aciÃ³n
D el
0 7
Ġc ine
Ġsil enci
qu er
Ġdes ap
Ġpat r
l at
Ġdifer Ã¨ncia
Ġvis to
Es tos
Ġcone gut
pon er
Ġhum ans
Ġdocum ents
Ġform es
Ġincl ud
Ġac to
e os
ro und
Ġam igos
Ġoportun idad
is trar
em ia
ĠtÃ¨cn ic
Ġar ticle
Ġa tac
Ġcontinu aciÃ³
Ġnad ie
Ġciudad anos
Ġhabi tantes
Ġfel ici
ent orn
Ġpas a
ocup aciÃ³
Ġaquell es
Ġop tim
Ġin glÃ©s
e Ã±o
Ġf ras
Ġĉĉ ĉĉĉĉ
ĠGrup o
pe on
Ġgr ad
Ġpossi bil
c ant
Ġgra v
Ġb Ãºs
Ã© tico
Ġfor ces
Ġv eci
Ġac e
Ġun der
Ġfr ont
Ġvi atge
Ġass um
Ġd Ã©c
ĠB ur
Ġdocum ento
Ġc Ã¡n
Ġtama Ã±o
ĠCi U
Ġselec ciÃ³n
S S
Ġre i
ÃŃ amos
wit ter
Ġye ars
Ġcr ÃŃtica
ÃŃs tiques
Ġcl im
or igen
Ġsatis fac
Ġter res
Ġinclo u
Ġsitu at
v em
Ġaquell as
Ġim per
Ġat ribu
ĠC a
ĠAm eric
Ġd an
Ġprev isto
Ġent endre
Ġcontr ario
ot ar
tim es
Ġpromo ciÃ³
Ġaconsegu it
ĠM od
Ã¨r ica
Ġg ot
pres siÃ³
Ġcam paÃ±a
at z
ĠT ot
Ġer ror
actu aciÃ³
ĠSal ut
Ġf ic
ĠpÃºbl icas
Educ aciÃ³
Ġcos te
Ġmon um
Ġjug adors
Ġevalu aciÃ³n
ok ies
Ġth em
ĠpÃłg ines
til l
Ġrepresen tants
olÃ³g icos
cid as
Ġfes tival
ta va
ĠD om
Ġex tran
Ġherramien tas
un id
Ġrev is
Ã²r ica
Ġpla ces
am s
Ġpresen tat
ĠC ris
Ġdistribu ciÃ³n
Ġesta d
Ġde fec
ex p
ÃŃs sim
Ġhabl ar
Ġ3 8
ex posiciÃ³
am ar
Ġcon cl
ab s
ĠF ar
ĠdaÃ± os
ĠCo pa
v eu
ci os
Ã¡ lo
ĠI lles
Ġpo ca
itz ats
Ġpo bles
Ġesto y
Ġret ribu
Ġproces sos
Ġestar Ã¡
ĠS ud
arc al
Ġac te
ĠR af
Ġencu entro
Ġref le
per o
Ġfac tor
Ġcoin cid
Ġt ens
s erv
Ġg ri
i ano
Ġtrans par
Ġp eces
Ġreal ment
To do
Ã¨ tic
ĠL ocal
Ġpropi os
Ġf als
Ġdesc rip
alu aciÃ³
ĠmÃłxim a
ĠV I
ic ultura
Ġdeci siÃ³n
ĠX IX
Ġf ich
enci ales
v ieron
Ġdeix a
Ġp ec
g ran
ac es
Ġmem Ã²ria
Ġedifici o
Ã² leg
Ġcamb iar
Ġdocum entaciÃ³
Ġcol um
Ġwh at
Ġconv ir
Ġ3 6
ĠBar Ã§a
Ġdi ez
Ġr as
ĠPrem i
gr Ãł
Ġan exo
ĠS evilla
Ġdesc rib
ÃŃs ticas
er ts
on ial
Â ª
L etra
Ġdisposi ciones
T odos
Ġactual mente
b alla
Ġpropi edad
Ġpublic at
L e
0 9
Ġpublic aciÃ³
Ġne w
Ġrepresenta ciÃ³
ci t
ĠFrances c
Ġb ack
Ġproduc e
ĠpÃ¡ ginas
es tructura
Ġcl ima
Ġpun tu
Ġ Ã³
ĠmÃŃn ima
Ġcultur als
Desp uÃ©s
e fec
Ġcomp ro
Ġcer eb
Ġp ier
Ġ3 2
si ques
0 4
Ġsupon e
Ġmed icament
Ġindust ria
h ag
Ġd ro
D A
Ġent ra
in dic
Ġsupos a
Ãºl tim
ĠT om
ĠR u
ĠA f
Ġesper ar
Ġf eder
ez as
Ġjo ven
ud ades
si u
ĠE RC
Ġsor pr
c rib
Ġc Ã©l
Ġdestin o
Ġg ob
Ġt Ãº
ĠInd ust
ĠtÃ©rmin o
C A
Ġs he
7 7
Ã¨n d
e to
igu al
Ã¡ ticas
h ist
Ġth an
ĠC UP
we en
Ġcomple to
vi ament
Ġex por
ud as
z amiento
Ġme itat
Ġmet ro
Ġresolu ciÃ³
Ġsuper f
ec onomia
onom ÃŃa
Ġtecn ologia
ice presid
T ots
ĠM ur
Ġrecurs o
Ġvot ar
Ġmir ar
Ãºn ic
Ġesc oles
Ġco opera
Ġdec or
Ġ199 8
Ġdivers as
ĠMartÃŃn ez
ĠAix Ã²
ĠP R
ĠM u
Ġaliment os
Ġllam ado
ĠmÃºlti ples
Ġso y
Ġar tes
Ġac tiva
ĠCr ist
ti bles
ic aciÃ³
Ġpossi bles
Ġdi uen
Ġvisi Ã³
Ġviol Ã¨ncia
Ġo jos
tro l
Ġdura ciÃ³n
Ġdirig ida
Ġconsi gu
an e
Ġcirc um
Ġconform e
Ġvir us
Ġpeque Ã±os
ĠI tal
ĠS te
Ġmos t
Ġprof un
ĠMÃ© xico
ic aciÃ³n
Ġgesti onar
volu ciÃ³
ĠFran cia
ĠEduc aciÃ³n
p in
i ver
k o
ad ministraciÃ³
ĠAnton i
Ġf ra
Ġtar je
Ġenc arg
Ġac titud
Ã¡n dol
Ġv uit
Ġescri ure
per s
ad re
ĠF on
Ġrecon oc
ĠRam on
Ġcad ena
Ġvalenci Ãł
Ġc if
Ġel Ã¨c
........ ........
ar lo
ĠServ icio
ĠS ch
ta mos
Ġp Ã¨r
Ġreal itzat
all er
Ġtrabaj ador
ĠgÃ¨n ere
tad ores
ĠC oll
Ġva ca
en tatge
ĠB el
Ġus ed
as a
ĠEl ec
Ġcl asses
Ġinstal aciÃ³n
O B
ĠPal ma
u os
id i
ĠlÃŃn ies
ĠÃ©s ta
Ġp eu
Ġd Ã¨c
Ġall Ãł
op le
Ġreg res
ill er
Ġartic les
Ġob rir
Ġconv iv
Ġmodel os
Ġperson ales
ĠmÃ¡ xima
Ġtit le
Ġadministra ciÃ³n
Ġlocal idad
Ġĉĉ ĉĉ
Ġblo que
Ġper der
ĠB ol
Ġcam pi
Ġnomb ros
Ġgu ar
ig r
Ġcon ex
Ġconcep te
Ġlib ros
ĠC re
Ġconeix ements
ĠT R
Ġter ror
Ġmat rim
Ġsigu t
Ġdirec te
ĠespaÃ± oles
h ing
Ġaum ento
Ġno ve
ĠmÃ² bil
Ġautor izaciÃ³n
Ġap ari
ĠCom itÃ©
Ġutiliz a
Ġur g
P E
ter es
6 6
Ġvol s
ĠB ro
Ġ ...
Ġre torn
Ġviv ir
Ġselec ciÃ³
Ġf lo
Ġtel ef
om s
Ġsu ced
Ġsem anas
Ġposi bles
Ġp leg
G ra
Ġas istencia
esp eci
Ġw ill
Ġsu ma
Ġreal mente
Ġtiemp os
8 5
Ġsufici ente
ut h
Ġactu ar
ĠbÃºs qu
ĠP Ã©rez
Ãºs ica
Ġesc ala
Ġmun tanya
rÃŃ guez
ĠN adal
ĠB os
om p
Ġno ti
Ġs Ã²l
ti os
Ġide es
Aques ts
tat es
Ã© ixer
ĠPor tu
Ã³s tico
ĠM ac
ex erci
rim in
ĠLlu ÃŃs
Ġinici o
Ġcuesti Ã³n
Ġcol l
Ġas ist
Ġeurope a
ĠlÃŃn eas
Ġcas es
Ġn aciÃ³
b erg
Ġten iendo
Ġacad Ã¨m
Ġcin ema
Ġreg lament
Ġredu cir
Ġac ud
ĠS on
Ġreconeix ement
to p
ĠA N
ĠÃ¡ reas
ĠFac ebook
Final ment
ĠFern Ã¡ndez
Ġal tura
Ġf ib
ur y
Ġdi g
ĠG esti
Ġex ecu
ys tem
Ġdem asi
Ġban c
emÃł tica
Ġten gan
Ġtotal mente
Ġdi o
Ġt rim
v ell
Ġinversi Ã³n
Ġsolu ciÃ³
ĠServe i
lar es
Ġam eric
Ġtre balla
Ġrec ull
Ġelim inar
Ġ3 3
I ON
OR M
Ġcontr ari
uch ar
ĠAix ÃŃ
Ġdim ecres
Ġinm edia
ĠÃ¨ xit
ul g
Ġcual quiera
ari en
Ġinteress os
Ġman ip
Ġtel Ã©
Ġcomp tar
4 9
Ġpara ula
Ġbatal la
Ġgratu Ã¯
ci to
ĠSanti ago
Ġv ie
Ã¡m ara
Ġveloci dad
ĠB la
ĠR us
e tr
Ġesta tal
it ori
ĠA us
ĠN ueva
Ġg ras
Ġt ocar
uer dos
Ãł rea
Ġac erca
Ġtreball ant
Ãºs tria
Ġtra tar
itz en
Ġpor c
Ġapar eix
Ã ĳ
or ÃŃa
I t
Ġvol um
j ament
Ġep is
Ġci udades
Ġsu ch
Ġaplica ble
cal des
Ġinter ac
Ġmar x
Ġexper im
Ġdo wn
0 2
Ġa hor
Ġinterna cionales
Ġperspec tiva
Ġfir ma
Ġcon d
Ġparticip antes
Ġv oc
Ġanterior s
Ġf um
Ġfuncion a
Ã¡ lez
Ġtrans por
til lo
Ġcan cel
Ġrec ol
er tes
Ġcatal anes
Ġcla us
ĠP ER
Ġh ar
O T
Ġpeque Ã±a
Ġpl en
ĠprÃ² xim
T ra
Ġpued o
av era
ĠPro tec
A V
all s
is teri
b us
Ġproced imientos
Ġvig il
ĠtÃ©cn ico
esta bl
Ġcomp a
Ġacab at
Ġtelev isiÃ³n
ĠB us
Ġrepresenta ciÃ³n
Ġs tar
G C
ĠM ir
7 6
ĠNo va
Ġdemos trar
Ġe ines
ti dos
Ġan un
ĠCi udad
Ġaqu el
ĠB ra
ad ar
Ġt ari
Ġven da
Ġfac tores
ĠM edi
H em
Ġhum anos
M i
M P
ras il
Ġtin gui
Ġ =
Ġmi tad
D eb
Ġgas tr
Ġex posiciÃ³n
Ġcontex t
cho ol
ĠconseqÃ¼ Ã¨ncia
p at
Ġab out
ĠTra baj
Ġc es
ĠR ub
ĠMed iter
ĠPro vin
oc s
ri as
Ġdibu ix
Ġdocum entaciÃ³n
ĠL ib
Ġneces aria
Ġrev el
Ġinterven ciÃ³n
m un
tin t
Ġsector s
ÃŃci e
I ENT
Ġespeci es
Ġf lor
Ġvehic les
Ġimprescindi ble
ten ciÃ³
Ġreg idor
ĠCatal Ãł
Ġfor ta
Ġac og
Ġparti dos
c lo
As imismo
Ġch ar
el f
Ġpues tos
Ġ199 7
Ġag res
Ġvir tual
m or
Ġfranc Ã¨s
ĠPro grama
Ġlegisl aciÃ³n
Ġb is
Ġgra ve
7 9
k m
ĠB aix
Ġprem io
Ġcontrac te
Ġre por
Ġes as
f era
as ti
ĠP h
Ġg et
u de
ĠVall Ã¨s
Ġ3 4
Ġpermet re
C o
Ġins cri
Ġcient ÃŃfica
Ġmalal tia
Ġsol d
ĠRod rÃŃguez
ĠAn dre
im es
ta in
Ġ7 5
Ġvi at
U B
Ġagr up
Ġvic tÃ²ria
gu era
Ġfit x
ĠS r
M Ã©s
ĠPala u
Ġqu il
Ġalcan zar
ur t
l in
Ġes tic
ĠpolÃŃ ticas
ĠA rag
ub il
Ġmem oria
Ġform en
Ġresta ura
I gual
Ġtra ves
ĠgÃ©n ero
Ġno w
ĠA P
Ġwh ere
Ġtend rÃ¡n
Ġhacer lo
Ġfi j
Ġlim pi
Ġcent r
Ġtan c
z an
Ġpr Ã©s
Ġin j
Ġfac tura
ĠJ orn
Ġbici cle
Ġni Ã±o
od y
Ġjud ici
Ġad olesc
Ġagr ÃŃ
H o
om os
ÃŃ r
Ġneces arios
ti di
Ġi zquier
Ġinc on
Ġcar n
g ica
Ġsus pen
Ġapor tar
Ġsosten ible
ĠLond res
Ġm ac
Ġv oy
Ġexist encia
Â °
Ġprotagon ista
Ġpen al
indo ws
orm al
Ġinteres es
Ġv amos
I s
Ġcr Ã¨d
Ġcontemp or
itz acions
Ġfes tes
Ġsor g
ĠDepartament o
Ġman ca
ÃŃ g
iz aciones
ÃŃ tim
Ġgus ta
Ġpublic ado
Ġprev io
Ġlong itud
ĠPresid ente
Ġbenefici os
H oy
ĠC ir
ĠA gr
Ġtor na
ĠcÃ¡n cer
Ġaj uda
obre gat
Ġdis tancia
Ġmas cul
Ġanim al
s en
id ar
Ġvo z
Ġinteress ant
ĠDe f
Ġinf ants
Ġes cul
Ġpa u
ĠW orld
Ġd il
Ġac cÃ©s
Ã¡n ico
en Ã§
EN CI
Ġse de
Ġadi cional
Ġespeci ales
Ġinform ar
men ys
ĠA v
i tas
on ada
Ġtrad u
Ġsab e
Ġpro cl
Ġcomple x
Ġsec ciÃ³n
c us
Ġconsell er
ĠD ani
ograf ia
Ġident ificar
ÃŃ v
Ġinform es
Ġcal cul
ĠP Ãºblica
Ġpromo ciÃ³n
Ġposibil idades
Ġfran qu
Ġmanten iment
Ġcorrec ta
V al
Ġmod a
Ġc Ã²m
peon ato
ĠP on
Ġpre d
Ġcomen zÃ³
Ġe ti
il es
Ġdispon e
Ġev ento
Ġdim arts
c amb
Ġtre ure
Ġb rill
p la
Ġide as
ĠMaj or
Ġllam ada
du a
Ġperiod ista
Ġdon en
le ar
ĠTe atre
d ar
ĠB ern
ig Ã¼es
Ġpu er
Ġdem ana
Ġalterna tiva
Ġvos tre
Ġplan tilla
ĠPol ÃŃtica
Ġven ir
Ġpoc os
Ġmi ra
AD A
pon e
Ġlen gu
Ġcumpl ir
Ġreal itzaciÃ³
Ġcu ra
es glÃ©sia
mb ol
Ġsuc ces
Ġautor idades
b y
Ġcre at
Ġah ÃŃ
Ġfoment ar
Ġestudi antes
Ġcos tu
Ġhist Ã²ric
Ġsol ar
ay o
C ol
ĠS ur
Ġ15 0
8 8
E X
4 3
Ġconoci mientos
Ġsitu acions
ĠD o
Ġespany ols
ĠpÃ¡ r
tu vo
n is
Ġniv ells
Ġcu ina
Ġinterna cionals
ĠW ill
Ġac er
Ġp uc
Ġdeix at
ĠValenci Ãł
Ġlle ga
Ġliber tad
Ġimag in
Ã³s ito
Ġar reu
Ġrel ev
ĠGonz Ã¡lez
Ġhaur an
20 10
activ itats
C R
Ġht tp
n al
Ġprimer as
j eros
Ġav ent
ĠL eg
Ġconv oc
gu ien
Ġcl Ãłss
Ġserv idor
eci do
ĠnÃºm eros
ĠAndal ucÃŃa
ĠAc ad
ĠG er
Ġcomunic ar
ĠT Ã©cn
Ġcons ent
ar ques
i i
ĠvehÃŃcul os
Ã³r rer
AN T
f ono
Ġmuc h
9 6
ocia ciones
Ġar ro
UL O
Ġplan es
ĠE X
ÃŃ do
Ġpre via
Ġsu ces
Ġe ar
Aques tes
Ġmuc ha
Ġme tod
Ãłm ica
Ġpor tes
Ġestado unid
Ġan glÃ¨s
er Ã¡
Ġpol icia
Ġdistribu ciÃ³
Ġfre qÃ¼
Ġd ay
Ġp ie
Ġenci ma
Ġper cep
al o
Ġper ci
Ġper tany
Ġhum ano
Ġpin tura
ĠV i
olÃ²g ics
ĠLe Ã³n
Ġcos tes
Ġin aug
Ġ199 6
Ġvir tu
aci o
n ex
Ġsan gre
' re
Ġte j
il s
Ġto p
Ġdemos tra
Ġla b
Ġadqui rir
Ġceleb raciÃ³
ket ing
Ġbien es
re gar
ĠÃ¡ lbum
ĠLl obregat
S A
Ġprepar ar
Ġcr u
s or
Ar ticle
crip ciÃ³
Ġh el
Ġun idad
Ġcompet encias
Ġmoment os
Ġoblig at
ener gia
Ġproced iment
er se
ion ar
ĠC ub
Ġeconom ÃŃa
Ã² giques
Ġf ores
Ġag ents
Ġmad e
Ġgaranti zar
S Ã³n
ap ren
Ġr ural
Ġcriter is
Ġprincipal mente
ĠComun itat
Ġt ub
____ ____
Ġperson atges
ĠS ta
ri da
ori as
Ġsor t
Ġpri va
eix in
Ġsal ir
Ġses iÃ³n
og ar
20 11
Ġprop is
Ġaf ron
Ġĉĉ ĉ
Ġtr uc
i cion
ad er
Ġespec ÃŃfica
Ãłn ic
ĠDipu taciÃ³
ĠT en
um a
Ġ199 0
Ġv ull
uri en
Ġre tro
Ġt oma
ard ia
Ġaut Ã³n
Ġries gos
Ġpret Ã©n
Ġfacil ita
ĠCas tilla
200 7
Ġsolu ciones
Ġf Ã³rm
en ca
Ġdi eta
mb its
oc o
Ġplan eta
ĠcÃ©l ulas
ĠV ill
Ġr adi
Ġun idades
Ġsegu ra
Ġtas ques
ĠS ER
% )
Ġ199 5
Ġb ones
Ġsatis f
Ġll arga
Ġintegr al
Ġconc ret
men tat
iversi tats
ĠtÃ¨cn ics
Ã ¶
Ġcomer Ã§
0 3
ĠS en
ul ta
exper iÃ¨ncia
O s
ĠP in
iv es
Ġs ot
is sions
ĠA R
Ġmiss atge
ĠP an
Ġcomun es
ĠCom erci
Ġm m
ĠB ri
Ġal co
Ġafir m
Ġg anes
Ġpossibil itats
Ġter mes
as o
Ġpass ant
Ġ4 00
Ġcompany s
Ġp ien
F ins
Ġis la
ĠsÃŃn t
m et
ĠR oma
u te
Ġal calde
at ar
Ġf rag
qu is
in er
ol e
Ġh eu
Ġthro ugh
Ġgener als
Ġto ca
Ġsitu aciones
o va
ĠSec re
Ġfon ts
Es tas
Ġobserv ar
Ġar reg
Ġmod ificaciÃ³n
4 2
Ġmes a
ien da
O P
Ġampl iar
is tros
ĠF am
Ġfar mac
ĠP os
Ġqued at
Ġtrac tar
pi ta
Ġbas ada
Ġf ont
Ġagu as
Ġprodu ir
Ġbi blioteca
Ġco okies
ĠP ri
z ca
ĠvehÃŃcul o
ra b
Ġjur is
Ġperju icio
ĠG ener
edi ciÃ³
ell Ã³
v aciÃ³
Ġestabl ir
Ġgan ar
Ġten int
ĠSalv ador
ab y
IC A
ÃŃcul as
Ġv esp
ĠfinanÃ§ ament
Ġingres os
ACI ÃĵN
ĠprÃ¡c ticas
Ġin vol
Ġnom en
Ġpropi as
Ġmor al
Ġsoci s
h ome
pl ement
ier to
Ġcot xe
Ġposi cion
Ġtrob at
ĠFern ando
Ġtradi ciÃ³
Ġinstitu ciones
Ġmo tius
ĠÃ³rgan o
ĠM el
Ġre habil
p era
id el
Ġrecom an
F ue
ess or
ic es
os as
ĠS up
Ġcom and
Ġbet ween
Ġhom en
Ad ministraciÃ³
Ġcondi cion
Ġn Ãº
Ġvos tra
Ġex pec
ĠTor re
Ã ĥ
Ġll i
Ġdeci sions
Ġen em
Ġlleg Ã³
Ġer es
rÃł cies
Ġesta ban
s it
C h
Ġlegis la
P C
ula tion
Ġan ivers
ÃŃs tics
ura t
ĠUn ited
Ġad v
r Ã©
ĠCom p
Ġacos tu
erm an
Ġtel Ã¨
Ġli quid
Ġfamili as
ĠmÃ¨ to
Ġass ign
Ġun itat
Ã¨ poca
Ġdefin ir
ES T
Ġsal vo
Ġentrev ista
ĠS istema
Ġinterven ciÃ³
tien en
Ã¡n d
av ui
Ġevolu ciÃ³n
ĠP RES
Ãł tics
Ġa ge
Ġresol ver
Ġnatur als
ar do
Ġhip ot
Ġpri vi
ĠB on
Ġdifer enci
Ġblan c
Ġg er
ĠN e
ord s
ĠEn tre
Ġocas iÃ³n
mat eix
ĠdemocrÃł cia
Ġri val
tor i
Ġre y
tat ges
of t
Ġsab en
Ġ4 8
ĠpÃ©rd ida
Ġdifer ente
y os
ĠG l
Ġalgun o
Ġorganiz aciones
Ġneces arias
Ġrelacion ados
ord re
Ġv ino
ĠN eg
atz em
ĠEs tudi
ri z
Ġredu ir
Ġpublici dad
Ġesfuer zo
Ġimpac to
Ġtecnolog ies
Ġadministra cions
Ġcar ga
Ġho use
Ġorgan itza
Ġgra b
Ġc Ã³digo
Â ²
Ġpar c
Ġin n
Ġpres iÃ³n
gu essin
ĠbÃºsqu eda
Ġexpres s
Ġvi tal
end ido
Ġc ity
Ġins pec
un tos
Ġs Ã³c
Ġtecnolog ÃŃas
Ġpla za
av al
Ġe vi
ed es
Ġtelev isiÃ³
Ġad di
Ġv aren
Ã¨nd um
ĠjurÃŃ dica
ĠCol eg
Ġb aÃ±
Ġadel ante
Ġocup a
iz adas
N omÃ©s
Ġres um
am ble
ques ta
Ġa tor
Ġdedic ada
Ġsenz ill
Ġabsolu ta
Ġcomb us
T an
Ġconv ier
Ġa igua
Ġent en
ĠRe us
vi Ã³
Ġrep ublic
Ġcon segu
Ġanim als
Ġcul pa
Ġpres ents
M uc
Ġc han
Ġtall ers
ri que
Ġorgan itzat
Ġl ife
ed ra
Ġest Ã©n
Ġdirector a
S obre
Ġdomici li
Ġcondi ciÃ³n
h um
Ġju venil
ĠMart ÃŃ
Ġg ira
ili ar
ĠN atural
ĠÃł mbits
Ġcol oc
ots er
ĠcrÃ©d ito
M ad
teg ia
Ġnorm es
Ġint ent
ĠPa blo
Ġrec ur
Ġver m
Ġper iÃ³
Ġdic tamen
ĠB at
F a
ne y
Ġprodu cir
Ġseny or
ĠServ icios
ĠUs u
Ãºn ica
ĠS ar
ran a
Ġmir ada
Ġinten s
Ġna cionales
Ġconfian Ã§a
er te
Ġcl Ã¡s
In form
ĠE r
Ġha guÃ©s
ĠM Ãºsica
Es qu
ĠÃ¡ r
ĠFac ul
Ġplan tas
Ġac tos
G T
U D
u f
Ġefec tiva
Ġre ca
ac on
IV A
d ers
Ġex cl
Ġf ug
Ġop ciones
Ġreconoci miento
Ġinter m
br ica
O D
yr ics
s ol
at erra
Ġayud as
t Ã³n
Ġtercer os
er vi
Ġeleg ir
Ġfil osof
Ġro ck
ter as
7 2
ĠEurope o
amb iental
ĠRaf a
Ġt rip
Ġaut Ã²n
M ar
ĠÃ³rgan os
Ġman e
Ġpon e
in depend
Ġsi ete
ĠM c
Ġaspec to
Ġcor re
Ġb ons
n era
Ġasseny al
Ġprev ista
ĠSoci edad
AL ES
Ġl yrics
S us
Ġall Ã¡
Ã²r um
Ġa er
ĠSab adell
in terior
Ġcomerci ales
om un
Ġesti gui
Ġp ell
ab el
arc h
Ġfamili ars
Ġhab itatges
Ã¨ dia
ĠFeder aciÃ³
Ġpo es
ier nes
5 8
Ġexper iment
ĠBi blioteca
Ġfe ta
Ġ199 2
Ġproporcion a
Ġpre ced
Ġad ver
Ġorganitz acions
Ġf Ãºtbol
n ed
Ġr ell
Ġfinal mente
vi ar
PT Y
Ġsec ciÃ³
Ġluc ha
Ġe very
ĠjurÃŃ dic
EM PTY
Ġpre us
Ġd ra
EC T
ĠPor t
Ġcol ores
Ġb ell
ĠÃł rees
il o
Ġblan co
ĠF esta
Ġde ia
Ġreduc ciÃ³n
Ġpermet en
ans a
Ġeduca tiva
abil idad
Ġus os
ud es
ĠW ar
Ġtran si
atur as
Ġincluy endo
ĠÃ¨ poca
Qu Ã¨
Ġf ren
i Ã¨ncies
Ġvivien da
a cab
Ġtur isme
ĠN ord
Ġcap az
ex ecu
Ġe ina
S T
ĠAmeric an
Ġcomprom iso
V ol
Ġcompl iment
or ci
Ġa tur
Ġfu ente
Ġcontribu ir
ĠA le
Ġaband on
Ġvalor ar
d Ãł
enci als
Ġcompet Ã¨ncies
Ġc rim
Ġse ues
Ġc m
Ġinteres ante
ĠCiu tad
M al
c omo
Ġdirig ir
E G
Ġpres entes
Ġorgan ismo
Ġp end
Ã¨m ia
Ġform ato
Ġ199 4
Ġestable ix
ĠCh ar
ĠPla ta
Ġha gin
Ġpropor cionar
Ġap reci
i que
Ġth en
Ġperm iten
Ġvol ta
S O
ĠF lor
c ut
Ġcircuns tancias
ĠTh is
Ġoc upar
av i
Ġrend imiento
Ġl ar
eb re
Ġdefens ar
Ġb l
Ġapar ece
ic ÃŃa
Ġne te
Ġad jun
ĠJ ur
Ġh ici
Ġent itat
Ġnecessi ta
Ġg reu
ix es
Ġpres Ã³
Ġesc rip
Ġsuel e
Ġesc uela
Ġcomp tes
Ġw ay
Ġprov ÃŃn
Ġsu je
ol er
Ġop ciÃ³
M A
ĠTer rassa
Ġamb as
Ġd ens
qu Ã©
ĠX avier
ĠprÃ³ xim
ĠC la
Ġaudi ovis
ĠE U
Ġal guien
Ġo cul
Ġ3 9
Ġalmac en
Ġrec ons
ed as
ĠL abor
Ġse e
ĠD ÃŃa
Ġprov ocar
Ġnaveg ador
r ades
ĠB a
m ag
Ġdam unt
Ġin au
In s
d rÃ¡
ĠCh ina
Ġ3 7
H ab
Ġque den
G u
Ġman if
un tament
S ÃŃ
Ġens eny
Ġhec hos
Ġof re
Ġad jud
yec to
Ġro de
Ġtre t
Ġar que
Ġsuperf ÃŃcie
emp or
ish ed
Ġpregun tes
Ġma ke
H ospital
Ġj ap
Ġper tin
b i
ĠEm pres
ĠW indows
Ġespaci os
Ã²s it
Ġform ada
Ġi gn
Ġca f
k es
ĠS t
Ġdic hos
ea h
Ġdemasi ado
Ġam ar
IS T
Ġcomple tar
enta da
Ġh igh
Ġpubl ica
Ġdom ini
Ġexiste ix
ĠS il
le za
Ġconven i
ĠmÃ©to do
Ġll ig
ĠO N
Ġdon ant
E U
id s
Ġnoti cias
20 12
ĠTre ball
Ġa ero
Ġsab em
Ġfotograf ies
Ġpalab ra
ĠPrim era
ĠJ avier
Ġherramien ta
Ġmad era
ĠG as
Ġpreven ciÃ³n
Ġestable cidos
actual itat
ran ca
Ãł b
ĠAlem ania
g Ã¼es
ĠP i
ĠAr gentina
Ġcob ertura
Ġpis cina
fr on
Ġrefer Ã¨ndum
ĠS et
Ġdescob rir
Ġll anÃ§
Ġ Ã¡n
Ġdeclar aciÃ³n
Ġprogram aciÃ³
Ġqu art
aix Ã²
it ors
Ġb eca
Ġtin guin
Ġpan or
Ġtan car
Ã©n dose
exerci ci
Ġses sions
Ġresol dre
Ġv ila
ĠEs pany
ĠpÃ¡r raf
Ġcre o
Ġa per
ĠS us
Ġaf avor
Ġpres tig
Ġcoc he
Ġinvestig aciÃ³
Ġlogr ar
ĠRes olu
Ġ q
I Z
Ġsec re
Ġf ul
ĠSec ret
Ġinau gu
Ġpat ro
ĠÃģ ngel
en Ã§a
Ġcamb i
Ġfu entes
Ġinf rac
ano va
men es
en car
199 9
ĠM es
el abor
e Ã±
Ġgu itar
Ġm any
Ãºl tima
ĠP el
ĠServe is
en e
Ġinf l
Ġar bit
4 1
ĠF ab
olÃ³g icas
Ġpol i
Ġqu asi
us to
ues tro
e an
Ġdur ing
Ġpe ople
Ġestr ic
is sa
Ġcer c
Ġpl ans
Ġvig ente
200 3
Ġped ra
ros s
Ġrela tiva
od es
Ġdi pl
Ġeduca tiu
arcel on
Ġcompl ir
o portun
ĠDec ret
9 7
Ġtampoc o
Ġen vol
Ġquier es
Ġdes tru
Ġpass ada
Ġproto col
Ġlo g
Ġvuel ta
ĠAc uerdo
Ġg ens
Ġporc enta
Ġob erta
Ġreg istre
Ġco uld
an ca
ÃŃn s
j ant
truc tures
Ã³ metros
M Ã¡s
ĠEm presa
am i
Ġmedi ev
Ġde ja
ĠV an
uel o
in ado
ada p
t he
Ġjoc s
Ġsolici tar
ĠsÃŃnt omas
C C
Ġmed icina
ĠPat rim
200 6
s al
Ġcoci na
ĠG ab
c oles
Ġrev isiÃ³n
ĠâĢ ¢
Ġul ls
ĠCon grÃ©s
uel as
Ġnom s
tin er
Ġinstitu cional
Ġcapa Ã§
Ġafeg ir
9 2
ter ia
Ġpreten de
Ġrefug i
Ġbuen o
Ã¯ ts
en ari
truc ciÃ³n
us ta
el as
Ġref lec
' ll
Ġvol umen
Ġfrances a
ĠpolÃŃ tico
Ġreclam aciÃ³n
Ã¨ xit
Ġdesp eses
ĠmÃ© dicos
ĠCongres o
ho ugh
J os
Ġc Ã¡l
ter ap
ĠD u
ĠT witter
reg at
Ġvol ia
Ġtor re
Ġprevist os
Ġay er
i rem
Ġposi tiva
Ġform ula
Ġv isiÃ³n
Ġse ver
ri al
Ġprofess ors
Ġestu vo
Ġcat ed
gl aterra
ĠI glesia
Ġmen ores
la ga
Ġhab rÃ¡
B en
Ġar ti
ĠR el
Ġabs or
ĠES T
Ġex posi
ĠS ÃŃ
Ġtar eas
Ġj ubil
Ġnecess Ãłria
ĠF re
c Ã³
Ġa juntament
âĢĻ ,
Ġrecor da
Ġexclus iva
Ġdi gn
ĠE di
g et
Ġsing ular
Ãł cia
Ġfrecu encia
Ġinter camb
Ġfaci li
Ġaut ors
Ġdeb emos
Ġconoci da
Ġactu als
ĠPrin cip
Ġmit ja
apren entatge
Ġespeci fic
gu eu
ĠF a
Ġmodel s
Ġop ini
f as
Ġ Ã³p
Ġcol ors
Ġtras tor
ien en
Ġreg iÃ³
Ġv es
F ran
Ġapor ta
Ġclas es
isi onal
Ġto wn
ueg a
Ġem iti
ĠRe ino
Ġvaca ciones
Ġdist Ãłncia
Ġe f
ĠPAR A
or ial
Ġesc ritor
ĠEsc uela
Ġinten ciÃ³
Ġcamp s
Ġab ord
Ġf aran
itz ades
ĠP ir
ĠS erra
Ġent er
9 3
ac om
ti des
Ġexper tos
ĠPresid ent
Ġescri ta
Ġc Ã³m
tis me
ier an
Ġsenci llo
ĠC aixa
Ġrepresen tantes
Ġre tall
Ġsegu iment
Ġsecret ari
Ġmens ual
ĠC in
Ġab und
Ġcon dem
ĠÃºn icamente
ĠQu an
ĊĊ ĠĊ
Ġb it
Ġopin iÃ³n
Ar t
Ġdis par
Ġenorm e
ĠLl or
Ġapr endre
Ġpeti tes
Ġcos tos
ĠCr uz
gu is
od as
Ġoc ho
Ġsal v
m pl
Ġcl ic
ot or
ĠOr g
ĠS em
Ġllam a
Ġmateix es
Ġfon dos
Ġau x
t ells
Ġpre cep
di rec
d an
Ġincluy en
Ġvol er
ios a
Ġadop tar
Or gan
ĠCon f
E bre
rÃł cia
Ã² c
5 6
!! !
Ġdestac at
Ġperd ut
Ġunivers al
Ġin vers
Ġbas a
Ġacum ul
rib uy
ĠMonts errat
l io
Ġconflic te
ĠPortu gal
ĠN ov
Ġinvesti ga
ĠcomenÃ§ at
Ġser ies
Ã¡lo go
ÃŃcul es
Ġextre m
om ÃŃa
Ġn ervi
Ġvig ent
ĠGran ada
Ġobs erva
Ġdi Ãłleg
200 2
Ġad quisi
Ġpresenta do
Ã ļ
Ġpresent en
Ġne ver
Ġdiagn Ã³stico
Ġt eix
tad ors
Ġex ced
Ġg ust
ĠÃºn ic
Ġrecuper aciÃ³
Ġllen gu
Ġpeque Ã±as
Ġdirec to
Ġdif usiÃ³
ĠGe or
Ġman ual
Ġdes it
Ġaten ciÃ³
Ġdesc omp
ĠclÃŃn ica
Ġvol gut
Ġx er
Ġrelacion ats
Ġej er
Ġcuar to
Ġdificul tats
Ġfinanci aciÃ³n
Ġpresup uesto
Ġocas ions
Ġsegu int
C re
Ġb il
Ġpu jar
Ġpare ja
ĠpÃ¨r dua
vestig aciÃ³
pos ar
Ġpro xim
Ġi f
Ã©r cito
ĠtÃ©cn icos
tu a
ĠT erra
ĠprÃ² pies
lec tius
ci mientos
x iu
Ġcurs a
Ġas um
ĠG R
il idad
uer da
A G
ĠE mp
ari amente
Ġreg ional
lec ciÃ³
Ġmin er
Ġ199 3
re al
Ġaum entar
Ġpl antes
Ġcons erva
y er
Ġv int
Ġhab la
Ġcor rup
an zas
Ġc Ãłn
Ġm apa
n ia
ĠL at
Ġvisi tants
Ġapr ender
es ca
Ġconcurs o
ĠM Ã¡
Ġcuenta s
Ġpaci ents
lar s
Ġorgan itzaciÃ³
te ixen
Ġ #
Ġquer emos
i j
w ork
g ers
diz aje
Ġv icepresid
Re al
Ġsigu en
Ġre ma
A t
Ġgener aciÃ³n
ment o
Ġrequier e
t Ã©
Ġace ite
ĠF ira
Ġmater ias
Ġconcre to
Ġres tric
ĠA M
Ġprev ent
tr ico
Ġemple ados
Ġraz ones
Ġweb s
A p
Ġv ide
Ġ4 6
Ġemp i
Ġcon tiene
Ġhi per
og ra
Ġin capa
ĠB rasil
ist en
ĠMed icina
Ġs ay
Ġadecu ada
for e
ovent ut
Ġpu erta
Ġhub iera
Ġp itj
ĠT ex
Ġresul tar
Ġl arg
tr y
empres es
ĠvÃŃde os
ro g
Ġme us
Ġno c
ĠF o
Ġt ec
Ġop cions
ĠAm Ã©rica
ĠPla Ã§a
Ġpor tu
st Ãłncies
Ã§ al
in at
Ġpos teriormente
Ġdestin at
Ġev ent
Ġestr ang
Ġtan ta
Ġg uer
Ġvir tud
Ġbi bl
tes is
200 9
Ġpor t
Ġsoci o
Ġdeci siones
Ġmobil itat
ĠqÃ¼esti ons
Ġutiliz ando
tes a
ĠW h
Ġ4 4
Ġproces s
ill os
ĠF inal
ed io
in ten
Ġreun iÃ³n
Ġhabi tants
Ġestar Ãł
Ġafeg it
Ġar tista
Ġelec ciones
ĠS eb
Ġantigu o
Ġpar ella
ig ital
Ġ5 5
Ġcompr ome
Ġreg ula
Ġdur ada
arro llo
Ġconvocat oria
EM A
esp era
M an
Ġpro l
am pi
Ġaproxim adamente
aj untament
ost Ã¨
ĠCiu tat
Ġcom arques
Ġofrec en
ĠTamb iÃ©n
Ġsimpl emente
ĠAutÃ³n oma
truc ciÃ³
Ġ <
ĠtelÃ© fono
T M
ĠV illa
Ġprop uestas
Ġvul nera
Ġcaus as
ĠFel ip
is l
plic ar
Ġpot encia
Ġaut ores
Ġprem ios
Ġadecu ado
Ġb eg
Ġten iu
Ġval id
Ġdeb erÃŃa
Ġaprov at
Ġreci n
Ġinclu ir
Ġll ar
ĠF igu
Ġpu esta
gi as
es o
Ġlen gua
Ġterren y
Ġperci b
Ãłs tic
at ure
ĠDirec ciÃ³
Ġs Ã¡b
Ġso por
f t
ass ociaciÃ³
Ġqu ar
Ġparticip at
Ġgu i
Ġassegur ar
Ġom pl
Ġpres taciÃ³n
ĠV e
v ir
Ġobjec te
Ġproper s
r Ã²
Ġorden ador
Ġw orld
w a
Ġsolu cions
ĠeconÃ²m ics
Ġacad Ã©m
Ġen guany
ug ht
Ġcon m
7 3
Ġb ru
Ġte at
8 6
ĠN ic
Ġconn ex
Ġoblig aciones
n ar
ogrÃł fic
Ġsi tios
Ġgener aciÃ³
ol Ã²giques
Ġpatro cin
Ġmant Ã©
Ġcom issiÃ³
Ġnoc tur
Ġutiliz ado
Ġnecess Ãłries
Ġconf igur
ĠCu ando
g us
Ã¨r cit
ĠB l
Ġ199 1
W h
ap or
oc h
F orm
g ip
Ġsector es
d ent
Ġb io
T S
Ã²n ic
Ġn arra
ĠÃºltim as
Ġinter Ã¨s
200 8
Ġcic l
ĠA z
M S
Ġhum Ãł
Ġv ita
Ġcomerci als
Ġventa s
Ġac lar
Ġvari edad
Ġad ministr
Mad rid
Ãº rg
Ġpop ulation
ĠDel eg
iv ing
p an
Ġd ue
Ġsegu imiento
Ġn Ã©ixer
Ġestra tegia
Ġh ig
Ġpod ÃŃa
Ġinvestig adores
ĠY ou
Ġdomin io
a a
Ġutil itzaciÃ³
rim ir
R eg
Ġaprob aciÃ³n
Ġso porte
Ġor o
id ora
Ġcuid ado
d ria
Ġefec te
Ġllen gÃ¼es
Ġof f
Ġconfian za
ĠR osa
ĠJus ticia
Ġal es
ACI Ãĵ
Ġcer ta
Ġreal itza
Ġdi ario
Ġgra ves
tec ed
ĠdÃ©c ada
d ues
Ġpron to
alum nat
ĠlÃŃm ite
Ġh arÃ¡
En ti
bl os
Ġsu mar
on y
Ġrit me
ĠCatal ans
Ġi glesia
om ia
Ġind Ãºstria
Ġel les
Ġco pi
tu des
ĠF ont
Ġmod ificaciÃ³
Ġd Ã³
Ġcomun itats
x i
ĠA ir
Ġsitu ado
Ġcre ado
ĠJ er
lo g
as sa
u fici
Ġprecis ament
Ġrec ha
Ġfo und
Ġdin am
B A
mb re
ĠF ue
Ġperman ent
hab itatge
Ġcom ida
ĠN i
ĠJ ust
ÃŃ fiques
qu em
ot os
Ã¯ tat
cion a
Ġdedic at
Ġdecid it
Ġcur t
Ġofici na
Ġd ando
Ġelabor aciÃ³n
Ġincorpor ar
Ġfotograf ia
emÃł tiques
Ġp obre
Ġde v
ti f
Ġtorn o
ri ques
ĠAr m
Ġpod rien
os ten
tar is
Ġmil es
ĠA S
Ġn enes
Ġpot enciar
Ġso par
Ġfinal idad
Ġpro voca
Ġ ?
Actual ment
Ġpi ezas
Ġjorn ades
Ġtrim estre
Ġresid us
Ġv iernes
Ġempres ari
ĠÃł mpl
ĠN orte
Ġprov isional
Ġoper aciÃ³n
Di rec
Ãł vem
Ġd ot
Ġkil Ã³metros
Ġcompon entes
Ġth ese
edi at
Ġcompeti ciÃ³
m ol
ĠPen ed
Ġrecoll ida
7 4
Ġc alles
Ġinteres ado
h em
id al
Ġconc ur
ĠcanÃ§ ons
h u
Ġcomb ina
dic e
Ġdes emb
Ġdes n
ĠMed io
Ġle er
ens enyament
fici t
Ġcri tic
Ġpron unci
S ab
Ġmoder na
Ġdia g
ĠAlb ert
Ġp esc
Ġpres siÃ³
Per quÃ¨
Ġconex iÃ³n
Ġasoci aciÃ³n
especi al
Ġcomerci o
Ġreun ir
Ġsuel en
Ġpr ensa
Ġab on
Ġtra jec
Ġapar e
ĠCh ris
Ġadap tar
Ġal menys
Ġav is
Ġac ciÃ³
Ġmed iter
Ġg os
Ġprop era
us s
Ġpar cel
amble a
Ġderec ha
Ġvos tres
ĠDe por
Ġsoci os
Ċ ĠĊ
Ġcorrespon ents
ĠTerritor ial
Ġsho w
Ġedifici os
Ġcompet ente
ĠprÃ¨ via
Ġex hib
Ġprincipal ment
ar r
ĠIs rael
Ġdedic ar
Ġw ell
Ġabier to
Ġrepro du
t ol
ĠS am
Ġ4 2
Ġjust ÃŃcia
Ġfamili ares
Ġdes f
Gra cias
Ġclas ific
ĠMus eo
Ġcor red
Ġvic toria
Ġl et
si tat
ĠC U
ĠDesp rÃ©s
7 1
ter na
6 4
Ġvis ites
Ġsor te
ĠtelÃ¨ fon
gen da
ĠL in
Ġsuc ce
Ġprim avera
ĠA gu
Ġevid ent
] .
Ġcr is
Ġde porte
es til
Ġnuc li
Ġcic lo
ell er
ran i
Ġemb ara
T al
ĠG r
Ġterc ers
Ġmo tivos
ĠC Ã¡
Ġdesarroll ado
Ġcoin ci
Ġs iga
ul m
i form
d al
pol itan
Ġpresup ues
n y
Ġn umb
Ã²m etres
ci e
Ġcolec tivo
ĠItal ia
Ġestadounid ense
ĠB uen
Ġve ter
Ġocas iÃ³
ĠN ou
Ġr us
elec omun
ĠAl m
Ġg eg
in ari
esta ble
O c
c era
im s
Ġindependent ista
Ġcoment aris
Ġh os
Ġesc ola
Ġproced e
an na
Ġped ag
2 000
Ġplat ja
Ġfras e
ĠPened Ã¨s
iv as
Ġf uego
Ġartis tes
Ġs it
Ġfas es
in ed
199 2
E ra
tin o
u an
ĠGu ill
A h
fic os
ĠmÃ©to dos
Ġqu iz
Ġcomen z
CE E
Ġpublic ada
Ġpresid enta
Ġnecess aris
z z
ĠP s
W e
Ġan em
qu ip
ÃŃ b
Ġprom oure
en tan
ĠPar tit
Ġca ure
it arias
C an
crip ciÃ³n
Ġass ociacions
Ġm ales
Ġreiv indic
Ġincrement o
Ġmov iments
ra y
T u
Ġv illa
unt y
Ġ198 0
ier ta
ĠAl l
ri dos
ĠpolÃŃ ticos
Ġr onda
Ġfus ta
Ġcandid atura
Ġmil ers
Ġaprof itar
arÃł s
Ġdetec tar
Ġv ess
Ġreg istra
ĠZ ar
9 4
Ġ Ã²r
Ġac u
Ġp eix
Ġsocial ista
Ġth ree
Ġsom os
Ġp ur
EN ER
Ġas pir
urs os
ĠdaÃ± o
ri Ãł
Ġal oj
gra m
Ġmen ors
Ġtind ran
ĠPers onal
Ġde ter
Ġmarc as
Ġma es
Ġsur t
Ġveloci tat
od er
ĠJo aqu
Ġh u
Ġh ere
Ġmerc ados
Ġinclu idos
ĠD ol
out h
Ġrecoll ir
Ġcom e
Ġfran cÃ©s
D escrip
ular es
Ġm am
Ġt ut
Ġsu eÃ±o
Ġf ri
Ġ 00
Ġbec ame
Ġcontra tos
Ġmens aje
Ġev entos
Ġimpuls ar
Ġ Ãłn
Ġperman ente
Ġmedicament os
Ġautor idad
Ġcompet Ã¨ncia
si v
Ġo h
Ġe ts
Ġkno wn
ag es
Ġdisposi tivos
Ġrecom ana
Ġvivien das
Ġm Ã³d
Ġha ga
Ġassol ir
Ġc od
Ġorgan itzar
Ġedifici s
Ġsor presa
Ġcom entar
Ġop tar
C or
Ġsimil ares
Ġpregun tas
ogrÃ¡ fica
tis mo
Ġdis tric
iÃ³ s
lec tual
ex istÃ¨ncia
om ina
Ġass istir
Ġpun tual
ter os
Ġapro var
Ġpa tir
Ġf ull
Ġfol low
Ġmant in
Ġreduc ciÃ³
Ġintel ig
Ġil us
Ġesc ena
k en
S o
ro p
T V
Ġpes ca
m ig
Ġtrata mientos
ĠWill i
m al
lici tar
Ġi b
it Ã¨
ĠconseqÃ¼ Ã¨ncies
ist ribu
Ġcomun idades
s ec
Ġconcer ts
Ġpreven ciÃ³
ÃŃ da
" ),
ad ra
ĠC ard
Ġgar antÃŃa
Ġgar ante
Ġcontemp l
Ġfron tera
Ġver d
Ġrepe tir
Ġtir ar
ĠN orm
ĠPrem io
ĠSegu retat
ĠH otel
Ġreflex iÃ³
Ġdeclar aciÃ³
ĠXV III
AR I
Ġc odi
Ġizquier da
k in
Ġinc rem
Ġalim entaciÃ³n
ĠI r
au di
Al t
Ġepis od
ĠRe ial
Ġsub jec
Ġbe ing
Ġrelacion adas
Ġdos is
Ġcol la
ĠB ell
En cara
id amente
Ġa un
Ġrelacion ades
Ġdisc rimin
ĠpÃ¡rraf o
Ġpos e
Ġvesp re
ĠS L
an ÃŃa
og er
Ġc all
AD OS
Ġm ix
ĠPar tido
im entaciÃ³
Ġinclud ing
Ġexp an
ĠS A
av aluaciÃ³
ac er
Ġb ron
Ġesta ciÃ³n
Ġsol amente
ĠX ar
Ġl etra
Ġband era
ec o
Ġpl u
Ġi tiner
ĠC N
Ġf iesta
Ġmarc ador
Ġemo cional
Ġpres erv
ament o
olog y
Ġob jetos
B ut
Ġlegisl aciÃ³
Ġcanti dades
Ġmat r
Ġaprob ado
ĠJ an
ĠA ten
Ġneg re
Ġfuer zas
ter ÃŃa
Ã² pia
Ġins er
Ġsu erte
Ġnom bres
Ġne ed
en ya
ĠF u
Ġi P
omb ra
segu ra
c op
Ġgob ern
Por que
Ġpo eta
ĠC ity
Ġcor ona
ĠCor por
pres iÃ³n
Ġw ant
tiz aciÃ³n
ĠRafa el
Ġtr Ã¡fico
ĠF l
Ġporcenta je
ri endo
ĠCam pi
Ġam igo
Ġlec tor
t Ãº
Ġjuris dic
Ġidi oma
B C
Es c
Ġvehic le
tin gut
olog ies
G R
Ġn en
Ġvos altres
ĠD a
Ġ Â·
Ġac uerdos
Ġimm edia
Ġcondi ciÃ³
9 1
ĠXV I
Ġsab or
Ġactu aciÃ³
qu inas
ĠP uj
Ġh orm
Es per
Ã¡m ica
Ġmat ric
Ġde dica
Ġm ue
Ãłs ter
Ġporta veu
aj uda
ĠR ad
A f
isi ons
ĠprovÃŃn cia
lab ora
abil itat
le ga
v Ã©
arrib ada
Ġpopular s
r ell
Ġp av
D os
Ġlleg ado
âĢ¦ ]
Ġcu idad
Ġa tre
Ġgrad u
Ġpar ell
ĠrÃ¡p ido
Ġp h
ĠEs pecial
ĠeconÃ²m iques
Ġcontr ad
eres a
Ġd Ã¨
ab ora
V A
eu ro
Ġdar rere
ier en
Ġsu min
Ġoportun itat
ta b
qu etes
ĠDer echo
Ġmarc ar
ĠC el
ĠCastell Ã³
Ġveci nos
id ent
ofer ta
gen o
Ġfa Ã§
ĠIn vestig
Ġman eres
Ġllengu atge
Ġapren dizaje
Ġrec ent
Ġseny al
ĠReg istro
ĠSoci etat
Ġelement o
Ġcertific ado
at ing
Ġten ÃŃan
6 1
ros oft
ĠSeb asti
Ġbar re
Ġag entes
Ġren ova
etr Ãł
quitec tura
Ġexpec ta
Ġsimpl ement
ur an
P a
O l
ag er
ĠR Ãł
Ġproper es
Ġf ant
Ġclas ificaciÃ³n
Ġrecor rido
Ġexper iÃ¨ncies
ic en
Ġespecial ista
** *
Ġh Ã¡b
C as
Ġfru it
Ġespeci als
D em
Ãº ria
Ġun iversitat
Ġbenefici s
Ġhist Ã²rica
ies tas
ĠSe Ã±
es tan
Ġvac ances
is tan
Ġaf icion
Ġo wn
Ġl arga
ĠI mp
ient s
rat ge
Ġmalal ties
Ġbas tant
Ġbuen as
at oria
Ġan teriormente
il y
pos t
Ġg el
Ġmanifes taciÃ³
Ġ6 00
Ġcas as
Ãłr dia
Ġcorrespon de
ec ÃŃa
Ġfac tors
Ġestr en
Ġpregun tar
Ġdes af
Ġdepartament o
ard s
Ġfe el
Ġl in
Ġdiversi tat
tis tes
Ġcoment arios
p ida
ri ed
Ġtarje ta
g Ã¼
di ques
5 2
Ġci Ã¨ncia
Ġsur g
Ġmul titud
Ġenla ce
ul e
Ġir reg
Ġarquitec tura
Ġes tima
Ġcone guda
Ġa ir
Ġelec ciÃ³n
8 7
Ġpais atge
Ġco her
Ġneg ro
ĠAg encia
Ġcom enta
Ġcan ciones
ĠD N
Ġpelig ros
Ġdetermin ada
Ġcomple tamente
Ġw hile
l var
Ġpreven ir
Ġafec tar
Ġactu ales
Ġn ame
Ġs ant
Ġes tal
Ġha urien
ĠI gual
Ġmar ques
ran o
5 3
Ġ198 9
A qu
Ġpar ar
Ġf av
ĠeconÃ³m icos
Ġperson atge
Ã ¤
Ġconstitu ye
ĠS ep
ĠA na
Ã³m ez
Ġcomun ica
ĠA ug
ot her
Ġrequis its
ĠP D
Ġimpl em
Ġqu o
Ġc rid
ma il
Ġespecta cular
Ġblan ca
Ġindi rec
C D
Ġprofessor at
in ta
Ġefica cia
i at
d ors
ĠR ev
Ġvol eu
Ġestable cimiento
Ġconver tit
Ġorgan ismos
Ġpu do
ĠcanÃ§ Ã³
Ġrecib ido
Ġpar ad
ici dad
Ġf isc
Ġm ida
Ġin gre
Ġpod ido
Ġcomien za
ber to
Ãłn sit
ot h
Ġs m
O h
Ġpodr ÃŃan
Ġseg les
Ġde terior
ĠprÃłc ticament
Ġaccid ente
Ġen ca
Ġexist entes
Ġrealiz Ã³
ari es
Ġcin qu
r ica
8 9
b es
Ġro ba
Ġinten ta
Ġus e
f ord
Ġtrib ut
leg al
Ġpa ti
Ġconces iÃ³n
Es tudi
Ġanomen at
Ġpodr Ã¡s
A E
es for
Ġajuntament s
Ġempez ar
Ġdic has
Ġb ac
Ġt um
Ġperten eci
Ġcan s
we ver
Ġanti gua
esc ol
ĠR aj
en lla
Ġapro pi
Ġfal le
Ġor dre
6 7
Ġno ticia
Ġsan g
Ġregul aciÃ³n
en cs
Ġ1 20
ten a
ĠTur isme
ER O
pl an
ĠPÃºbl icas
5 4
ar Ã³
n ess
ĠA lex
6 2
Ġa rea
Ġo x
Ġlle is
ĠMan resa
iz an
Ġgesti on
5 9
Ġsent Ã¨ncia
an Ãłlisi
Ġtesti mon
ĠCal if
ĠMin isteri
Ġart ÃŃstica
ĠColeg io
Ġconven io
ĠF C
ur ada
en g
Ġviu en
Ġap unta
el im
Ġesp iri
ÃŃns ula
Ġlle ug
os ta
Ġqu ants
Ġdeclar ar
ĠPar lamento
ĠS tates
ec as
ig na
on Ã¨s
tament s
Ġrealiz adas
itz ant
Ġneu ro
Ġurb Ãł
Ġf lam
ti go
Ġcomp res
Ġmin im
Ġf ur
an tic
en si
Ġg ama
Ġlleg ada
AR T
Ġutiliz an
ĠfÃŃs ico
Ġprob able
Ġterren o
Ġpropos a
P V
6 3
Ġexcep cional
Ġrad ical
Ġqu ins
te gra
Ġadministra tivo
p el
Ġcategor ÃŃas
Ġtien da
Ġventa jas
5 1
Ġpas os
Ġrepe ti
ĠAdministra ciones
ac ho
lus iÃ³
Ġdomici lio
Ġassist ents
Ġinstitu ciÃ³
Ġpo ques
o h
Ġ4 3
Ġconstitu y
ici tat
Ġinver siÃ³
ug ÃŃa
H asta
Ġescol tar
Ãłn d
m i
Ġad s
Ġemp ren
Ġpuer tas
ri tu
Ġpres a
ĠCom arcal
Ġbe fore
Pued e
Ġan teced
ol f
Ġconoc e
Ġtreball en
Ġmi edo
Ġpl as
ĠNav arra
la cant
Ġdom ingo
Ġs ystem
enta s
Ġex tin
e voluciÃ³
Ġassegu ra
A J
Ġor al
200 5
ĠH ol
to do
Ġf ia
Ġpriv at
or da
ac cep
Ġaga far
ĠPla za
Ġle jos
Ġident itat
ones a
ĠtÃŃt ulos
ago za
C l
Ġcuesti ones
Ġv ies
g s
Ġinstrum entos
Ã¨ ries
Ġqu ir
Ġexplo taciÃ³n
P la
emp la
d om
Ġnumeros os
Ġrepar ti
Ġren unci
Ġman tiene
Ġcons ens
ĠI C
Ġpersona jes
Ġme tal
ÃŃs ticos
Ġm ente
Ġma quin
l ent
Un o
C Ã³mo
Ġcadasc un
ĠD eci
ĠM ill
labor ar
8 4
Ġins pir
Ġcre ada
Ġcor reg
ĠMar ina
can vi
Ġtr Ãłm
Ġn atura
r ist
Ġprodu cido
em at
Ġres tes
Ġagrada ble
Ġoblig aciÃ³n
qu ie
ix ement
ĠMos sos
ĠJ ud
ĠespÃ¨ cies
Ġdiag nos
Ġpla ya
Ġafron tar
Ġd ut
ĠS c
z ados
Ġpatrim onio
P R
ĠT IC
ĠAl ta
Ġdispos ar
Ġalcan ce
Ġefica z
Ġcor te
Ġye ar
Ġconserv aciÃ³n
Ġestruc tur
Ġca igu
tr ans
Ġrem un
apar tat
Ġconsci Ã¨ncia
ĠĠĠĠ ĠĠĠĠ
Ġbicicle ta
es taciÃ³
Ġcap it
ier o
Ġconvir tiÃ³
Ġnaturales a
ri el
Ġv all
eg as
Ġtur ismo
tr uy
5 7
Ġmin ut
ĠG ro
Ġno table
in di
Ġj efe
Ã¯ des
Ġpis os
Ġex posiciÃ³
Ġpas Ã³
ĠE v
Ġparl ant
ĠdÃ³ lares
Ġl u
Ġmin or
ĠDem oc
Ġdes esti
Ġta sa
Ġprodu eix
Ġintegra ciÃ³n
Ġprofes ores
Ġver ita
Ġac tor
Ġsor pren
Ġaga f
tim o
Ġarch ivos
ĠJ im
o z
Ġs at
en os
ĠEn erg
et h
Ġprop ag
ad ura
Ã Ĵ
Ġfavor able
ĠEn gl
ĠsÃ¡b ado
et en
Ġ[ âĢ¦]
o te
Ġdis f
Ġra ons
e ar
Ġofici ales
ĠPar k
Ġceleb raciÃ³n
Ġpos ee
ĠS of
h old
ĠjurÃŃ dico
Ġpass en
Ġqu ines
cion ado
Ġpar que
av an
ĠRe y
ĠCl ÃŃn
Ġllo guer
I ER
ĠTor res
Ġcar di
ho ut
G rÃłcies
ĠFeder aciÃ³n
Ġgas to
Ġexcel ente
Ġtrabaj ando
Ġac tivo
tos a
" ).
Ġofer tas
ĠBan co
S ec
Ġdeter mina
Ġinclu ido
et y
Ġp ion
Ġun iversitats
trat Ã¨g
Ġte us
ĠAl fons
6 9
y as
P L
as on
Es glÃ©sia
ul ada
Ġcent en
olog ÃŃas
f al
ĠP C
Ġinscrip ciÃ³n
vel op
Ġcandid at
es de
Ġcalend ari
in ess
ug at
Ġlabor als
p ic
Ġen rere
ins tal
Ġexclusiv amente
Ġc Ã¡
ĠR en
Ġf eu
Ġelabor ar
ĠH ern
Ġlliu res
Ġrepres entar
Ġi gu
ĠCon tra
Ġbar ra
ĠLl iga
Ġsufici ent
Ġcor to
Ġh ier
Ġpla zas
Ã¨ cia
Ġalco hol
M O
Ġap enas
Ġal ma
Ġsubven cions
Ġb any
d Ã³s
ĠPa Ã¯sos
Ġconsiste ix
de f
Ġtrajec tÃ²ria
Ġi ba
em s
ĠRo ca
Ġdes itj
ag rad
Ġrealiz ada
Ġinicia tives
ment ar
ĠProvin cial
ĠrÃ¡p ida
Ġped ido
ran do
Ġanivers ari
Ġmediev al
Ġh all
Ġpresen tan
Ġbarri o
Ġdesc u
Ġrecon Ã¨ixer
ens es
Ġrefer ent
Ġderro ta
Ġcoment ari
O ri
tor io
Ġperm eti
Inter net
Ġtera p
Ġa round
Ġarreg lo
Ġnot ÃŃcies
inform e
Ġdetermin ados
Ġdifer encias
arc o
Ġinnov aciÃ³n
Ġencontra mos
Ġacord s
Ġdorm ir
l ing
it em
om bre
Ġpre c
ĠTrabaj o
Ġcon juntament
ĠlÃŃ qu
Ġrecuper aciÃ³n
Ġconjun ta
Ġrit mo
Ġescrib ir
Ġplata form
Ġvalor aciÃ³n
or as
Ġintro duc
hag i
ĠcompaÃ± eros
fer encia
Ġexpres iÃ³n
Ġ6 4
ĠfÃ³rm ula
Ġnegoci os
Ġmanifes t
Ġsitu a
ĠR oc
j an
fer ent
Ġrelacion ada
tis h
ĠCub a
Ġme te
ĠN or
Ġalum no
ĠPa ul
Ġres istencia
Ġales hores
h id
ator ios
Ġcomporta miento
Ġpue blos
de x
it Ãłries
ĠE du
Ġeuro peu
un do
Ġcam pos
Ġt ier
Ġve us
Ġeleg ido
ĠCom pany
Ġsensi bil
c end
Ġs ame
Ġlic encia
ĠG Ã³mez
volu ciÃ³n
E con
ĠcrÃ©d itos
Ġinv as
Ġent ien
Ġimpor ta
ril lo
Ġcaus es
til es
et ÃŃn
com un
Ġ25 0
Ġorgan iza
er Ã§
Ġf eix
Ġcuri os
ĠV ia
and ro
ĠRob ert
ob res
Ġmen udo
Ġre ti
ĠG a
Ġs ou
Ġpel ÃŃculas
o posiciÃ³
ĠJor ge
que z
Ġ4 1
ĠA juntament
dr ome
Ġpractic ar
ĠvÃŃc times
Hist oria
Ġconsecu encias
ĠC ada
ĠelectrÃ²n ica
Ġdel ante
M on
Ġan ava
Ġd alt
b urg
Ġem bl
Ġpublici tat
j al
Ġconcep tos
ĠAr t
Ġpob lacions
Ġab rir
Ġsac ri
ÃŃfic o
ĠT ol
Ġdeb ut
ll ar
Ġrepro duc
Ġbot h
Ġint elec
Ġdetal les
Ġve ig
Ġd udas
Ġpresenta da
Ġp acte
ĠlÃŃm ites
Ġin ex
Ġgr Ã¡
Ġrealiz an
Ġsens aciÃ³
Ġtransform aciÃ³
Ġsal var
j ats
Ġv ostÃ¨
ue vo
Ġres s
Ã³lo go
ĠH en
d ed
k ed
Ġconcent raciÃ³
Ġ ;
ĠUn ido
m m
ĠcompaÃ± ÃŃas
emp le
ĠH ab
ip s
Ġdem Ãł
ti endo
od el
Ġsuper viv
Ġtrasl ad
ĠS U
Ġpun ta
m ica
Ġpitj or
Ġbuen os
Ġva ix
ora bles
Ġconsum idor
Ġpes etas
Ġh ogar
Ġampl io
e us
Ġc Ã¡mara
Ġcontra taciÃ³n
el i
Ġf red
ACION ES
Ġpos teriorment
ĠP ic
it ores
Ġesdeven iments
S ub
Ġextra c
Ġdisp u
v ed
Ġperm etrÃł
americ ana
N O
Ġva ga
ass istÃ¨ncia
Ġestr ella
Ġpleg at
ĠAus tral
A gr
Ġv ar
ÃŃ c
Ġafec tados
ti cip
Ġsug ger
ven ciÃ³
Ġigual tat
Ġro da
ari ciÃ³
ĠenseÃ± anza
ĠNa tional
ĠM em
Ġpar ada
Es tudis
Ġsegu ida
Ġd ada
Ġestabl iments
P ers
ĠB u
ĠConstitu ciÃ³n
Ġa ud
ĠU R
Ġfaci n
Ġindivid uals
ĠhistÃ³r ico
Ġtradi cionals
Ġgaran tiz
tre et
ĠPro duc
Ġpresent Ã³
M ientras
N i
Ġcolum na
A A
Ġl Ã²g
Ġaugment ar
Ġla c
eg ar
iograf ÃŃa
Ġin ci
Ġcomun icaciones
ven ciÃ³n
ĠK ing
Ġtur ÃŃstica
Ġartis tas
Ġmaj ors
Ġofici als
Ġdec ret
ĠCo ordin
Ġi do
elabor aciÃ³
ĠComun idades
p ass
ĠSup rem
Ġdeb ajo
Ġav alu
Ġurb ana
ĠVil af
Ġoc cidental
Ġprim Ãłria
ĠMar tin
ĠO R
Ġconsider en
Es tÃ¡
Cons ider
ĠC hile
L le
Ġcomp e
ĠT ri
Ġquier en
Ġmus ulm
Mal grat
Ġaband onar
ĠDani el
Ã©n s
Ġconserv aciÃ³
ĠCi Ã¨ncies
ques a
equ ilib
Ġindependent istes
ĠM Ã¨
end as
Ġclar ament
Ġqu iÃ©n
Ġinflu encia
Ġlabor ales
Ġpatrim onial
ar m
Ġf idel
ĠArag Ã³n
Ġhi ja
Ġmar ge
cer es
V E
Ġleg ales
Ġrec op
Ġaut oma
ĠR ES
Ã Ī
Ġv Ã¡l
Ġbar ris
Ġver de
Ġ198 8
ti an
Ġins ufici
Ġindic ar
th ing
ĠB il
Ġsac ar
ĠG en
Ġin quie
Ġgratu ita
ec ha
Ġimp ro
en di
ĠC orn
Ġcont Ã©
Ġserv eix
ĠT ras
Ġrespec tivamente
ĠEs p
ĠReg ne
ĠMic rosoft
b ert
Ġesti guin
an ci
pid amente
l is
Ġab ra
ec os
Ġco un
Ġn et
ĠDes arrollo
ĠAndre u
ĠMar ta
at her
Ġ198 6
Ġresp eto
Ġapari ciÃ³n
Ġpro ven
ĠUnivers ity
ĠdÃ¨c ada
Ġconf id
ed era
Ġelec tor
Ġes tats
Ġw on
Ġaplic aciÃ³
Ġde velop
Ġases or
tr ada
imp acte
Ġseg uros
up aciÃ³
Ġfin ca
Ġmin istre
Ġcatal an
Ġactiv os
ĠCan al
Ġeurope us
es port
en volup
Ġrecib iÃ³
20 13
Ġcom od
ID A
Ġident idad
Ġf illa
Ġqued an
Ġlo ok
Ãº car
Ġmatr ÃŃcula
Ġdeman at
iz Ã³
Ġinfraes tructura
Ġcri da
e ig
Ġpu erto
Ġimpos sible
ĠP rat
Ġaper tura
Ġa isl
Ġneg ra
ad y
an omen
Ġm ap
Ġinnov aciÃ³
i Ã²
Ġam ic
Ġcr uz
Ġxif ra
âĢĻ .
Ġfabric aciÃ³n
Ġrestaur ant
g ada
Ġqu ant
l ÃŃn
Ġconstitu cional
er ar
Ġedi fic
Ġr un
Ġpres taciones
Ġest rec
ĠMÃ¡ laga
v ila
ĠM Ã¡s
Ġmal ament
Ġper cen
Ġc iencia
al f
Ġcar ne
Ġcontex to
Ġconver tido
200 4
ĠF un
Ġdi al
Ġcal led
ĠlÃŃm it
Ġfe ien
Ag Ã¨ncia
Ġpres tar
Ġar re
ĠG ENER
Ġcal drÃł
ag ar
Ġ197 0
ĠA udi
tr ing
fic as
ĠlingÃ¼ ÃŃstica
Ġeduca tius
Ġconcre ta
Ġdeb ate
Ġdirig ido
Ġa trÃ¡s
Ġju icio
Ġal quil
Ġdirig it
Ġllu itar
Ġmo to
wo od
P ues
Ġdin ar
Ġrespon dre
Ġanti cip
Ġnumb er
ex tre
E B
Ġcap aces
Ġta ke
Ġmov imientos
Ġsindic al
Ġubic ado
Ġinte g
Ġcategor ies
ib re
Ġap uesta
G ran
adal ona
ita da
Ġmodifica ciones
it oria
ÃŃ ritu
Ġautor itats
Ġprevi amente
ĠT al
de ixen
Ġaplica bles
Ġnumeros as
Ġtr Ã¡m
Ġretir ada
Ġmen Ãº
Ġnove tats
ĠN orth
ins t
Ġrepresen tant
Ġdisc re
x o
d ÃŃa
ĠUr ban
iz ando
Ã³n ico
ĠÃºn icament
Ġcons tante
ĠMat arÃ³
ÃŃ z
Ġpropiet aris
8 2
Ġgarante ix
Ġhacer se
Ã³l ica
M a
Ġconduc ta
Ġcomen zar
Ġed at
Ġdetermin ado
Ġsi mb
Ġ198 7
Ġsolici tudes
Ġvuel ve
Ġviv o
Ġceleb rada
id era
Ġdetal ls
Ġcolec ciÃ³n
Ġdisc u
Ġh ard
ust ria
Ġestable cidas
P OR
C at
Ġpos ada
Ġcooper aciÃ³
Ġcomple tament
Ġnete ja
Ġfor en
ĠXar xa
Ġlec he
tin u
el va
Ġcir cular
am in
ones tir
Ġrevolu cion
ĠZar agoza
Ġmar keting
Ġtr Ãłnsit
Ġaplica cions
Ġle v
Ġclassific aciÃ³
Ġex cur
C ON
Ġindepen diente
Ġdesp esa
Ġun itats
us ias
Ġm era
Ġn asc
Ġcon ce
Ġeduc aciÃ³
Ġcooper aciÃ³n
ex pressiÃ³
z i
Ġinscrip ciÃ³
Ġefectu ar
or re
Ġen fer
Ġexam en
Ġvalor aciÃ³
ĠM etro
ar ma
Ġenfr on
Ġley es
Ġap pe
el e
or ro
ov as
8 3
en ces
independ ent
Ġdisposi tivo
Ġparticip en
te u
S I
le tes
Ġas ociaciones
r endre
oportun itat
Ġsec ond
Ġretir ar
Ġcaracter ÃŃstica
ĠIs abel
Ġgro up
ĠVall s
ĠCo oper
Ġpil ota
as ter
Ġvis ible
ĠXX I
Ġsal va
Ġquil Ã²metres
Ġcomple t
Ġc ement
Ġform an
Ġrep te
8 1
Ġ Ãī
ti ci
inc orpor
ĠL uc
Ġin genier
Ġpe Ã§a
ĠcientÃŃfic os
ge ta
ĠgrÃł fic
ĠÃºltim es
Ġprocl am
ÃŃl ia
ĠO f
pr om
Ġal i
algun s
ue ba
Ġparti d
Ġna cionals
H A
l el
inc lo
il ia
qu illa
Ġindemn izaciÃ³n
ĠS chool
oc as
por dÃł
titz aciÃ³
Ġhist ori
Ġinterpre taciÃ³n
Ġmes tres
ul la
ĠelectrÃ³n ica
00 00
Ġconsider ado
' ve
is tat
C a
Ġsa id
ir Ã¡n
Ġc Ãłl
tim as
es ter
ĠT an
Ġtreball at
eix o
Ġindepend encia
Ãºn cia
Ġpar ro
Ġintegr ada
ĠavanÃ§ ar
H os
ĠeconÃ³m icas
Ġpropi edades
Ġco al
Ġhid ro
Ġson ido
ĠP uerto
for t
tor y
ĠAn na
in ario
Ġprogram ari
Ġpas ando
Ġefec tivo
Ġ ..
Ġins ul
Ġac red
Ġesfor Ã§
Ġrig or
T C
ĠD igital
Ġvul gui
Ġviol encia
ĠgratuÃ¯ ta
Ġci elo
Ġllev Ã³
o us
Ġusu ari
ĠMur cia
Ġtorn at
Ġaut Ã¨n
qu ista
ha el
r Ã¡s
Ġmig dia
Ġtri ar
Ġconcent ra
Ġlengu aje
Ġben estar
Ġest Ã¡s
Ġexper iencias
Ġvia jes
Ġcor rent
Ġd anys
p uerto
ĠBla ck
ven ida
Ġcap ÃŃtulo
Ġs tand
Ass emblea
Ġed itorial
Ġmon itor
ĠT ro
Ġreg idors
ĠM ov
og a
Ġcam ins
L O
ĠPlata forma
j erÃŃa
Ãł g
Ġassegu rat
Ġcon gres
Ġgol pe
Ġden uncia
efec te
Ġacon se
y an
ĠD eb
Ġperm Ã¨s
Ã²r ics
Ġconsegu ido
ĠG il
Ġad her
Ġcomien zo
res p
Ġper form
Ġfan tas
E d
Ġdificul tades
Ġfuncion ar
ĠPar que
Ġtreball ador
Ġcadasc una
Ġop en
Ġun til
Ġespec tÃ¡
Ġconduc tor
rig ht
Ġarch ivo
Ġcomm em
Ġtar ea
Ġprepar aciÃ³n
V er
ĠOl ÃŃmp
Ġcab e
Ġaut onÃ²m
Ġparticular es
c ord
Ġbos c
us os
Ġp id
tro p
ĠInvestig aciÃ³n
Ġrep tes
Ġincrement ar
Ġcertific at
ari at
ĠCom erÃ§
Ġf our
Ġconnex iÃ³
ĠFer rer
Ġerr ores
Ġvideo j
Ġocur re
Ġre iter
ĠT u
Ġc im
Actual mente
Ġjun ta
Ġequ iv
ol ina
Ġvaria bles
Ġlliu rament
Ġ !
Ġcam pe
Ġolvid ar
Ġllev an
ir ar
al d
hav ien
iz on
Ġmens ajes
Ġcompro var
esde ven
Ġun iform
Ġinten ciÃ³n
Ġsuper iores
Ġvaria ble
Ġmar av
Ġtransm isiÃ³n
Ġtotal idad
Ġapar ecen
ĠR io
mag atzem
Ġexerci r
Ġreiv ind
Ġt ribunal
ĠcÃłrrec s
Ġcaus ar
ĠInform aciÃ³n
Ġexpl or
ĠVil anova
C atal
Ġs till
Ġrig ht
Ġguany at
Ġpor ten
Ġform ado
Ġsent encia
ĠL or
ĠCon di
? .
Ġj am
Ġcultur ales
Ġpriv ado
Ġgovern s
Ġdi ent
ho p
Ġres ist
Ġemp rend
Ġll iga
D D
ĠAd emÃ¡s
fic e
Ġpoes ia
an tas
Ġdes igual
ĠS p
ĠEn s
AR IO
Ġmor ts
ĠdifÃŃ ci
Ġfar em
ĠÃģ lvar
Ġresid uos
ĠC AR
Ġre in
Ġmanif ies
ment os
ÃŃs imo
tific aciÃ³n
Ġor iental
Ġpre f
Ġv et
Ġs ales
Ġboti ga
Ġprof unda
ĠseÃ± or
Ġinvol uc
Ġdesarro lla
ĠR ich
Ġcam pa
ul at
Ġprev istas
Ġd uro
i ed
ĠC iencias
G e
Ġex pon
Ġvisi tantes
Ġgu ia
ug a
Ġubic ada
ĠT eresa
Ġ198 5
Ġtradi cionales
und ir
ĠD in
ĠS ierra
Ġpeti ciÃ³n
um ent
Ġdeclara cions
Ġpi edra
Ġperfec ta
Ġreci cl
Ġl unes
ĠRaj oy
Ġasegur ar
ist res
Ġtan cat
Ġcomp ara
Ġlegisl atura
Ġpor tat
ĠL an
pos a
im port
Ġme xic
Ġadministra tiu
ĠAt l
Ġsegu rament
ĠConsell eria
z ando
Ġdiscapa cidad
Ġ Ã²p
Ġa posta
l ÃŃcules
Ġpersona je
Ġhe ad
Ġimped ir
Ġt utor
esfor Ã§
ĠC ala
Ġa Ã©
Ã¯ s
ĠdÃ³n de
Ġquo tidi
eb ra
Ġcam inar
h one
Ġexper ts
Ġbenefici o
Ġenv ÃŃo
y ing
Ġmas a
Ġpre dic
ĠD ar
Ġproced entes
ĠO ficina
Ġinc ent
cion at
Ġhor ario
Ġincorpor a
Ġoportun idades
Ġped ir
Ġtorn eo
ĠvÃŃc tima
Ġafir mar
ĠS O
Ġlimpi eza
ro id
Ġk e
Ġescen ario
essor ament
ob s
Ġcircum stÃłncies
Ġreb el
Ġcomprob ar
ons o
ĠprÃ³ xima
Ġl ema
Ġenla ces
ĠJur ÃŃ
ĠC erv
Ġt est
Ġllev ado
ĠVic ente
ĠespaÃ±ol as
Ġsubven ciones
Ġpa z
Ġform ular
ĠDef ensa
te gias
terap ia
Ġnaci miento
Ã© ticos
Ġcier ta
Ġpob res
ta g
A pro
Ġparticular s
Ġsal ari
Ġsup era
ĠV as
Ġesp osa
ĠaÃ±ad ir
o ca
Ġconvier te
Com p
Ġth ose
Ġacud ir
in vestigaciÃ³
Ġd ul
Ġsim ult
tim os
e Ã±a
du ra
Ġcon fes
ogrÃł fica
ĠEx tre
Ġprivi legi
Ġposi tiu
ĠC L
ĠVilaf ranca
tr Ã³
Ġpres taciÃ³
Ġp ies
z adas
D ic
ĠCom m
ĠAc tual
ĠS outh
do ba
Ġdub tes
Ġcop s
Ġconfir mar
Ġutiliz ados
Ġvalenci ans
Ġherm ano
Ġtan ts
licitud s
Ġal iments
Ġma in
Ġpol ici
Ġtien das
vol ta
ta tiva
Ã¨ u
Ġfamil y
Ġmor tal
and er
ÃŃs s
ĠIn depend
rÃł s
Ã¯ ll
Ġcomp uesto
Ġfinanci era
ĠbÃłs ics
pos tes
ĠespecÃŃfic as
ĠSin dic
ĠRam Ã³n
Ġpro vid
Ġdi p
Ġh on
Ġper c
ant en
orn ia
ec k
ic ul
Ġtraduc ciÃ³
Ġde uda
ental s
Ġsup uestos
Ġdescans o
Ġc lo
Ġaus encia
Ġex istir
Ġpanor ama
Ġbibl io
b at
am o
Ġav al
R AN
ay a
ĠA ires
Ġgre us
Ġte atro
ant ÃŃas
aj as
Ġc Ã¨l
qu ets
Ġtin dre
ĠB adalona
Ġneg ativa
Ġanunci ar
Ġv ins
Ġrecib e
A F
Ġ4 9
Ab ans
ĠcrÃ© ixer
Ġcreix ent
ĠH or
Ġpin tor
Ġfemen ina
Ġdetermin adas
Ġfem in
Ġoblig a
Ãł pia
Ġ4 7
esc enari
Ġes encial
ĠJ ames
Ġceleb rat
Ġp ont
Ġbaix ar
Ġa segura
ha us
Ġsir ve
ĠT ierra
am en
Ġcereb ro
Ġresid encia
apro vaciÃ³
tr icos
Ã¡ is
ĠRep ublic
ol la
Ġacompany at
Ġpeti ciÃ³
is tit
de u
V D
ĠFer ran
truc turas
Ġmez cla
Ġsolid aritat
Ã¨cn ica
om er
qu era
Â ®
esp ons
ob ertura
Ġvari etat
Ġpelig ro
ĠPr omo
Ġmerc anc
Ġaspec te
ĠRu iz
% ),
fer s
Ġbas ado
ĠS he
Ġconcep tes
P otser
Ġdiv ulg
ir d
Ã± ez
Ġident ificaciÃ³n
Ġdes ea
Ġc Ãłm
ĠAlem anya
Ġra cional
ĠR oy
ĠI P
ER A
a gue
ĠCons orci
Ġigual dad
Ġgeneral mente
ĠC ugat
an terior
ĠespecÃŃfic os
S Ã³lo
S C
ur n
iste ix
ĠL ic
Ġad vers
Ġtri om
Ġcon fec
Ġb reu
Ġpermitir Ã¡
Ġsenci lla
si bilitat
Ġear ly
Ġreun ions
EN D
L l
Ġre tras
Ġde fici
Ġbel leza
Ġinterpre tar
Ġmand at
Ġde gut
Ġta xa
Ġinter n
Ġaut onÃ³m
Ġdesenvolup at
al lo
or io
Ġjun ts
ator is
ĠAs amblea
Ġinc umpl
Ġrecone gut
Ġarrib en
Ġvalenci ana
ut en
way s
ĠG erm
Ġabs ol
at ch
Ġlo go
Ġinf in
Ġra t
ĠfaÃ§ ana
ri ls
Ġvisi tas
en gua
Ġte oria
Ġconserv ar
Ġpl ana
A ten
E F
Ãº p
Ġvolun tad
Ġpens ament
Ġinf lam
Ġf orn
Ġre tra
ĠP le
Ġcita do
ĠEuro peu
ĠF iscal
Ġopin iÃ³
Ġcuad ro
Ġgra tis
ĠT hom
Ġ5 2
Ġcontemp la
ĠmÃ¡ quinas
Ġmar es
ub e
Ġar mas
r Ãłnia
Ġde trÃ¡s
Ġcop ia
ht tp
ĠM ass
ĠDon cs
Ġpl eno
Ġreg istrar
ci ent
Ġcorri ente
aqu ell
giny eria
ĠW est
gr ad
Ġv endre
3 00
envolup ament
ist emas
Ġf la
uc e
ĠÃłmpl ia
Ġc um
Ġrestaura ciÃ³
ĠIn genier
ĠIn dia
Ġveu en
ĠL iga
Ġreg las
Ġch ild
om an
ay os
ĠrÃ¡ pidamente
Ġaz ul
Ġprogram aciÃ³n
ĠRÃł dio
ri u
Ġcontrad ic
r Ã³n
fer Ã¨ncia
ad ia
Ġa igÃ¼es
Ġsolu cionar
Ġmis ter
er res
Ġconfer Ã¨ncia
hi vern
et ar
ta ba
Ãł rem
ĠCar men
8 00
Ġconviv Ã¨ncia
Ġpag a
al th
execu ciÃ³
ĠDi ego
ch as
ĠAl gun
Ġconsum idores
Ġsus pend
Ġnecess iten
Ġhum or
ot jament
ĠD en
Ġsegun dos
Ġselec cionar
Ġign or
C am
ENCI A
al Ã§ada
Ġcre e
Ġinteres ados
Ġre empla
f re
y l
ques tra
Ġd ram
es iÃ³n
Ġderiv ados
Ġexist ents
Ġ8 5
Ġrealiz arÃ¡
Ġcam in
Ġfund ador
Ġbre ve
Ġentren ador
Ġfec has
Ġdesemp eÃ±
op in
Ġv ÃŃas
Ġtier ras
Ġconver teix
Ġnov ela
ĠlÃŃm its
Ġabier ta
Ġfinal itzar
Ġmus eu
Ġl Ã³g
H an
Ġab re
Ġtradi ciÃ³n
Ġ8 00
ĠRe i
ci ente
Ġdespla Ã§
ĠC ic
Al s
Ġprofun di
ÃŃs ica
ĠAs tu
Ġg im
Ġenc an
Ġ198 4
Ġterritor is
ĠÃł mbit
Ġcom isiÃ³n
Ġdif usiÃ³n
Ġata que
ol ÃŃ
Ġb arcelon
Ġenlla Ã§os
Ġcont ribuy
on na
ĠGesti Ã³n
Ġhouse hold
Ġb ord
Ġre ales
Ġexten siÃ³n
A y
vi es
Ġa way
Ġcent ra
Estat ut
he im
Ġan si
ĠCan arias
ICI ON
arc ar
? ,
di eron
ĠnÃº cle
Ġtri un
Ġelev ada
ĠForm aciÃ³n
ĠGeor ge
ĠagrÃŃ cola
Ġac tri
Ġadap taciÃ³n
ĠH aci
ĠseÃ± ala
Ġan g
ĠConstitu ciÃ³
ĠCam peonato
ĠmÃ³vil es
ĠL i
ĠprÃ³xim os
am ed
Ġdoc ent
Ġinv ent
Ġ9 5
ĠF e
Ġ ema
ĠIn di
IC O
Ġhici eron
199 8
Ġho jas
el os
ual itat
Ġaga inst
Ġcons tar
Ġcap s
Ġs tr
Ġllic Ã¨ncia
Es pa
ĠF oment
D esc
S ant
Ġtrobar eu
end emÃł
Ġestabl ert
G rup
Ã¡n ea
Ġtend encia
u gu
ĠC AS
Ġc ro
as te
!! !!
ĠInf antil
ĠbÃ¡s icos
ha uria
Ġdes eo
Ġver te
er do
Ġf iestas
Ġb Ã©ns
l anda
Ġmete or
ĠMar e
Don cs
Ġqued Ã³
Ġsob res
ĠAp ple
Ġmes tre
ĠMun do
Ġdel im
Ġcol on
Ġp uls
Ġprotagon istes
Ġtend Ã¨ncia
ĠIn nov
Ġsigu iendo
v ista
tad ura
Ġfi ra
Ġjus to
Ġproduc tor
Ġperd ido
ĠÃ©s tos
Ġproteg ir
ad en
Ġprim a
era ge
Ãº r
anti ga
Ġmiss atges
Ġfeder al
Ġlan zamiento
AR A
ĠXV II
Ġadquisi ciÃ³n
Ġ196 0
le ta
ĠprÃ¡c ticamente
H ola
ed ic
Ġcons ol
Ġdi ri
ĠPuj ol
Ġt oler
Ġap la
Ġcre ure
Ġdesp leg
Ġpe or
ĠV in
Ġvul guin
Ġexpres a
Ġc eb
pi raciÃ³n
Ġadul tos
er ador
Ġdeu te
Ġcam a
i tants
Ġenlla Ã§
Ġproba blement
ĠUsu ario
Ġro pa
tan o
Ġconsider ada
Ġconse jos
Algun os
S an
Ġo posiciÃ³n
Ġimpos ible
dis cipl
Ġperfec tament
ca u
Ã©n ez
Ġdenunci ar
ĠMen orca
C L
Ġsoci edades
ĠC ro
Ġestrat Ã©g
e vi
mad ura
Ġciutad ana
Ġsus tancias
ec hos
tany es
ĠDur ant
Ġve iem
Ġter m
Ġk g
ĠtÃŃt ols
Ġx oc
ĠOrg Ã¡nica
Ã³r doba
ĠH am
Ġrelle v
mar t
Ġdiscipl ina
Ġmed alla
Ġrequer eix
Ġejerci cios
Ġes tiu
om Ã©
ĠC R
Ġcot xes
Ġneces itan
vi ra
r Ã¨s
Ġta bl
ta bles
vent ud
Ġcris tal
t n
Ġdifer Ã¨ncies
Ġsta te
Ġleg i
ĠAn gel
ita do
Ġcontrac taciÃ³
ĠS I
r ÃŃcul
Ġlim itar
Ġanal izar
Ġcu Ã¡n
Ġespec tacle
Ġtrans vers
Ġr ut
Ġdipl om
Ġexemp les
o est
ĠD ic
An ton
ĠT oni
Ġconsist ori
ĠMed ia
Ġentr ades
Ġconsider at
Ġdipu tats
Ġpod rem
Ġr um
Ġpe us
ĠSan to
ES O
Ġle ad
Ġutil itzat
ĠGra u
Ġrela tivo
ul ari
Ġeurope o
Ġsac erdo
Ġcomp u
Ġsitu ar
Ġconflic tes
Ġass ass
ĠS eny
Ġses iones
ĠMarc h
Ġtram itaciÃ³n
200 1
qu ÃŃa
il io
Ġhac ÃŃa
til las
Ġobl id
Ġmat ar
Ġdefini ciÃ³n
Ġcul min
mar ca
Ġventa ja
Ġab ajo
ĠEcon omÃŃa
Ġfun da
ĠfÃŃs ic
ĠEn rique
Ġreci ente
ÃŃ na
Ġeurope os
Ġproxim itat
Ġm ando
Ġnov edades
Ġexpl os
h otel
Ġestr ellas
Ġsens aciÃ³n
Ġgerm Ãł
Ġafec tats
Ġb aby
ĠCris to
ĠEn ti
Ġren da
Ġmunicipi os
em en
Tot es
Ġan uales
Ġg ols
os s
Ã¯ n
Ġl Ãº
Ġcompos iciÃ³n
Ġl iving
ular s
ien es
Ġaga in
S ol
ra cia
Ġ5 1
ĠJ ack
ĠZ ap
G A
Ġm ass
in ing
ental es
ĠIm per
Ġapar ecer
ci ales
Ġper segu
rid ge
Ġobjec tes
Ġand al
Ġcomple ix
x iller
Ġinvestig ador
Ġg am
ĠespecÃŃfic o
Ġafec ten
ĠcÃłn cer
ĠE E
Ġident ifica
Ġres pira
Ġtr on
Ġperm ita
ĠCan ad
Ġaproxim adament
h al
Ġr ar
Ġh alla
AM ENT
Ġcompe tir
em Ã¡tica
Ġval ora
obl ig
G E
yec toria
os sa
ĠJul io
Ġlater al
Ã¯ m
Ġdeci deix
Ġh ol
Ġbusc ando
Ġs als
ĠJust ÃŃcia
Ġdeix ant
ĠAr ts
Ġmez cl
ĠE duca
S om
ater al
ĠS tar
Ġcub rir
ĠW as
Ġar r
ĠS ag
Ġcab all
Ġmusic als
it Ã³
Ġres tos
Ġelec tri
Ġ >
ĠmÃ¨to de
Ġmerc ats
Ġenf oc
Ġentre g
ĠC lar
Ġpreci sa
Ġne ur
Ġw ar
Ġcer can
Ġre ten
Ġfen Ã³m
ĠF r
O tra
ĠGal icia
Ġmar gen
Ãł tiques
V I
ĠcrÃ¨d its
igr ants
le ge
Ġres istÃ¨ncia
Ġcier re
Ġgo od
Ġinstitu ciÃ³n
Ġofici nas
ĠespÃ¨ cie
Ġcor on
P as
Ġpudi era
ech n
Ġgratu Ã¯t
to col
Ġapar eixen
ĠAl berto
Ġcomunic at
tific aciÃ³
Ġsign at
Ġdispon er
Ġesfor Ã§os
Ġn on
ĠC urs
Ġcompor tament
Ġind isp
Ġaudiovis ual
ma z
Ġaccep tar
Ġnuc lear
ĠbaÃ± o
Ġingres o
op e
Ġal e
Ġcin emat
Ã² graf
enlla Ã§
Ġprodu Ã¯t
Ġutilitz ant
w in
ĠEstat uto
Ġb arro
Ġestar Ã¡n
y d
Ġcomun icacions
ĠAr tes
Ġco hes
Ġmen j
Ġac tiu
cul ares
Ġpoc as
es tal
Ġrespon der
IENT O
Ġvuel o
ĠS ha
Ġal tas
ĠReg lament
Ġnue ve
Ġcomprom isos
Ġinmedia tamente
Ġpercen tatge
Ġreg la
f ul
Ġestra tegias
us k
Ġim pon
ĠB ay
Ġsex o
ĠE j
Ã¡s tico
ĠC I
ent ren
Ġesde vin
Ġrend iment
Ġll at
ĠR ip
on able
ĠS osten
4 00
ĠquÃŃm ica
Ġsalud able
Ġreci entemente
Ġdec reto
Ġespeci fica
â Ĩ
Ġcu ota
Ġcif ra
ri qu
ri ure
ba ix
Ġespor tiva
Ġap uestas
Ġcompeti ciÃ³n
tar on
C N
at Ã³
ĠrÃłpid ament
Ġmatrim onio
Ġcu entan
Ġreun iones
ti ts
ĠComerci o
Ġb Ãł
Ġar x
Ġfinanci eros
Ġsan cion
Ġleg als
is sion
ĠSeg ons
ĠCol omb
Ġguard ar
ĠBri tish
Ġmon eda
ĠCon curs
ob al
ti ga
U til
ĠcientÃŃfic o
F or
Ã¯ na
Ġaix ec
ĠHaci enda
Ġab og
Ġinvestig adors
no w
Ġl enta
ĠC reu
it ges
Ġrepresen tante
ĠG rÃłcia
Ġliber al
ĠHum an
Ġorgan itzada
Ġfer m
Ġgovern ment
Ġinclo ent
ĠK ar
Ġdej Ã³
ĠInterna tional
Ġrepres ent
Ġapar tados
Ġaz Ãºcar
b on
ĠRE G
Ġm uri
Ġal ber
Ġpla ce
Ġplante jar
ĠX ina
Ġofer eixen
Ġexcep te
ĠF al
ĠS ent
Ġcoordin aciÃ³n
r mac
no va
Ġdi aris
Ġesper o
Ġhub o
Ġresid Ã¨ncia
Ġcont und
ti gi
Ã¡ ticamente
ĠT res
Ġaten der
Ġprove Ã¯
Ġj urat
ĠC ad
Ġconfid encial
Ġutil itza
T odas
ĠSol id
v isiÃ³n
Ġlocal itat
Ġ198 2
ĠcÃłr rega
espec tacle
Ġproteg er
ĠVal le
Ġoportun itats
Ġm isiÃ³n
Ġesca par
u ix
Ġrec entment
ĠO li
ĠEcon Ã³m
Ġhab rÃŃa
Ġferro vi
Ġess ent
Ġavent ura
Ġca u
Ġcombin aciÃ³n
rim iento
op ciÃ³
ĠPer Ãº
Ġcon gel
Ġcombus tible
- .
Ġtar geta
ĠBuen os
Ġre cap
iv ed
Ġpec ul
Ġdoc tr
Ġd ansa
ward s
ĠY o
Ġinten sa
Ġcontrac tes
Ġac tors
Ġ198 3
Ġdej ado
j era
Ġprecis amente
on dre
ĠC ated
ĠD ra
Ġespiri tual
Ġtanc ament
ĠCons ul
ĠL ou
Ġver siones
ĠFigu eres
EMA IL
ĠCalif ornia
Ġherm anos
inc re
uc ha
Ġsal e
m ana
Ġingres sos
b is
Ġla menta
Ġretall ades
Ġp uso
ĠB re
Ġpos en
Ġrisc os
ass ign
ĠGENER AL
Ġd ates
ĠF eb
Ġpromo ver
ĠPh il
ĠT ots
ĠCon trol
ĠQu in
hos pital
Ġrealiz ados
ĠD IS
ĠrÃł dio
Ġcontac tar
Ġho w
Ġdepen de
Ġgerm ans
Ġalem Ã¡n
Ġdisp ut
ĠN et
Ġlle t
ĠprÃ¨ viament
g ans
ecer ca
Ġdeci diÃ³
Ġan tics
T rans
Ġcomple jo
Ġent end
Ġ20 21
O tro
Ġfa ig
Ġclub s
Ġacep taciÃ³n
eci miento
ÃŃm ica
Ġp ales
Ġpasse ig
Ġincl Ã²s
Ġexp edi
Ġus a
Ġpro pon
Ġrecog ida
Ġmostr en
ĠL O
w h
Ġcontinu Ã¯tat
Ġcar tas
ban isme
Ġaut Ã©n
ific ada
cin g
ĠJ ean
Ġcelebr arÃł
ĠConstitu cional
Ġpo wer
ĠDoc um
Ġ197 8
Ġentre gar
v esti
Ġcre ma
Ġpod ien
ar di
ĠTur ismo
qu Ã©s
Ġencontr ado
Ġpro cur
ĠVir gen
ĠWilli am
Ġsubven ciÃ³
Ġgan ado
Es tÃł
ĠCar me
Ġpar ecer
ĠAl onso
Ġtrabaj a
Ġciutad Ãł
Ġn ight
Ġs iento
Ġcier tos
rib uye
ĠJap Ã³n
te in
Ġb ran
T iene
Ġderi va
Ġestabl ecen
Ġs ag
Ġte orÃŃa
Ġne ar
elec ciÃ³
Ġapar c
âĢ ĺ
ĠT es
Ġsocial istes
Ġper iÃ²
qu ial
tu als
Ġhom olog
Ġpob resa
ĠA utor
Ġarti ficial
Ġterc ero
H or
Ġprepar a
Ġpr ome
Ġsever al
ĠP RE
Ġprepar at
Ġar ts
hing ton
Ġr ur
Ġcan ta
Ġa pl
ÃŃss ima
all as
rer as
exp lo
dem ont
Ġrev isiÃ³
ĠPat ron
ĠbÃ¡s ica
Ġexig ir
tis tas
Ġconsider aciÃ³n
Ġfinanci ero
Ġexerci ci
ĠrÃł pida
Ġespany oles
independent isme
ĠFran k
Ġinm un
Ġcoordin aciÃ³
Ġreg idora
Ġen cap
Ġ5 4
20 15
ÃŃc tor
Ġd arÃ¡
ĠS om
Ġfigu res
gr Ã¡
par t
E P
Ġ Î
Ġ197 9
Ġno ies
Ġqu el
Ġorg ul
ĠC AT
Ġsor tit
Ġconc lo
Ġasoci ados
ac tes
Ġgan Ã³
Ġreg iones
Ġmodal idad
Ġesc uchar
Ġintelec tual
qu ines
Ġproduc en
Ġmul tim
Ġobten ido
ĠCas al
Ġsembl ant
Ġinstruc ciones
Ġap re
g ed
Ġinterpre taciÃ³
Ġca ÃŃda
Es o
Ġproba blemente
Ġadministra ciones
An tes
menta da
R espec
Ġperm iso
ud ar
of f
Ġinversi ones
Ġexclusiv ament
ĠPol icia
t Ã©s
In f
Ã¨ tics
Ġest ona
Ġdesap are
ĠMay or
Ġin tu
Ġefici encia
ĠSan idad
Ġpressupos tos
ti das
ĠMon te
Ġdedic ado
Ġpod reu
Ġdescub rir
Ġdetermin ats
Ġexpres amente
n g
Ġsab emos
Ġen fo
Ġelec tro
Ġcita da
ro c
Ġpul m
Ġas unto
Ġvi va
Ġbas at
Ġv ocal
Ġprotes ta
ke y
ur ch
cion amiento
Ġf is
Ġdic en
ĠW al
Ġ rib
Ġjue ves
Ġdesc end
ĠCampi onat
ar tista
Ã¡n icos
ĠO pen
Ġsan itario
ton e
G o
Ġs tud
or at
Ġv ib
jec u
Ġrecep ciÃ³n
Ġinstrum ento
Ġexcep ciÃ³n
esp any
ĠRad io
ĠsÃŃ mbol
Ġaf ili
Ġdemos trat
Ġpi ano
ĠW il
Ġjustific ar
ĠM A
ex pl
Ġfundamental es
u o
aug ment
Ġconvertir se
xiller at
Ġcr on
Ġpel o
ĠCrist ina
Ġc able
Ġpl us
e va
ĠM Ã©s
Ġpos ant
ĠIndust rial
ĠOrgan izaciÃ³n
ĠFel iu
d ing
Ġfam osa
ant os
Ġmodific ada
Ġdarrer es
Ġnombros es
Ġsus cep
" ;
Es t
Ġejer cer
Ġv ender
Ġanal itzar
Ġperjud ici
Ġdemostr ado
Ġnormal mente
ĠT orn
Ġnombros os
Ġintegra ciÃ³
Ġteix it
Ġconces siÃ³
Ġmecan ismes
Ġrom ana
ĠW e
Ġre ina
i ans
Ġver tical
ĠM ul
ĠcrÃ¨d it
Ġconcent raciÃ³n
ri os
i ales
ĠB is
las h
ĠP ac
ĠF uer
iv el
Ġo este
Ġunivers idad
Ġreligios a
crip t
u ca
Ġcum ple
Ġtab la
de termin
Ġsan itaria
Ġgus to
p us
ens able
ON A
ra ta
Ġema il
Ġimplan taciÃ³n
Ġjus tifica
ap s
Ġgu ÃŃa
ap l
Ġden omina
Ġres postes
Ġcons ells
Ġrecom p
Ġgr is
Ġw it
ĠDÃŃa z
Ġpor tada
Ġmarc at
ĠT rib
Hist Ã²ria
ab e
ĠfÃ¡ rmac
Ġacon te
Ġcu antÃŃa
L i
F A
Ġinv ierno
ero port
Prim er
Ġ" "
% ).
D avant
Ġtermin ar
Ġv ell
Ġres uel
Tan mateix
Ġpriv ades
Ã² f
Ġsig los
ĠS w
Ġadul ts
ĠC Ã³rdoba
ĠAstu rias
te ques
Ġenerg ia
Ġcanvi at
o ciÃ³
g em
Ġinter f
H ace
Ġal caldes
Ġos c
Ġmues tran
6 00
Ġapor tacions
en fron
ph y
x ar
ĠmÃ¡ quina
Ġexcep to
lec tiva
Ġre als
Ġre to
Ġgir on
ĠDoc tor
Ġ9 9
ĠResolu ciÃ³n
Ġtren car
ĠCom o
pres s
Ã²s tic
Ġdisc os
U r
ĠTel ev
ĠRes id
Ġlegi tim
vil le
adre Ã§a
Ġinstrum ents
Ġsin ce
Ġ6 2
Ġlleg it
Ġpaci ent
Ġmecan ismos
tes i
ĠGener ales
c y
mb res
Ġdificul tat
in cl
Ġt y
ĠCamp us
T a
Ġcont ÃŃn
ĠM AR
Ġra pid
Ġcent ury
ar da
oll ers
Algun s
Ġquir Ãºrg
gles ias
Ġconstitu ir
ĠCar n
Ġta ules
Final mente
Ġpublici t
Ġtu vieron
S ense
Ġconsidera ble
iss eny
Ġhab itatge
ĠS m
ĠC ient
ĠMic hael
Ġcoordin ador
iÃ©n dose
al iment
opin iÃ³
ĠfÃ¡cil mente
dic as
Ã²l ica
W hen
Ġrevis ar
ĠelÃ©c trica
Ġigual mente
Ġqued ado
Ġh uel
Ġ193 6
Ġfen omen
Ġdestin ada
Ġun ir
ĠaÃ±ad e
Ġsem if
Ġres tring
Ġfonamental s
ĠB art
Ġin tim
Ġtr enta
er tos
P ON
hor t
ĠIt Ãłlia
av es
T amp
ins cripciÃ³
Ġg ana
Ġinc ons
Ġent usias
un as
ĠD al
ĠPor tal
Ġocas ion
Ġcorpor al
Ġvis tas
oc he
Ġw ater
Ġperfec to
ĠC op
Ġpol icÃŃa
ĠT our
ed ors
ri ts
Ġcom ba
Ġna ixement
Ġdisc us
Ġgan as
ĠR ecerca
Ġen amor
Ġreconoci do
ĠAr ch
Ġe ven
ĠFran co
obre ix
Ġsan itarios
Ġpol icial
Ġre tor
Ġpu ra
ur go
Ġar gent
ĠestratÃ¨g ia
Ġc antar
Ġaum enta
Ġ5 6
ĠR ÃŃo
T er
Ġpropos ar
Ġintrodu cir
z can
ĊĠĊ ĊĠĊ
tad ora
guer en
Ġahor ro
I ES
ir m
Ġles iones
ad ero
vi era
Ġhabita ciones
Ġmer eix
rÃ¡n eo
Ġc ari
ĠdÃ¨c ades
Econ omia
Ġdia b
ific ado
er aciÃ³n
om ba
iti es
Ġprol ong
Ġconflic to
Ġro jo
ĠPer man
Ġpens o
Ġrespec tivament
Ġcompos iciÃ³
Ġpl ural
Ġproduc tores
si us
M E
ĠbÃł siques
ĠPatrim oni
esti ma
b en
Ġadjud ic
Ġfl ores
ril la
ha urÃł
Ġalmacen amiento
oll s
ĠC OR
resp ons
Ġle vant
Ġcor e
ĠA uto
ĠCo unty
Ġtransform ar
im m
Ã²s its
Ġaf ric
Ġe ach
as tre
Ãłs tica
u k
Ġcomm un
Ġformul ari
Ġrealiz ando
c r
ex Ã¨rcit
aqu ells
Ġcircul aciÃ³n
Ġdoc ents
Ġpl ano
Ġconfigu raciÃ³n
dol e
Ġam unt
up era
Ġpot enci
ĠProtec ciÃ³
Ã²n iques
Ãłr rega
Ġcar tell
20 14
Ġlib res
Ġv istes
Ġaudi encia
arrib ar
Ð °
Ġvolun taris
Ġobtin gut
Ġse d
al da
und ido
Ġespecial istas
alum ne
Ġv iento
ten ta
ĠDE S
M I
ĠL iber
Ġhor izon
vin guda
Ġgaran tia
ĠGar cia
Ġs te
ĠsÃŃ mb
ĠI g
Ġinteress ants
Ġdesta quen
ĠGab riel
Ġequival ente
Ġmunicip ales
Ġfib ra
ĠV II
Ġdic tadura
Ġdetal le
Ġsignifica tiva
ad m
ab ast
ez ca
ĠCer d
b s
ĠSeg ona
Ġn orth
Ġestruc turas
Ġprev al
all Ã²
Ġpar elles
Ġvis cut
Ġesqu erra
Ġalquil er
b Ãºs
Ġplu ja
Ġens ayo
lus tra
Ġotor g
Ġdiscapa citat
ĠX III
Ġcom una
Ġmarx ar
ĠestratÃ¨g ies
Ġc aja
Ġesp ÃŃritu
Ġdescon oci
er amente
ba o
Ġsuper vis
Ġprev Ã©
ĠUn it
Ġs Ã³l
ĠE D
Ġs peci
b ro
ĠSecre tarÃŃa
Ġx iqu
Ġn ar
ug o
op ol
ĠAmb ient
ĠR iver
ĠAustral ia
Ġpas e
Ġej Ã©rcito
F ORM
Ġcan ales
Ġindivid uales
em erg
Ġexp uls
Ġsuf rir
Ġri quesa
Ġfilosof ia
P I
Ġanti ga
ĠP ero
oc es
Ġhotel es
Ġpod remos
Ġxif res
Ġanunci at
Ġviv e
Ġeti que
Ġfu tura
Ġy eah
acon seguir
Ġdon arÃł
ad olid
Ġparl en
Ġal bum
Ġrecop il
uc k
ĠH is
ta tion
Ġadi cionales
Ġtan tes
Ġ5 3
OR ES
Ġsub ministra
Ġconven Ã§
at ero
P lan
Ġentien de
Ġav erage
A lacant
Ġsuspen siÃ³n
av all
CO O
Ġv ora
Ġno tes
ĠD an
ĠDes envolupament
G U
i ament
z go
Ġincl osos
ĠEn ric
M IN
Ġdestac an
algun a
cul a
hab itants
Ġerr ors
ula ciones
v at
ĠQu Ã¨
Ġcompos itor
Ġresid ents
Ġt ros
Ġrepres enten
Ġorgan izado
Ġhe art
Ġreclam ar
M entre
ac os
z Ã³n
Ġam o
Ġtrans cur
Ġcompr ender
ĠAnd rÃ©s
ĠAut Ã²n
Ġsegu eixen
S erv
C AP
Va ig
am anca
Ġdiv isiÃ³n
Ġg rec
m erc
Ġsot m
Ġconci encia
Ġperfec tamente
Ġac el
Ġconsi gue
Ġsegu ido
r ant
ĠestÃ¡n dar
ĠElec tr
Ġpo guÃ©s
f it
Ġor d
Ġcav all
l let
Ġcompon ents
Ġsu ger
Ġcier tas
ang er
Ġurban ÃŃstica
t emp
b uj
Ã³r ico
Ġjun tos
ĠGu Ãłrdia
P F
Ġjus ticia
Ġn or
Ġob tuvo
Ġcoc hes
Ġle tras
ĠPs ic
Ġcamp us
Ġper que
ari z
Ġt ribun
Ġimp uestos
Ġempez Ã³
ver g
Ġfel iz
Ġfuncion arios
Ġprovin cial
raf t
ĠdiseÃ± ado
Ġrecom ienda
E mp
Ġal ong
or di
as es
. Â»
Ġsoci etats
tan ta
Ġec os
Ġconcre tament
ĠJorn ada
Ġdipu tat
car ril
Ġclar amente
Ġrecom enda
Ġfuer tes
Ġdi us
versi Ã³n
Ġro t
Ġpas ta
Ġon ce
ie ve
Ġestan cia
Ġir re
ampi ons
Ġf Ã²rum
ĠHist oria
Esqu erra
B uen
Ġv oto
Ã²leg s
ĠEspany ola
ĠmÃ© dica
Ġdimen sions
Ġdescar regar
ĠS eu
ĠT i
Ġm id
ĠAnd orra
Ġrealitz en
Ġpu jada
Ġpubl icacions
Ġmues tras
Ġem isiÃ³n
Ġurb ano
Ġmos trat
cri to
ĠdemocrÃł tica
Ġinteres antes
Ġrec e
Ġreflex ionar
P ublic
Ġesfuer zos
ta mb
ĠIn glaterra
igu es
. )
Ġin cer
Ġlabor atorio
cord ing
Ã¡ g
t ent
Ġdoc e
Ġaj uts
Ġcur rÃŃcul
ĠcientÃŃfic s
ul ado
Ġpens at
Ġcapa Ã§os
n ers
ĠG od
Ġquel com
ic ante
ĠC uer
tu ales
Ġpropor cional
Ġte ves
Ġalem any
B L
ĠWas hington
Ġdin Ãłmica
Ġobten ciÃ³n
Ġcog ni
tratÃ¨g ia
Ġpot ent
ifica ciones
en guany
ug es
vi ure
Ġan tel
Ġpend ent
ĠM itj
Ġpu diendo
Ġsenci ll
Ġunivers idades
ĠCON S
Ġcriter io
Ġentren amiento
Ġeduca tivo
ĠTe atro
Ġbeca use
Ġcob rir
Ġcompr end
Ġparl at
Ġcap ÃŃtol
Ġsec u
Ġc ho
ĠacadÃ¨m ic
ĠG el
n cia
iograf ia
is tic
Ġconven cional
Th ere
Ġle ft
Ġdra ma
Ġm all
ĠDiv isiÃ³n
Ġvol viÃ³
Ġcir ugÃŃa
C AT
Ġrel aj
ro ga
ĠP ap
Ġint ento
c rit
ĠComun icaciÃ³
Ġtransform aciÃ³n
Ġpropiet ari
Ġprecis o
Ġmet ge
pany es
Ġexiste ixen
il le
ĠReg ional
Ġ198 1
Ġentre ten
ec tor
Ġes cap
Ġescol ars
Ġdens idad
Ġfotograf ÃŃas
Ġan Ãłlisi
ĠÃł rea
gu ardia
ac ciÃ³n
ĠN os
Ġtra te
ĠCamb ra
Ġen gan
Ġsab ia
Ġjut ge
ĠmÃ² d
Ġcos m
Ġc res
ĠÃ ĵ
Ġfotograf ÃŃa
Ã¨n ia
Ġg all
Ġdisp utar
ĠUr b
ĠSeg unda
ĠHern Ã¡ndez
Ġincorpor aciÃ³n
Ġfet es
res s
Ġadequ at
ĠCom itÃ¨
Ġmat Ã¨ries
ĠP ep
Ġhis p
ĠX II
ra tes
d am
Ġlimita da
ĠFelip e
Ġfores tal
Si empre
Ġv Ãłl
Ġnormal ment
Ġcandid ats
Ġconoci dos
ĠDN I
Ġdist ing
Ġnaveg aciÃ³n
T ant
Ġin gles
Ġsu pl
Ġrecord at
Ġcon g
ĠDeci siÃ³n
ar de
ĠAle j
ĠAlfons o
Ġa ver
ĠPuig demont
itor io
U rg
r ing
Ġun iÃ³
ici n
ĠFacul tat
Ġtrasll ad
ĠIN TER
Ġher ed
ĠM IN
ĠL la
G O
ĠS itges
it ch
Ġhabil idades
Ġimpres ion
B ar
pita let
iv ar
Ġtej ido
ampl i
ĠB all
E di
ĠM ich
Ġsuperior s
Ġ197 7
Pod eu
us ter
politan a
Ãł u
eu re
P OS
d ido
Ġtransfer encia
Ġmodal itat
Ġall iber
or aciÃ³
Ġde du
i ria
tr icas
Ġesta dos
Ġinicia tivas
Ġcom eti
itor al
bl y
Ġinstrum ent
ol as
Ġhabitu als
ta miento
Ġrefer ente
Ġperm ÃŃs
Ġacep tar
Ġformul ario
ĠP ilar
Ġjorn adas
ins titu
Ġbloc s
ell Ãł
Ġnotific aciÃ³n
Ã©r ico
ĠCons um
Ġanteced entes
Ġempi eza
Ġsindic ats
Ġcuar ta
Ġdesc ens
Ġmedi an
ĠV is
Ġpil oto
ĠIs land
Ġin tr
and re
Ġrestaur ante
Ġdefini ciÃ³
c am
Ġintercamb io
Ġvol c
ĠE jecu
ĠDO GC
ĠÃ¡mb itos
Ġbeb Ã©
" :
ĠAmb iente
ĠD ret
i als
Ġplante ja
Ġacoll ir
Ġcolec tivos
ĠBer lÃŃn
ĠRib era
Ġanti gÃ¼
D oc
Ġde gus
ien a
L uego
Ġcu yos
Ġinm edi
Ġtermin al
Ġestable cimientos
ini cia
ĠConven i
Ġdesenvolup a
Ġmanifes tar
l ules
Ġreci Ã©n
Ġindic ado
Ġpass os
Ġn ev
ĠJ ocs
El la
un ciÃ³n
Ġasist entes
Ġopini ons
ĠbÃ¡s icas
Ġva ya
Ã¡ metros
O O
ot t
Consider ando
Ġcompet entes
er ÃŃas
ĠDur ante
tr ics
Ġenc er
P r
Ġfal tar
Ġentr adas
al ia
ĠAr te
Ġtur ÃŃstic
Ġcif ras
a tac
ĠPrim er
pa ti
Ġreconoc er
Ġrec uerda
Ġtall eres
oll y
Ġinflu Ã¨ncia
Ġcons truy
m oni
Ġil umin
Ġsimil ars
Ġconven iente
ivers idad
Ġtre inta
ĠConse jerÃŃa
Ġtrasll adar
Ġcob rar
leg is
Ġpens a
Ġoblig atori
Ġpopular es
ĠS treet
Ġver sions
Ġg ala
iz as
Ġt elecomun
Ġcorrec tamente
Ġrealitz ades
Ġtriom f
ĠPal acio
gu ard
ĠS Ã³n
Ġbell esa
Ġmin istro
Ġmill ores
c usa
ogrÃ¡ fico
am Ã©rica
Ġps ico
Ãį T
Ġpil ot
ĠEs por
Ġconcl u
ĠSec tor
Ġparl em
Ġalterna tives
ĠD VD
Ġtorn ada
Ġdes m
Ġal tos
Ġrenov aciÃ³
ĠH isp
ĠfÃŃs icas
p ing
Ġcri teri
t Ãºa
Ġo v
Ġp etro
ass ar
ĠAcad emia
Ġh Ãłb
ĠExtre madura
ĠcÃ¡l culo
Ġb ols
Ġl ici
Ġpla ca
Ġinver tir
ĠForm aciÃ³
O tros
or ien
Ġhist Ã²ries
Ġre tar
Ġ --
te o
ĠV ÃŃctor
Ġt Ãºn
ĠGesti Ã³
Ġvi atges
Ġdiv isiÃ³
Ġextran jero
Ġva por
Ġorgan ismes
im as
B us
in eu
Ġnomb rado
ĠSecret ario
Ġfinal izar
Ġpag os
Ġso uth
Ġper ro
Ġevid encia
Ġcul tiv
Ġfir me
Ġperju icios
Ġob ertes
Ġmov ilidad
Ġconstitu ciÃ³
ĠÃ©s ser
Ġirreg ular
ob la
h h
M od
Ġar ras
Ġorden aciÃ³n
Ġconsul tes
ex cep
O f
on ament
Ġprofes iÃ³n
ĠP L
Ġra cis
Ġintegr ar
Ġdist rito
Ġcap ÃŃt
Ġabord ar
Ġconv ocar
Ġg au
Ġaloj amiento
ĠP oble
Ġban cos
Ġrela tivas
Ġrestaur ants
Ġas tr
Ġespor tives
Ġrenova bles
Ġconci erto
Ġquar ta
Ġdej ando
ues tros
Ġembara zo
Ġcomen cen
en siva
Ġapar Ã¨ixer
Ġfarmac Ã©u
Ġproced iments
Ġan gles
ĠmÃºs ics
Ġdecid ido
Ġ197 6
ĠM ira
Ġequilib rio
Ġas untos
fi eld
Ġviv int
ĠEU A
ex terior
Ġelabor at
Ġinclu idas
iz ed
Ġinversi ons
cid ent
Ã² bil
Ġr up
Ġprop Ã³sito
Ġsu jetos
ist s
ĠPol ÃŃ
Ġespor tiu
Ãºs sia
Ġb uc
j ades
ER S
Qu i
Ġr ere
z y
R eci
ĠNav arro
Ġlogr Ã³
Ġprepar aciÃ³
Ġdesc one
Ex isten
Ġ7 2
ĠRo ja
u rem
mb ia
ig s
Ġeurope es
Ġta x
ĠE C
âĢ ²
ort un
âĢĵ ,
Ġpersonal idad
Ġfrecu ente
Ġis las
ĠN omÃ©s
Ġdisminu ir
ĠP A
ios o
and ia
Ġsan itÃłria
ĠM y
ĠS or
Ġcontin Ãºa
p ot
Ġno is
Ġcomun s
Ġconform itat
ad s
ĠReg istre
Ġcap tur
Ġneg ar
M o
Ġrecog e
d y
da y
Ġguany ador
Ġcos sos
mor zar
Ã³lo gos
ĠRec ursos
Ġbien estar
Ã¯ a
ier nos
l ia
Ġper f
Ġdin tre
Ġincorpor aciÃ³
Ġinteress ats
Ġdar le
Ġestudi ant
e arch
Ġhabil itats
ĠD esc
r ents
us ia
Ġcent enar
ĠChar les
Ġdep Ã³sito
Ġbeg an
ti gu
Ġcalend ario
ue vos
Ġguitar ra
Ġcontemp lar
Ġag ro
tan g
Ġbu ild
Ġdep Ã¨n
Ġinclo ure
Ġf ues
ĠDom ingo
n ec
Ġpres os
Ġapro fi
ĠCor ts
Ġplan e
Ġcan tante
Ġru mb
ĠE gip
Ġo pos
ĠJ ac
ĠH el
Ġe pid
Ġp et
Ġpen ÃŃnsula
Ġfund ada
r ales
ĠBlan ca
Ġte or
ĠD os
Ġesdeven iment
ra mos
Ġsol ament
ÃĢ rea
o fici
ang el
esper it
Ġverita ble
Ġjun t
Ġsi quiera
x os
Ġsex e
ĠLa ura
Ġlan d
Ġguar da
Ġpi eza
Ġredac ciÃ³n
Ġfel i
Ġ5 7
Ġess encial
ĠSet mana
ed ora
ĠJ uegos
ĠMus ic
Ġcam panyes
Ġĉĉĉĉ ĉ
Ġvot os
Ġrec uerdo
Ġelev ado
ĠcomenÃ§ ament
Dis posiciÃ³n
Ġ197 5
ĠM Ã³n
Ġsub ir
Ġem isiones
Ġhomen atge
AN S
vi ew
Ġterren ys
Ġcan tant
Ġsubven ciÃ³n
prom ÃŃs
Ġprove edores
Ġdestin ado
Ġm onestir
Ġestr Ã©s
les s
Ġplan ificaciÃ³n
Ġreal itzada
ĠH an
ĠGran ollers
Ġplan ificaciÃ³
Ġdispos en
siv ament
Ġposi tivo
Ġfa una
Ġvin ent
ĠEs col
Ġad hes
is po
Ġobl idar
Ġdistin gu
Ã¡n eo
Ġintrodu ir
inter ess
Ġdil ig
Ġdiagnos tic
a tion
il t
Ġrelle u
Ġadre Ã§a
Ġdepor tiva
Ġcontinu ada
Ġtotal itat
P al
ific at
Ġ5 8
Ġsenz illa
enci at
Ġal f
util itza
M y
Ġofici nes
ĠT emp
Ġmerc antil
Ġaero puerto
te ga
er ves
ĠAg ust
O ficina
Ġtard or
Ġexpl ÃŃci
Ġcorrec to
IF IC
ios os
... )
Ġcircu ito
a fec
si qui
Ġ9 3
Ġblog s
en de
is ible
Ġprojec ciÃ³
Ġre tur
Ġhab itaciÃ³n
Ġta p
Ġdestin ados
AL L
Ġbac teri
ĠGu adal
Ġs oc
Ġcone guts
Ġpos ses
Ġdeix en
Ġa Ã¯ll
Ġlas t
Ġteat ral
ĠÃ©s tas
ĠsÃŃn drome
Ġex ca
Ġcat Ãłleg
Ġcardi ovas
Ġran go
av ent
ist ar
grÃł fic
Ġpar rÃ²
Ġexist ente
ĠP ubl
Ãį A
Ãºm ero
Ġcan als
le ts
Ġpos teriores
Ġro l
ex t
ces o
Ġban co
w ell
Ġesc uch
ĠPro yecto
ament os
CI A
ÃŃn as
Ġin tes
ĠV iv
E A
ĠÃ²r gans
Ġvin os
Ġsecund Ãłria
Ġbaj as
ual quier
Ġges tor
Ġan other
Ġe va
Ġanomen ada
ĠÃŃn tegra
Ġrestaur antes
oc l
ĠD ep
explo taciÃ³
i ona
Ġmonta Ã±a
Ġprom ot
Ġr ica
n am
ob a
Ġmis siÃ³
T ÃŃtol
ĠR Ã©gimen
B o
Ġbos cos
Ġestruc tures
Ġimag inar
ĠS ants
Ġn eix
Ġcar e
on ats
Ġdificul tad
ĠV idal
Ġlle gan
Ġdetermin at
Ġedi cions
ĠCOM UN
Ġpersonal itat
Ã¯ nes
ĠP ot
ĠL L
Ġinvestiga ciones
S olo
Ġpar Ã¡metros
Ġchar acter
Ġdirec tiva
Ġre pos
Ġoblig ado
ric h
ĠSoci ales
Ġcor rer
Ġconsider an
Ġes pl
ĠA ren
Ã²n im
Ġvo taciÃ³
Ġsab es
Ġadequ ada
Ġlec tors
Ġ19 50
Ġb er
tan s
Ġcompany ies
I f
Ġinter rup
Ġaut onomÃŃa
Ġcircu it
Ã¨ x
Ġ| -
P D
Ġto o
Ġantigu os
en tat
Ġtal la
Ġtra g
Ġof ten
Ġdeclara ciones
M un
Ġejemp los
ĠOc cidental
Ġmanifes tacions
N A
Ġescen ari
em i
Ġafec tada
ĠC F
Ġfr ÃŃo
iv ell
EL L
tan cial
Ġpl ats
ID O
Ġaprovech ar
Ġanun ciÃ³
Ġescoll ir
Ġde ath
Ġde ba
mar as
Ġdes esper
Ġbo ok
Ġmane jo
Ġun anim
Ġexpres sa
Ġavan tatges
Ġbaix es
rer es
ĠL E
Ġrepres siÃ³
Ġmo ciÃ³
d ament
Ġas istir
ĠSoci als
t us
Ġenfr enta
ĠUN A
Ġa ven
Ġindustri als
ĠVall adolid
ĠProtec ciÃ³n
Ġn ul
Ġexces o
cip e
ĠÃģ frica
Ġcent rar
Ġesper anza
Ġqui era
ĠCar re
Ġopera cions
Ġins ec
ik i
Ġcompa tible
Ġsal arial
Ġlle tres
ag rup
m Ã©s
Ġsign ar
que te
Ġre mo
ordin ador
Ġgaranti za
Ġbr ind
Ġfemen ÃŃ
Ġposi cions
ĠTra tado
ĠPro ced
Ġmedio ambiental
Ġprodu jo
tud ia
ĠL iter
Ġpres ta
D entro
den es
Ġam en
Im porte
Ġcastell ano
Ġdistric te
Ġital iana
Â Ĵ
Ġrec tor
ĠFer ro
Ġdigital s
Ġcircul aciÃ³
199 5
Ġdeix em
Ġcaigu da
iv era
Ġconsul tas
Ġactual izaciÃ³n
Ġterap Ã©u
ill es
Ġreclam ante
Ġp us
ĠColomb ia
Ġexpress ament
ura ciÃ³n
UL T
Ġb es
ĠEs qu
Ġcoleg io
Ġcre en
esqu erres
do c
end es
Ġtan tos
Ġp ir
Ġfes tiv
Ġllam ar
es tudis
establ iment
Ġinfraes tructures
Ġrevolu ciÃ³
Ġexter na
Ġver gon
ĠR oger
Ġfabric ante
m us
pl ante
Ġalterna tivas
ĠBan c
ĠCent er
Ġopera tivo
A par
es tern
Ġpr ÃŃn
D o
ĠCons erv
par o
Ġtemp le
or ado
Ġrealitz arÃł
Ãłn ics
Ġespecial izada
Ġdif ferent
Ġdelic te
Ġlim i
Ġes cl
Ġrem iti
Ġregul adora
Ġextre mo
Ġven en
se qu
Ġas imismo
ian za
ĠUn idad
ĠF oto
Ġcer e
ĠBil bao
Ġcuid ar
ĠN ot
oc ats
Ġtesti moni
Ġs pe
Ġresp uestas
Ġhac emos
av in
Ã² lic
Ġdeb es
m ita
ig ar
N uestro
ual sevol
Ġpudi eran
ĠLe ague
Ġesc as
Ġconsigu iÃ³
Ġexpres sar
eas ed
Ġpla zos
Ġcor ta
ĠX IV
v ocat
Ġsu plement
ĠantigÃ¼ edad
Ġdisposi tius
Ġag reg
Ġens ayos
l umin
Ġllam adas
Ġsumin istro
Ġmanifies to
V an
Ġap pro
ÃŃs ima
Ã³s itos
Ġsing le
Ġh ero
Ġplay as
Ġinc endi
Ġmencion ado
Ġdisposi tiu
ĠSa int
Ġl ight
Ġind ign
Ġes port
ĠC AP
Ġmedi ados
n ado
Ġles iÃ³n
Ġdot ze
Ġinter no
Ġcadasc Ãº
ĠTh ere
pi raciÃ³
ĠThe y
Ġutil idad
Ġinmedia ta
Ġmus eo
emÃł tic
Ġsap s
Ġan teriorment
tific ar
ÃŃ genes
Ġarquitec t
ĠB ill
ĠC C
Ġv io
ies e
Ġg ame
Ġpred omin
Ã± ar
ĠiP hone
as segur
T Ã©
Es paÃ±a
orn o
Ġser es
im ag
ĠAnd roid
Ġa ves
ĠO p
Ġconsci ent
Ġver des
Ġverdad ero
ĠR i
Ġv enci
c ast
ĠON G
Ġcampi onat
ĠestÃł s
C rec
ces a
em e
ti po
ĠEmp leo
ec s
igh ts
Ġen riqu
u ente
ĠIndust ria
Descrip ciÃ³
Ġnaveg aciÃ³
Ġintens idad
Ġesc uelas
ho w
ox id
Ġcol ocar
Ġcated ral
Ġprofund idad
Ġcorrec te
ces s
ĠC S
Ġindustri ales
ĠHo use
Ġri que
ian Ã§a
Ġred acciÃ³
ĠmÃ¨to des
Ġconsolid ar
an glÃ¨s
ĠAques ts
Ġgar antÃŃas
tor ias
s u
Ġpol s
B ol
Ġfam a
ĠMor eno
O p
I EN
Ġprob ar
Ġoblig acions
Ġperm isos
Ã²n ies
Ġfacil itat
Ġmin uto
Ġvent il
Ġorigin ales
Ġhist or
ĠJo ve
al ment
es tes
Ġrom an
Ġnegoci s
Ġh ues
ri ga
Ġc Ãł
Ġacer car
Ġdes ig
ĠGre en
á ĥ
Ġregul aciÃ³
Ġsosten ibilitat
ag ra
Ġinici at
Ġagr icultura
Ġposi ciones
-------------------------------- --------------------------------
Ġpens amiento
b oles
Ġan uals
ĠÃŃn dice
Ġreg ions
ĠR ural
ro t
ĠÃ ļ
ĠE F
Ġconsent iment
Ġcon lle
Ġh ot
Ġpublic Ã³
Ġmagn itud
Al tres
Ġren di
ĠVic ent
pe ta
ĠTer res
ĠP ad
im por
Ġcomplement o
Ġco pa
Ġall uny
Hos pitalet
Ġdoc ente
Ġfich ero
Muc has
Ġm g
Ġ5 9
Ġdimen siones
Ġimpres iÃ³n
Ġnuev amente
ĠelectrÃ³n icos
Ġpas ada
T res
Ġul tra
Ġrecomenda ciones
Ġsuje to
Ġrel at
P e
Ġperm itan
rem i
Ġpropi etats
Ġm obili
m el
Ġl ux
incre ment
fic Ãłcia
ut bol
Ġcoopera tiva
Ã©r coles
Ġp eg
Ġcapaci tats
Ġemp la
ver siÃ³
ĠPro pi
Ġincid encia
Ġi c
Ġdefini tivament
Pued es
ĠbÃ¡s ico
Ġcob erta
Ġimplan taciÃ³
Ġadop ciÃ³n
Ġedi fica
Ġten siÃ³n
ĠR ock
Ġrecep ciÃ³
Ġsent im
Ġdestac ado
Ġsupos ar
Ġtransm issiÃ³
Ġaten dre
Q UE
Ġboti gues
Ġmot ores
ĠIr landa
Ġinten sitat
Ġfollow ing
Ġpro pone
ĠDes de
Ġtr iste
Ġsecret ario
Â ³
Ġc he
ĠN Ãºria
it Ãł
Ġcenten ars
Ġm ons
Ġdescar gar
T re
Ġpat ri
Es tem
Ġap as
Ġgras a
Ġrelacion ado
Ġtarje tas
P o
Ġcrim inal
Espa i
ĠB ut
hor ari
ĠD rets
Ã¡ndol e
Ġh old
Ġrepro ducciÃ³
Ġg la
ĠR ic
Ġcor d
Ġfr us
Ġconsent imiento
Ġdenomin ado
Ġdo bl
Ġal m
ĠOri ental
Ġcomercial izaciÃ³n
ĠUn ides
ed e
ĠEstudi os
Ġpos tura
Ġinfraes tructuras
Ġpu ente
and ra
Ġtrasl ado
ĠSal amanca
ÃįT ULO
Ġrecol z
Ġesper em
Ġal er
Ġpres encial
Ġcul tivo
Ġmejor as
Ġpes e
ton ces
ĠM ario
Ġban ca
Ġat Ã¨s
Ġquiz Ã¡s
Ġcar gos
Ġqu arts
Ġp and
ĠEsta tal
Ġbi od
af eg
A rag
Ġcar g
Ġprop ici
ent endre
Ġimpl ement
Ġton el
Ġcon den
Ġemple ado
Ġve inte
Ġa go
ÃŃmp t
r adas
Ġconci li
Ġmodifica cions
as h
ex ped
ĠO ne
Ġpo ema
min as
Ġcomplic at
Th is
Ġtan ca
Ġll istes
UR A
ÃŃ tima
Ã¨m ica
Ġs chool
Ġvess ant
C i
Ġmus cular
ad equ
ĠF ol
Ġcoment ario
Ġla v
Ġindisp ensable
Ġen ga
Ġar bres
ĠD am
Ġafeg eix
Ġnove tat
Ã§ ades
Con tra
Ġefica Ã§
Ġfam oso
ĠAs ia
ĠZap atero
imp uls
Ġti ro
Ġimp ul
ĠConf eder
ges t
Ġcomprom et
Ġmatrim oni
j eron
ĠA qu
i qui
ri ment
Ġdispon ibilidad
quet ing
oci al
Ġubic aciÃ³n
Ġresp e
a eroport
f am
id ament
ti p
N eces
tan der
Ġcer tamen
Urg ell
h ada
ll er
ĠHo wever
ĠR esta
Ġtransm etre
om ena
Ġprofes siÃ³
ÃŃ qu
Ġpas aj
Ġed ats
v io
Ã³n imo
Ġwith in
Ġata car
Ġhor aris
erc era
Ġan cho
erg io
Ġfisc als
Ġen ve
Ġinm ue
on ÃŃa
Ġinform at
Ġmall or
Ġfitx er
Ġrepro ducciÃ³n
Ġno ia
Ġescoll it
Ġreg ion
Ġprov ar
Al em
Ġvigil ancia
Ġpromo cionar
Ġdes gra
Ġsorpr end
ĠClÃŃn ica
posi cions
ĠMerc at
ĠSo vi
ĠMar es
Ġdefec to
hist Ã²ria
ĠEn ferm
Ġv ienen
ĠaÃ±ad ido
Ġest Ãłnd
D I
w ing
rea k
Ġg oles
Ġ7 00
ec ciÃ³n
Ġsal ario
Ġvisi tant
Ġlar ge
Ġin tra
Ġdepor tivo
Ġconven ient
Ġasc end
Ġinter v
ĠD atos
ĠP om
ĠfÃł brica
oc upar
Ġde di
Ġre ta
r ug
ca tal
S im
iv en
Ġdi go
Ġdiab etes
Ġestabl erts
ĠEngl ish
Ġjug ada
ĠfÃłcil ment
Ġsuper at
Ġal ej
Ġar rend
Ġvend es
ĠAutÃ³n omas
Ġcon tigo
m arc
ĠPer quÃ¨
Ġes ter
Ġd otar
Ġdel an
ass os
ĠAn g
Esqu adra
Ġpos em
Ġfi ja
Ġll it
Ġnegoci aciÃ³
Ġw a
Ġin evi
Ġprim aria
. ).
bl ig
RE T
ac oll
ĠB Ã©
Ġro ca
Ġre acciÃ³
ĠIn terior
Ġestr any
Ġargu ments
Ġpriv ats
Ġrecin te
Ġajud es
Ġja zz
tim e
ĠG in
ĠThom as
Ġenerg Ã¨tica
Ġv or
Ġapos tar
en z
on Ã©s
> <
tro du
Ġsos pec
ĠL im
Ġempres arios
Ġsubven cion
ĠPe ter
Ġcorreg ir
Ġac Ãºs
Ġ1 000
Ġc ha
Ġsuf rido
Ġke ep
ĠAug ust
ĠG all
ĠSol er
Cons ulta
Ġtari fa
Ġinc ur
Ġrec Ã³rrer
Ġperiod istes
Ġdescrip ciÃ³n
Ġenfr ont
Ġcampe Ã³n
Ġpreci pi
F er
Ġconse jo
Ġn as
ĠP all
ten ir
Ġj oventut
ĠdÃ©c adas
Ġdesper tar
an isme
Ġs ÃŃmpt
Ġlleug er
Ġreconoc e
Ġdi buj
Ġam iga
Qu in
i tis
Ġw anna
agrad aria
ci oso
ER T
Ġal tes
Ġcorrespon den
Ġhig iene
Ġcl os
199 7
Ġsimpl es
Ġcont ing
ad ec
Ġconfer Ã¨ncies
gr ado
ĠO pera
ĠJ oventut
Ġrenunci ar
ĠFacul tad
Ġban cs
ĠmÃ¨ dic
ĠPol icÃŃa
ĠC aja
ĠEspaÃ± ol
s h
Ġ6 6
ĠC han
Ġperfec te
Ġintegr ado
Ġac erc
S empre
Ġcontro les
Ġsim ul
Ġto ok
ĠPro jecte
ĠcÃłl cul
Ġdepen diendo
ĠRich ard
Ġcompar aciÃ³n
Ã ¢
ĠFeder al
Ġlle tra
Ġ196 8
al imentaciÃ³
Ġmilitar es
ĠEs t
ĠJoaqu im
ĠJim Ã©nez
Ġvia jar
Ġpubl icaciones
Ġt ribu
Catal unya
Ġconc eb
Ġinclu de
ris a
Ġc ay
Ġth ink
D en
to ck
Ġanun cio
al em
Ġass ociaciÃ³
graf ia
inter canvi
ĠbÃłs ica
ĠCas tro
Ġ Ð
Ġcompar ar
Jos ep
aut onomia
Ġmercanc ÃŃas
Mol tes
m ed
U ES
Ġreduc e
Ġextran jeros
ĠÃł rab
ĠCas tillo
L IC
Ġcapaci dades
Ġm Ãłr
gu ay
Ġmagn ÃŃfic
Ġverm ell
Ġart ÃŃstic
Ġtra ma
Ġinc or
R ev
Ġimp acte
Ġn Âº
Ġcristi ana
Ġpermiti do
E E
Ġri v
Ġprom ov
Ġl idera
ien ta
Ġins tant
Ġdepor tivas
Ġsign atura
Ġed itor
Ġde grad
C H
Ġincumpl imiento
Ġcontinu en
posi ciones
util itzar
de a
estable ix
Ġevalu ar
ĠS elva
al caldes
Ġ6 8
Ġ9 1
Ġfrecu entes
Ġconm igo
Ġautom Ãłtic
Ġl ed
ĠmÃ²bil s
Ġinde fin
es to
lig Ã¨ncia
Ġco tidi
ĠAl icante
ar tic
Ġconvers a
clus o
arc ament
Ġun iÃ³n
Ġg ig
ĠSeÃ± or
Ġavan ces
Ãłr rec
Ġautom Ã¡ticamente
Ġpresupues taria
th ers
ta mo
ĠRip oll
Ã±o z
ĠcrÃŃ tic
Ġcam peonato
Ġdi aria
Ġdistin ta
a ula
Ġpos se
Ġpens ant
Ġquin ce
Ġ197 3
def els
Ġexac tament
ĠclÃłss ic
ĠI SO
e Ã±os
ĠA B
tar an
ĠCated ral
C er
Ġorien taciÃ³n
ĠCol lege
Ġtreball adores
Ġconsum ir
Ġ197 4
Ġconfir ma
ĠM esa
Ġrev istas
Ġapreci ar
ĠK en
ĠFab ra
r um
Ġmun tanyes
Ġca er
Ġra za
Ġexig e
Ġc Ã²pia
Ġgus tos
' '
ur b
Ġcertific aciÃ³n
Ġdisminu ciÃ³n
Ġex is
Ġhor ari
Ġconsci ents
Ġobten idos
Ġdec ora
Ġviv en
Ġ9 00
Ġhan d
Ġtransi ciÃ³
O G
Ġimpos ar
ĠVas co
Ġespecta cles
Ġdef ender
Ġafec tado
apro f
Ġdenomin aciÃ³n
Nos altres
ĠProfes ional
Ġtemper atures
ren ch
ens or
al ada
in aciÃ³
Ġtur istas
ĠMin istro
l Ãłn
Ġsan itari
ĠelÃ¨c trica
Ġo ur
is la
Ġsent iment
Ġcorrup ciÃ³
Ġcuidad os
ĠJ ard
Ġdetermin ades
Ġde pos
m y
CI AL
Ġinter p
Ġj uz
Ġesdeven ir
Ġac ero
Ġin ac
ill s
Ġconstituy en
amb la
ĠLond on
ĠA UT
ĠavanÃ§ at
Ġp istes
Ġreb uig
S a
Ġf ÃŃ
ida e
Ġimp uesto
an ista
Ġcomp ras
ĠV end
ĠU AB
Ġsucces s
m l
ĠT rob
Ġampli aciÃ³n
Ġconcurs os
Ġequip aments
Ġpodr ÃŃem
ĠPres up
~ ~
Ġc ÃŃv
Ġmar ÃŃtim
ĠvÃŃc timas
Ġespec ÃŃfiques
Ġin iciÃ³
P ot
Es pecial
Ġinmedi ato
til s
ĠRe f
titu des
Ġxer rada
ez uela
Ġtre ts
Ġfund aciÃ³
ĠT ener
Ġtransvers al
Ġtranspar Ã¨ncia
Ġrepar tir
Ġencarg ado
Ġrepar aciÃ³n
Ġus ando
ĠH em
ap ariciÃ³
Ġ9 2
es tratÃ¨gia
Ġmos tres
Ġcas tillo
acom pany
Ġconci ertos
Ġinclu ida
IN A
ĠG reg
inte gra
ĠL og
ĠFon do
Ġpas an
cer t
Ġcal ef
ĠE ug
Ġexp uesto
o tas
ise Ã±o
Ġbal ance
Ã§ Ã²
PA Ãĳ
Ã© p
Ġsal as
Ġof icio
Ġleg ÃŃtim
Im port
ĠpÃ©rd idas
Jos Ã©
Ġdeci de
Ã³l ico
Ġinj us
Ġpres tigi
Ġdeb idamente
Ã² riques
ĠSeny or
Ġil les
ĠAl c
ula cions
Ġtelev is
Ġincon ven
Ġl istas
Ġsilenci o
cion ista
, "
Ġm oure
And orra
Ġmet ges
ĠespectÃ¡ culo
Ġabsolu tament
M ed
Ġsub ter
Ġc adi
Ġfras es
di es
Ġceleb rado
Ġdenomin ada
ĠTol edo
Ġde vol
ĠMar k
Ġprote ÃŃnas
Ġa ter
ĠM ED
Ġagr icul
ĠC V
Ġterren os
Ġgenera cions
Ġnuc le
ĠF ins
Ġunivers itaris
Ġor der
Em presa
Ġres cat
Ġinclo uen
ĠDec lar
Ġge ogrÃ¡fica
Ġsub rat
Ġcandid ato
Ġcorpor a
Ġconfigur ar
Ġrecord s
Ġtur no
e k
h y
Ġasesor amiento
Ġfri end
Ġsatisf acciÃ³
Ġamb dÃ³s
Ġdign itat
Ġinform ativa
E r
Ġten siÃ³
ot eca
Ġquer ido
Ġbot Ã³n
Ġinc ome
Ġtra yectoria
ĠG ol
ĠI B
aj os
ĠC hi
Ġencontra ba
ĠseÃ±al ado
Ġpol ic
ĠlÃŃ ders
ar reu
Ġan irÃł
Ġvita mina
Ã¡ les
Ġdi eron
v ada
actu ar
ĠPres s
ĠP aris
Ġpais aje
Ġcal iente
am ple
Ã³n icas
ĠMan cha
Ġ1 10
or ios
ig an
Ġar ena
ud os
ĠRus ia
iv amente
ac ta
S itu
Ġaccid entes
Ġla te
Ġefec tiu
Ã² tic
Ġempres aris
Ġatur ar
F und
Ġvul ner
na u
Ġrehabil itaciÃ³
ciÃ³ s
Ġl uch
Ġgus tarÃŃa
ent ista
Ġdesc enso
or de
Ġconstru Ã¯t
Ġinstal ar
Ġcr uc
Ġpriv adas
ĠbÃłs ic
arc os
get her
ado p
Ġfilosof ÃŃa
Ġacon di
te t
Ġ197 2
ĠInform aciÃ³
Ġs end
Ġlan zado
Ġfl ors
ni um
ĠC COO
Ġdisfr u
Ġfinanci eras
rib le
ĠV ella
inter pre
Ġordin ador
Ġv era
Ġtorn eig
c ter
Ġutiliz ada
Ġassoci ats
z ena
Ġanunci os
ac titud
T T
Ġopini ones
na cio
ÃŃ cola
Ġqu erÃŃa
ĠEs to
is on
Ã¡ndol o
ĠmÃ¡ xim
ĠI l
Ġacompany ar
Ġex haus
in et
Ġompl ir
IDAD ES
ri go
Ġencap Ã§al
ĠV el
ĠOri ol
Ġpo ker
ĠespecÃŃfic s
ĠTor tosa
Ġcar tel
it Ãłriament
Ġgesti ona
Ġrev istes
at ra
ĠZ ona
ĠÃ¡ cido
Ġchild ren
Ġref res
AN A
Ġfinal itats
Ġinterm edi
tifica ciones
ĠS EC
vir us
ĠnÃºcle o
p y
Ġdestin aciÃ³
ar quitectura
Ġforma cions
Ġdoctr ina
Ġnasc ut
ip o
ĠRos s
ĠE M
Ġigual ment
Ġm ari
ĠCo opera
og en
Ġhum il
ĠDesp uÃ©s
Ġsm all
Ġdetermin aciÃ³n
Ġrela tivos
Ġconstru ido
b ack
ĠCON T
iss abte
tu be
Ġcaf Ã©
Ġb od
Ġtas as
Ġvig encia
Ġparticip ado
Ġocup aciÃ³n
B iografÃŃa
rÃł tic
Ġpot Ã¨ncia
Ġam is
Ġbar b
ĠGeneral idad
j ug
Ġo posiciÃ³
ĠDi ari
Ġestable cida
ĠRE AL
Ġinform acions
Ġjug a
Ġcla ves
r ente
Ġ18 0
Ġcampa Ã±as
Ġdisp uta
ĠAutÃ²n oma
ĠA h
Ġsal uda
Ġcub ierta
Ġcap davant
clus iÃ³
Ġexposi cions
si an
Ġval e
Ġofer tes
ĠH ay
Ġan uncia
r s
Ġproteg ida
ĠW o
Ġsal t
Ġesta bilidad
Ġ6 3
Ġtransm itir
el le
Ġapar atos
or cio
fici o
Ġrem odel
enci ado
Ġgran d
ĠGu ardia
Ġfigur as
Ġc ut
Ġimpres sion
Ġhabita cions
Ġ193 9
Ġvaix ell
Ġmat ern
Ġcas ino
ĠR espons
don os
Ġnegoci ar
ĠRe ina
ri le
ĠCon cep
ĠC ant
Ġsec reto
Ġapun tar
tu m
Ġcre iem
Ġsal Ã³n
g amos
Ġform ats
ob serv
Ġta ul
itz arÃł
Ġpl atos
Ġrespec ta
ĠH igh
Ġsals a
Ġsembla va
e jo
Ġca ixa
le gar
Ġorgan izar
ĠRoy al
ĠCam po
Ġgl uc
an ge
tien de
ĠSecre taria
Ã¡ us
Ġcomb at
Ġcrea tivitat
Ġincl us
er ica
Ġpriv ados
Ġmenj ador
ĠÃ Ĵ
Ġdigital es
Ġconflic tos
Ġg ive
im entaciÃ³n
ĠComun icaciÃ³n
ĠP IB
ĠPro tocol
Ġra m
Ġconfigu raciÃ³
Ġcu Ã¡l
ĠT rac
Ã¨n cer
ĠÃ¡n imo
Ġwit hout
ĠF ÃŃsica
Us uari
Ġgan ador
Ġaconsegu eix
ĠE c
Ġdis per
Ġconv ic
Ġc il
Ġinfec ciÃ³n
ĠcomenÃ§ arÃł
Ġtera pia
Ġqu ota
Ġfru ita
ĠB ach
Ġinterven cions
ros a
Ġse ca
ob o
Ġllev at
Ġv emos
Ġno ble
Ġidi omas
k ia
Ġenfo que
Ġtitular es
ĠSeg Ãºn
Ġeconom ia
Ġre qui
am arca
Ã© ticas
Ġm ama
S he
Ġca fe
Ġtrastor nos
Ġdes tÃŃ
ĠdemocrÃł tic
Ġhabitu ales
Ġquin ze
ĠPir ine
ĠY a
Ġmemb ers
Ġtrob o
ĠC Ã³digo
D istribu
Ġgr os
Ġinaug ur
Ġimpos tos
Ġposterior s
ta m
Ġh ost
Ġ9 8
Ġfoc us
Ġproced ents
ĠF ra
y m
Pers onal
Ġcom mon
Ġelev at
ĠEste ve
Ġdes v
Ġdid Ãłc
Ġme ves
Ġaqu i
] ]
Ġsur ten
Ġpers ecu
it x
ĠM ej
Ġdef ine
Ġrealiz arse
Ġpob laciones
Ġal ine
Ġsatisfac ciÃ³n
Ġital iano
us u
ĠS elec
Ġan o
Ġcer tes
Ġconclus iÃ³n
Ġintro ducciÃ³n
Ġavan ce
Ġes enciales
Ġelector als
Ġdedic aciÃ³
Ġdesc arga
Ġacord ar
âĨ ĳ
Ġw rit
emÃł tics
y ed
ĠP ue
20 17
Ġreg istros
Ġcorrec tament
aj us
Ġbla ck
Ġinterven ir
Ġreg ener
Ġp ala
Ġcarrer as
Ġpob la
ĠMu Ã±oz
Ġar mon
id oria
ĠS OL
Ġtri at
l em
Ġha ces
Ġapar tat
ĠQu i
or f
a caba
Ġfirm ado
ri ter
ĠCan tab
Ġsi ente
se a
7 00
Ġinte gran
Ġbusc ant
Ġt ho
Ġsin c
Ġtal ent
erm o
j ado
Ġrel eased
Ġpressupost Ãłria
En guany
ĠEcon Ã²m
Ġperten ece
Ġis rael
Ġincl usiÃ³n
Ġper ros
Ġn amed
Ġno ches
Ġpa ta
ĠB ot
Ġo cio
ĠCastell defels
Ġimplic aciÃ³
Ġsit Ãºa
Ġrespec tar
Ġpl atges
ĠS ing
Ġcom arcal
ĠM arcel
cul ars
Ġjard ÃŃ
Ġo port
Ġno tar
Ġpropiet arios
Ġs af
Ġv Ãłrem
Ã¨ tiques
Muc hos
Ġcoal iciÃ³
Ġdepor tes
Ġllen o
Ġexcl u
No ta
ĠMon ta
Ġt emÃłtica
Ġ19 40
Ġinform ado
Ġte am
ĠRec tor
Ġmin i
Ġb ras
ĠP apa
Ġz ero
ĠCon t
Ã¨ ric
Ġm ud
Ġlit tle
Ġrecor rer
Ġfines tra
tin guts
Ãº b
baj o
Ġra p
ĠMerc Ã¨
20 16
Ġcontro la
ĠG erman
Ġconfer encia
ĠB and
qu al
ĠGuill em
e ciÃ³
Ġp ut
ĠhÃ¡b itos
Ġden Ãºncia
Ġind is
T I
CI ÃĵN
Ġta ble
ĠIV A
Ġbra zos
min istrar
Ġd uel
Ġtemp lo
Ġrequier en
H emos
Ġfron tal
ul f
Ġestar an
Esta mos
Ġref rig
Ġmarav ill
Ġenc om
si ves
Ġj uega
Ġresponsabil itats
Ġpar ets
Ġcin ta
Ġcer rar
Ġtrabaj an
Ġsent iments
os ex
Ġo jo
ĠW ord
TR A
Ġa umen
on ga
Ġneu tral
Ġmaes tro
ĠâĢ ¦
Ġflo ta
Ġcal ificaciÃ³n
ĠT op
ĠE ra
on do
ĠH ome
IN G
Ġtra mo
Ġg a
er ies
Ġt ell
ĠUnivers itario
Ġhabl ando
ma cia
ĠAf ter
ĠbÃłs icament
Ġclim Ãłtic
plic aciÃ³
Ġlli urar
T anto
ĠEx per
ĠB es
Ġcamb ra
Ġacab en
Ġtes is
Ġver y
ĠP ont
st Ãłncia
ĠES TA
ent itats
Ġconsum idors
Ġ6 1
Ġcol abora
Ġafir mat
Ġsembl ar
Ġcon te
Ġcomp tarÃł
Ġverdad era
Ġsupos at
ĠR Ãºssia
ĠV ida
ĠCon ten
Ġto gether
Ġcap tura
Ġcar tera
ĠPar te
Ġr osa
ĠCh ampions
Ġas pira
ci als
Ġfitx ers
ĠW i
ĠF UN
Ġencar reg
L leg
ĠRio ja
Ġat mos
Ġs Ãł
Ġjard ÃŃn
Ġabsor b
col as
Ġacep ta
ĠmÃł quina
Ã©m ica
qu ing
Ġball ar
Ġorigin als
Ġs tat
Ġcompon en
Ah ir
rÃ¡ tico
Ġven tana
ell os
tic e
ĠcurrÃŃcul um
Ġtrans curs
Ġlleg ando
ent res
Ġin hib
Ġprim i
Ġinvesti gar
Ġfacil idad
ĠCantab ria
Ãłr bit
Ġau dio
ĠprÃ©s tec
ĠAlej andro
Ġrenov ar
esti Ã³n
Ġreserv as
iv issa
ĠEs cola
Ġlan gu
Ġes ten
Ġfor tal
Ġmilitar s
quisi ciÃ³
Ġsab ut
ĠSof tware
Ġcre m
Ġmo ver
ĠJ efe
Ġgen ial
V ic
ĠC ur
Ġmu tu
ĠtrÃłm its
R ep
ĠM ora
ĠAmb iental
Ġe ver
Ġparticip Ã³
emerg Ã¨ncia
Ġpass arÃł
ir s
Ġhav ÃŃem
Ġpla cer
ĠDi ario
Ġs ender
Ġll ena
Ġoblig ada
Ġl ive
ĠC Ã¡mara
Ġpis o
Ġconstitu eix
P ol
Ġj e
Ġsom ni
d rÃ¡n
Ġsob ir
Ġnav e
ĠJ uz
Ġdes g
Ġmar tes
IT AT
ĠD ades
Ġconstitu ciÃ³n
Ġdesen c
Ġaux ili
or aciÃ³n
Ġi con
ĠI MP
ĠC ari
ola u
Ġcar tes
ĠR EC
ĠC A
AN TE
Ġcomb inar
i cions
arc aciÃ³
em in
Ġhid ra
Ġevent ual
Ġpar Ãłm
Ġcon grÃ©s
Ġqued arÃ¡
Ġmecan ismo
espany ol
N uestra
Ġespecial idad
! ,
Ġloc ated
em Ã¡ticas
Ġrelig iÃ³
Ġrique za
ĠC iencia
Ġ ull
ĠTÃ©cn ico
ĠB ien
Ġpres ump
ass o
Ġdin Ãłm
ĠVI H
F i
Ġdistin to
i ciones
ĠPod em
t ella
ĠMÃ¨ xic
ĠT ab
Ġaqu ello
ĠWh ite
Ġf aria
Ġflex ible
ĠfenÃ³m eno
lu Ã¨ncia
ĠcompaÃ± ero
Ġlogr ado
Ġperteneci ente
Ġdiv ul
Ġcar ro
te gr
Ġgr uix
Ġem magatzem
ci ence
Ġpar ecen
Ġtractament s
Ġconvir ti
Ġvol v
ĠSan tander
Ġmedi ana
ĠMarc o
Ġc ien
S L
Ġsho uld
Ã©n d
to ber
J ust
Ġna u
Ġac ÃŃ
Ġpreserv ar
un ivers
Ġve in
Ġfabric aciÃ³
Ġcereb ral
An te
s obre
ri eron
ĠÃģlvar ez
ĠTrib ut
EX O
ig as
Ġpres tacions
Ġ 000
ĠCo un
Ġfas cin
U AL
Ġb arco
ĠEs per
Ġrec rea
Ġsobre viv
ĠacompaÃ± ado
ĠO ro
ĠMari ano
ĠGro up
en zo
Ġtan tas
Ġres umen
Ġubic aciÃ³
Ġgol f
Ġbal anÃ§
er i
Ġnomen at
op s
Ġ6 7
ĠelÃ©c trico
ĠM use
Ġpresup uestos
Ġdeber ÃŃan
si ve
or ig
Ġher mos
Ġllev arÃ¡
Ġpa tit
r int
pl iment
ĠIn tel
Ġn atal
Ġd arse
ĠÃ¡r boles
ĠgrÃł cia
ĠP unt
M C
Ġanti gues
Ġpresent arÃł
Ġquad re
Ġferro carril
Ġdiagn Ã²stic
l Ã¨ncia
Ġgratu ito
Con cep
Ġdif ondre
Ġa in
D ec
k h
Ġprofundi tat
V isto
Ġar ren
Ġre Ãºn
Ġv it
Ġevid ente
Ġassum ir
om ar
Ġval ent
Ġfru to
man n
Ġcom iss
Ġne um
Ġv ota
ER I
Ġs ide
Jo an
t ember
Ġ196 9
Ġmarc ada
Ġarx ius
enta dos
vo z
Ġescri ts
ĠC AM
Ġ â
ĠTÃ©cn ica
Ġmov il
Ġque de
Ġgal ard
ĠG av
Ġd Ã²
esdeven iment
Ġcl ass
Ġprepar ado
Ġavi Ã³n
per i
ĠBr us
Ġgra us
Ġrecomend able
Ġimmedia tament
ÃŃg ens
ĠRo vira
Ã³ x
Ġform er
ĠS ergio
Ġabsol ut
algun es
Rec ord
Ġl ent
ri tos
Ġsol en
Ġsos tre
Ġdetall ada
Ġcandid atos
E v
J uan
Ġrehabil itaciÃ³n
Ġreligios os
Ġrec upera
Y A
ĠtrÃ¡m ite
ĠQ uer
Ġpar o
Ġhist Ã²rics
uer ta
Ġrecog er
Ġqual ificaciÃ³
Ġimmedia ta
Ġm Ãłster
Ġliquid aciÃ³n
Â ©
D ins
Ġimm igrants
Ġelabor ado
alcaldes sa
Ã¡ z
Ġtur istes
ug n
esp Ã¨
ĠdÃ¨ ficit
Ġprior itat
Ã³ graf
Ġnegoci aciÃ³n
ĠcrÃŃ tiques
Ġmig ra
Ġob erts
un e
ĠAques tes
ĠmÃ³d ulo
Ġmul tina
Ġescrip tor
Ġsan itat
Ã± Ã³n
ĠV III
r us
Ġlu jo
ĠPa z
Ġcatal og
ĠT it
Ġv ides
Ġpecul iar
ĠMares me
Ġmet Ã¡l
escrip tor
ĠC las
Ġprofess ora
Ġexperiment ar
Ġpap a
Ġmol ec
ĠEurope an
Ġha gan
Ġdirig ents
ag ric
ĠPatrim onio
ĠPla y
ĠS ue
Ġgaran ties
Ġexper imen
ĠAv ui
ĠÂ »
Ġb est
Ġpla er
ĠhistÃ³r ica
Ġtend encias
ĠUn itat
Ġcontamin aciÃ³
________ ________
aj ut
Ġcaf Ã¨
Ġam an
Ġflu jo
AD AS
M as
Ġinicial ment
Ġmi Ã©rcoles
esti m
Ġsin cer
Ġcre di
Ġag encia
Ġtrac te
Ġdisseny at
ĠÃ į
equilib ri
Ġ19 30
ĠpodrÃł s
Ġsob iran
y ou
Ġcons ign
tu ari
Ġimm ig
des a
ĠmÃ³d ulos
Ġfues e
Ġpat eix
ĠelectrÃ²n ics
ĠF Ã²rum
ĠclÃ¡s ico
Ġincor rec
Th at
Ġfuncion aris
Ġvol ar
ĠA G
ul aritat
arg as
................ ................
Ġpar ed
Ġa ma
Es pero
Ġimpar tir
Ġfundamental mente
ĠS obre
istr ic
ĠCom promÃŃs
ĠU l
Ġcon tienen
Ġco orden
E Z
ĠT aller
Ġs amar
ĠS um
ur adament
Ġmel od
Ġg onna
Ġhaber se
orden aciÃ³
Ġsan ciones
em o
Ar rib
Mol t
Ġempres ario
ĠF rench
Ġtum or
ĠP ons
ĠR iera
in io
ĠK e
ver tir
Ġgeg ants
ĠRo ig
Ġen reg
eci endo
Ġr utes
Ġser ien
ĠAss ociaciÃ³
Ġar mes
Ġhist orias
-- -
Ġdispon ibilitat
Ġnaci do
Ġd ato
Ġla t
Ġcer ts
oc ol
ĠEdu ardo
h el
Ġhomen aje
Ġexplic Ã³
ac cions
Ġso vi
Ġsec ciones
Ã¡m etro
Ã² b
Ġredu cido
Ġfranqu ista
Ġper if
ĠPÃºbl ico
Ġesta ciones
Ġadecu ados
si bles
Ġfe ines
Ġal erta
Ġtro pas
Ġpreci siÃ³n
Ġd ri
gu dament
Ġsignific at
ĠAten ciÃ³n
ĠImp uesto
Ġdivers idad
ĠMan el
Ġata ques
Ġra ÃŃz
Ġrefer ents
nov aciÃ³
Par tida
Ġta xes
Ġexpan siÃ³n
Ġvege tal
U ER
Ġagra ir
ĠCap ital
Ġautom Ã³vil
r ador
Ġning uno
Ġhier ro
Ġed itar
Ġ197 1
Ġcer em
Ġha ci
Ġha urem
Ġmedi ambiental
Ġcalcul a
ÃŃ fer
Ġjus ta
Ġcoun try
Arag Ã³
ĠPerman ente
Ġcombin aciÃ³
Ġef fec
Ġdeclar ado
Ġesta cions
Ġinm obili
ĠL oc
Ġn ena
u ary
ĠÃ³r denes
Ġemerg encia
Ġfor o
Ġafavor ir
Ġcan via
Ġprev istes
ater ial
Ġm ou
ĠC and
Ġtej idos
Ġmusic ales
Ġcal ma
Ġlabor atori
Ãį n
ĠFor t
ĠO B
ĠGu ardi
Ġcertific ados
ĠB io
ĠEspany ol
Ġcerc ano
b ara
Ġhuman itat
Ġimp u
Ġinn eces
icar do
ĠL is
Ġgir l
Ġs ard
Ġter mina
ĠM iss
Ã² tica
og Ã©n
Ġcu otas
Ġcorrespon da
Ġelimin aciÃ³n
ĠPl at
Ġrad ic
Ġapoy ar
A ut
Ġtor res
Ġdeclar at
Ġapr end
Ġrefor Ã§ar
Ġqu antes
cul es
ica go
Ġsup rim
Ġsan itaris
an unci
Ġac ull
ĠMar tor
Ġunivers itÃłria
Ġexist ent
Ġse qÃ¼
t Ã²ries
Ġan ul
M en
Ġconclus iones
Ġemo cion
Ġtroba va
Ġmonta je
Ġcul p
Ġqued arÃł
ĠMas ter
ĠSocial ista
id ez
Ġconsell era
Ġl itoral
ig ma
ĠP ag
ĠEsqu erra
Ġsup port
ĠPar ticip
F C
Ġsan gu
Ġbla u
Ġcu yas
ĠfÃ¡ brica
Ġeix os
e ve
aqu ella
am ora
Ġcar net
Ġav all
it in
Ġbarre ja
Ġb esti
ol ar
Ġac tores
ĠelÃ¨c tric
gr up
D els
Ġinaugu raciÃ³
ĠS ac
Ġcul tures
Ã £
Ġrefer Ã¨ncies
Ġgr ados
Ġmodal idades
Vol em
Ġb omba
Ġen ques
Ġimm obili
n el
autor itzaciÃ³
Ġredu Ã¯t
ass ol
Ġ ),
ĠmÃł quines
ĠVen ezuela
ĠJun e
Ġve o
Ġbrill ant
Ġrepresen tan
Ġlegal mente
Ġsufici entes
ĠPrem is
ag ement
ar ed
ee k
Ġconse jero
TM L
americ Ãł
Ġno i
Ġplataform es
Ġ ).
Ġdeb il
Ġen mig
Ġinicial mente
Ġdeman en
m ic
Ġexten sa
Ġregistr ado
Ġl iga
Ġapr ueba
Ġatac s
Ġben ef
Ġdestru ir
ĠD ay
ĠL ev
Ġpens ando
Or den
Ġtro pes
Ġes tudia
uc ar
Ġbi bliot
Ġex tern
Ġdom Ã©s
Ġpas eo
Ġrelacion at
Ġpat eixen
Ġrecomana cions
ĠT rin
r als
Ġpar et
ĠR eb
Ġpro grÃ©s
Ġ196 7
Ì Ģ
Ġcap ella
ob rir
Ġdespla z
Ġpon en
s ers
Ġases in
ĠSep tember
ĠfÃ¡rmac os
Ġsepar a
Ġcomunic ado
Ġ9 6
Ġempresari ales
Ġproced er
Ġinfantil s
Ġpr ud
Ġen vers
Ġam ag
p al
M at
Ġun its
Ġasseny ala
ĠCar ta
Ġbru tal
ad ministra
ue ve
r ump
Ġass ump
Ġfor ts
Ġtras pas
Ġsu ave
ĠX I
Prim ero
Ġviat jar
Ob serv
Ġpar edes
l ado
ĠcÃłm era
fon os
Ġpu ja
Ġlo gra
Ġreac ciÃ³n
Ġfinan cera
Ġvuel os
l itat
Ġh ÃŃ
ĠM uj
Ġor ient
ĠX avi
ĠBar ber
ĠCor ea
Ġcuer pos
ĠH erm
un tu
Ġtram itaciÃ³
un ts
oc e
Ġva g
Ġcol a
Ġindic an
Ġdec ÃŃa
Ġinnov ador
Ġneg res
Ġcre uen
Ġdescrip ciÃ³
R ed
Ġcorrespon d
Ġc Ã³rrer
Ġall ot
J O
Ġprovin cias
Ġbar ran
Ġp ide
Ġdes tina
ĠPrincip at
i eu
Ġver se
Ġtari fas
Ġful les
Ġapar tament
ĠAn exo
cion ari
ĠTener ife
Ġtonel adas
Ġen de
Ã¼ r
Å į
Ġactri z
exped ient
Ġag l
ĠN aciones
Ġrefer encias
ĠGl obal
De f
Ġcompren siÃ³
Ġcog n
d ores
ampli aciÃ³
ÃŃn ea
Ġsu por
Ġtransfer Ã¨ncia
ĠN acions
Ġcompr endre
Ġbu it
ĠJap Ã³
Ġsi ze
Ġfru tas
Ġhousehold s
Ġgu ion
ĠperiÃ³ dico
Ġconclus ions
l im
Ġve ient
ros sa
ro te
ĠF ire
Ġsu eÃ±os
Ġcal cular
Ġe je
ch er
ĠCÃ¡ diz
Ġprodu eixen
Ġinf ancia
j am
E I
Ġdi entes
Ġfol k
Ġfrances es
Ġdesp ed
Ġpropiet ario
Ġa ules
Ġsolici tante
ĠBur gos
ĠAs ÃŃ
Ġbas ed
u ci
Ġvos otros
Ġresid entes
im il
car ia
Ġlec tores
Ġtren c
p ista
Ġtrac tat
Ġt os
Ġpend ents
ĠS ara
CI Ãĵ
Ġrecep tor
Ġes men
AN C
ie ta
ĠV ent
Ġar rel
Ġtur ÃŃstico
estudi ant
Ġsuced e
Ġseg ell
Ġcat Ã¡logo
ĠfÃŃ siques
ra miento
Ġdul ce
igr antes
G eneral
Ġres erves
L L
Ġparticip ant
Ġindepend ents
ĠCol oma
u fac
Ġcub ier
Ġescrib iÃ³
Ġdeb ÃŃa
Ġdistribu ir
ID OS
Ġpreocup a
tan as
ĠRe yes
ĠÃºtil es
Ġde voluciÃ³n
io us
Ġpes se
Ġal b
Ġderiv ada
Ġdefini tivamente
Ġs op
s hip
re ix
Ġv idas
ĠB y
Ġambiental s
ĠBlan co
ĠEj Ã©rcito
Ġintro ducciÃ³
Ġfi re
Ġab or
ĠfreqÃ¼ Ã¨ncia
on de
Ġtom ando
ĠP ost
Ġfam osos
Ġci Ã¨ncies
AD OR
D ia
Ġrelev antes
âĤ¬ .
Ġoper ador
in fec
Ġel ig
bo x
Ġreserv ar
Ġmanten en
Ġdesp at
Ġsor tides
Ġin du
if iquen
Ġinspec ciÃ³n
Ġoper adores
ĠB omb
ĠJu venil
ĠOc tober
Ġcre ador
A udi
Ġcal enta
Ġar ma
Ġpl ato
Ġemo cions
T j
S embla
ch ed
Ġindivid uos
Ġconsigu iente
P O
Ð ¸
A tenciÃ³
ÃĢ frica
ĠL ab
ĠAp ril
Ens enyament
ĠSec ciÃ³n
Ġb ody
Ġf ans
Ġacred itar
f os
Ġfin d
Ġcre Ã³
Ġval le
Ġnaveg ar
ud itori
ĠPD F
Ġ @
d le
ah ir
ĠJan uary
Ġexperim ental
ĠL en
c ers
Ġrenov aciÃ³n
ĠCam ps
ĠH all
ĠIn c
Ã¡s tica
Ġse v
Ġesp alda
ĠL ag
Ġbaix ada
UN T
labor adors
Ġpermet in
Ġh am
Ġen cab
amb ient
Ġmantin gut
En tonces
Ġcentr als
t ps
V en
Ġfres ca
ĠMa es
k ov
Ġdestin ats
ĠPar ty
ĠAC T
G ir
Ġs k
Ġtra to
Ġem is
ĠGre cia
ur ant
Ġvi an
Ġ194 5
ĠVic enÃ§
An y
ĠG an
Ġsome ter
ĠEm pordÃł
S or
Ġcer vell
ex plica
Ġcam e
P on
Ġmun tatge
ĠCiutad ans
Ġinte grat
Ġpo emes
Ġcens us
Ten im
Ġcons tat
ĠE R
ĠIg nacio
Ġper si
U U
Ġtind rem
Ġs top
Ġrela x
Ġmuer to
ĠK a
Pres s
Ġvin gut
Ġcomb ate
Ġagrad at
) -
Ġcorpor ativa
Ġlan z
Ġocup aciÃ³
Ġpas si
ĠI dent
Ġb ull
Ġal ts
Ġe h
ĠLin ux
ÃŃ dos
Ac tiv
Ġgeneral ment
ag all
Ġbu ilt
M us
Ġlo w
Ġtemper aturas
ĠM AT
ĠJ ord
Ġplen ament
az z
Ġnov ament
ar bit
Qu iero
Ġse ason
tri ques
Ġexper to
Ġcer ves
eix ement
Ġcontac tes
Ġc ero
Ġguany a
e ver
ĠLat ino
Ġband es
Ġin yec
di entemente
Ġestan do
ĠSec und
Ġexerci cis
Ġtitul aritat
Ġquanti tats
ĠB any
ĠnÃº vol
Ġpart y
Ġcomp uesta
ĠMay o
plic aciÃ³n
Ġreal ice
Ġdemand es
m od
heim er
la va
P P
ÃŃ x
Ġdepend encia
Ġbis be
p ut
Ġpl ens
Pro fes
ach ing
Ġpol vo
ĠparrÃ² quia
Ġdecor aciÃ³n
Ġac tius
ĠResolu ciÃ³
Ġtrip le
ĠF ons
en ques
ĠSE G
ell i
Ġmuri Ã³
ĠenseÃ± anzas
Ġcond ado
Ġpropag anda
ĠJul y
pers ones
Ġni Ã±a
Ġassenyal at
Ġadecu adas
Ġtra tado
Ġadministra tivas
Ġdom Ã¨s
arro t
Ġ7 8
Ġol v
Ġrep u
tr en
y Ãł
ĠU GT
Ġasoci ado
ĠU d
Ġol i
Ġhipot ec
Ġmer da
Ġajus te
fic ar
Ġfos sin
Ġt omb
rer ia
Ġol or
ing res
Ġar ter
S uper
Ġcambi ado
en co
Ġdemoc racia
Ġconsider aciÃ³
Ġcontra tar
b os
c ura
V EN
Ġsuc re
hag in
Ã¡n tico
ĠH D
Ġb ul
ĠMol ina
Ben efici
ĠE ar
Ġrec ta
Q uer
Ġvari ar
Ġprev isiÃ³
Ġingre di
ĠSm ith
ĠMar y
Ġveu rem
Ġno tas
Ġvicepresid ent
Ġs Ã²
Ġllu via
Ġindic at
Ġgan ad
Ġvie jo
Ġmin d
od s
ĠprÃ©s tamo
Ġajus tar
Ġent ran
Ġfi el
Ġpor tÃ¡
â ĸ
americ ano
Ġan nex
ĠL lo
Ġcas tells
Ġcarb ono
Ġprac tica
s an
Ġmarc ado
m nium
Ġafec tan
ĠG uer
ĠMa x
Ġlimita ciones
ĠVic toria
Ġfrac Ãłs
Ġdes vi
Ġsaluda bles
Ġlider atge
C S
Ġgre at
c em
ĠC he
V ICI
Ġpos tal
ted ra
Ġcre ciente
Ġdispon en
ist emes
Ġefici ente
Ġal ways
ĠSebasti Ã¡n
Ã²r gan
ĠS iti
ĠC ha
Ġfin a
rag on
Ġpresid Ã¨ncia
ĠC B
ĠI X
ĠU B
f l
Ġd uc
bo ard
Ñ ģ
Ġprom edio
f ia
Ġf esti
Ġconfigu ra
Ġenll oc
b and
Ġreb en
Ġllegar on
Ã³r ica
ĠJud icial
Ġ19 20
Ġrev ela
Ġmitj an
Ġsorg ir
Ġqued ando
Ġmagn ÃŃfica
EU U
Ġh eld
Ġdona va
ĠDipu taciÃ³n
Ġtermin Ã³
Ġquer er
Ġinfer iores
Ġpen diente
d f
Ġag ente
ĠlÃ²g ica
Ġdiver tida
c m
Ġcam inos
Ġfund aciÃ³n
Ġcontac tos
Ġen um
Ġaprofi tant
ĠAl ba
isti Ã³
Ġescri tura
ĠFes tes
Ġca za
Ġsor pres
ĠacadÃ©m ico
Ġinteress ades
Ġ7 3
og ia
D ar
di cional
ĠR ambla
Ġsensi ble
Ġregistra t
ĠA T
ĠCent ros
ĠM ex
Ġmag istr
Ġperman ecer
Ġsal iÃ³
Grup o
Ġ0 80
Esto y
T el
Ġpen siones
ur gia
Ġsepar ar
CION ES
ĠSta te
Ġa ula
e amente
Ġmascul ina
Ġbla ug
ix ar
Ġvid re
Ġsub m
Ġcaracter iza
Ġdescrib e
Ġinquie tud
Ġa ca
Ġapar ato
Ġcentr ales
Ġaddi cional
Ġespaci al
Ġpercep ciÃ³n
ĠNav idad
Algun as
ob ile
Ġcon voca
Ã¡z quez
Ġcuesti on
Ġpresupues t
Ġam ong
Ġutiliz adas
Ġliter Ãłria
ap os
ĠC up
ĠAgr icultura
Ġapor taciÃ³n
Ġestruc tural
Ġaplic arÃ¡
ĠtÃŃp ica
Ġsign os
Ġexp and
Ġresid encial
Ġcu ello
l ocar
ĠUn idas
Ġviv im
Ġalcan za
Ġserv it
ĠB loc
Ġcal ia
Ġru ido
Ġdetec ciÃ³n
enci ada
ĠCal idad
Ġorgul los
estal vi
Ġmoder no
uy endo
ĠSer gi
Ġvol tes
ĠPod er
qu ir
ej ament
ĠPer iod
Ġr ub
Ġestudi ante
Ġeng any
Ġ196 4
Ġequival ent
Ġ8 4
agric ultura
Ġregres o
Ġrecons tru
is ed
Ġsus tancia
Ġfer ia
ĠSem ana
ĠpolÃŃ gon
Ġeta pas
Ġgam ma
ĠS k
Ġadministra tivos
Ġpoder es
R o
ĠLlor enÃ§
w eb
Ġra mad
Ġcircuns tancia
Ġde presiÃ³n
ĠSant os
Ġab us
Ã¡b amos
Ġinform Ã¡tica
ÃŃ es
o ficina
Ġs tre
ĠT ercera
Ġacostu mb
Ġind rets
Ġinform Ãłtics
Ġincre ÃŃ
Ġent enc
j aments
Ġsent imientos
Ġsemif in
eu ta
unta mientos
Ġfum ar
Ġefici ent
ĠS ir
ĠF ir
ĠDur an
H O
ĠâĤ¬ .
Ġfun er
Ġoblig atorio
Ġaleg rÃŃa
Ġsegu im
ĠH u
Ġestrang ers
ab and
ar to
id ro
Ġguany adors
ĠB et
c ual
em bl
Ġfeli Ã§
Ġportar Ãł
Ġgastr onÃ²m
Ġmun t
Ġbaix os
Ġproced ente
at ina
199 0
Ġpod Ã©is
esti Ã³
Ġrestaura ciÃ³n
Ġsub mar
l Ã³
Ġexposi ciones
an cias
Ġexpl orar
Ġcompet ent
ty le
as pec
Ġespecial itzada
g ol
Ġsem estre
Ġc enso
no ia
in ament
Ġunivers itari
Ġdibuix os
Ġfabric antes
Pre cis
r ÃŃan
Ġsem in
el ar
Ġminer al
ĠV ie
ĠInstitu t
Ġmag atzem
Ġ20 22
Ġgener en
ĠsÃŃmpt omes
ab ell
all otjament
V IVA
Ġauto bus
em an
Ġmer ece
Ġgob iernos
ev itar
Ġsuper merc
Ġen giny
tr ado
199 4
Ġnormal itat
ĠR uta
Ġal lar
Ġc itar
Ġfund ar
l ada
ĠmÃ¡ r
Ġderi var
qu eras
ll at
v ing
i ado
al tar
adap taciÃ³
Ġcontamin aciÃ³n
Ġtrabaj ado
ent ly
Ġc usto
Ġpersonal ment
ĠF ron
cu ando
Ġpos esiÃ³n
ag n
aran ta
in ats
r ina
Ġa genda
Ġpas siÃ³
Ġinclud ed
H otel
Ġcopi as
Ġrefer eix
Ġfam Ã³s
ex pres
Ġneces itar
Ġatrac tivo
Ġpat ron
Ġsim pa
ĠF eria
uy en
Ġfich eros
olly wood
B I
Ġtitular s
c ents
Ġ3 50
Ġsolici tado
Ġva gi
Ġun e
Ġpod ers
Ġt aron
Ġrec re
Ġinscrip cions
tric es
Ġmodific ado
Ġs ix
qu are
Ġserv idores
eg os
Ġad onar
Ġindic ada
Ġblan cos
Ġho ja
Ġexpl iquen
Ġl uchar
Ġa ci
Ġfal tas
Ġmat inada
Ġac ons
Car acter
Ġenvi at
d ora
ĠE ast
d ec
Ġass istÃ¨ncia
ĠP esca
ĠO fici
ĠPro jec
ĠE cu
ĠR ena
Ġcuad rados
Ġtram itar
ĠJul i
ap arcament
Ġob vi
A utor
Ġcamb ia
Ġdefin eix
rÃ¡ c
alum nes
Ġorden adores
Ġabs ur
Ġal one
Ġcap tar
Ġrec tang
Ġpasaj eros
at Ã²ria
Ġtab aco
Ġ14 0
Ġ196 6
ĠE quip
Ġb ella
Ġcondu cir
er aciÃ³
Ġvide os
Ġmetod ologia
ĠB ig
Ġto que
ud al
Ġp ist
Ã¡ mb
Ġto ur
Ac ad
ĠCondi ciones
Ġcompens aciÃ³n
ĠBe at
ens ar
Ġmajor itÃłriament
Ġbus can
Ġdur ar
ĠGran d
Ġincl osa
Ġcur ta
ĠAl t
Ġepisod io
ĠOli ver
Ġtrob ades
or er
Ġbiblio teques
Ġcompon ente
Ġper pe
ric k
it enci
Ġarrib ant
Ġdoc entes
ĠseÃ± ales
Ġal low
ac as
Ġexpedi ciÃ³n
gu esa
Ġtend Ã¨ncies
Ġar res
Ġhabitual ment
Ġs l
ĠJo h
Ġla va
ĠV AL
Ġdem uestra
Ġinterpre ta
Ġenseny ar
Ġprov ocat
All ÃŃ
Ġpreocup aciÃ³
Ġads cri
ocia tion
ĠveÃ¯ nes
ĠVend rell
ĠcÃ¡ maras
Ġcre er
Ġacom i
is co
Ã¡n icas
Ġil usiÃ³n
Bol etÃŃn
ĠclÃłss ica
has ta
ĠE MP
Ġe yes
Ġcer car
Ġsubministra ment
Ġescri guÃ©
Ġs ana
Ġin al
vi e
ĠV ega
Ġinvestig adora
ĠDec ember
am enta
Ġru edas
G AN
Ġ6 9
g Ãº
Ġfer til
Ġinici s
Ġposses siÃ³
Ġcu esta
E quip
ĠdÃ© ficit
Ġconsul tor
ĠRom an
tad ÃŃstica
Ġcomb atre
Ġigu ales
ĠPar tes
ĠP ra
Ġden eg
f ol
ĠD istric
ĠparÃłm etres
Ġre emb
Ġn ace
Ġsignific ado
Ġcar reg
Ġimm ediat
ĠB ages
ĠJ ava
Ġar c
Ġcas ual
Ġ13 0
ĠhÃłb its
Ġmencion ada
ĠdifÃŃci ls
Ġtel e
Ġmanifes tat
AC T
Ġenfr ent
y p
Ġv uestra
D iv
Ġregal o
Ġdel ito
ĠS pa
Ġdeleg aciÃ³
IS TR
Ġresul te
Ġcampi Ã³
Ġref undido
Ġhom osex
ĠseÃ±al Ã³
Ġru tas
escrip tura
ĠtrÃłm it
Ġped res
Ex iste
Ġdi ria
Ġcomp tat
et ari
AR IA
om Ã¨
Ġav iso
Ġdici endo
Ġpod ÃŃan
Ġdisseny ar
Ġan ci
Ġvolunt ari
Ġindepen dientes
Ġejemp lares
Ġcompl em
ĠCOM P
Ġeta pes
Ġterritori als
Ġcar es
ĠComerci al
ĠperÃŃ odes
Ġsuper visiÃ³n
at ri
Ġforma tiva
Ġdestac ats
Ġgau deix
ici as
ĠLl engua
Ġpar ado
ez can
Ġdimen siÃ³
Ġque di
oper aciÃ³
Ġp siqui
Ġterritor ios
Ġaliment o
Ġpre g
Ġcre d
Ġtu mb
Ġcatal Ã¡n
Ġson ora
ai le
W eb
V e
gu ed
Ġt imes
AS A
ĠPl ana
ĠFran ce
Ġreivind ica
Ġconven ios
Ġde ven
Ġevolu ciÃ³
g il
Ġfrances os
ag en
Ġson g
se ig
ac us
Ġcr uel
Ġex ec
Ġcelebr arÃ¡
ĠRe pres
C P
Ca use
ĠM Ãłster
Ġday s
Ġincid Ã¨ncia
ing a
ĠFlor ida
ĠVal ent
Ġprom ou
Ġretorn ar
ex emple
Com par
Ġexpecta tivas
Aten eu
pl as
ĠN uevo
Ġbaj os
Ġdirec tes
is es
ĠB au
em y
Ġrec al
ĠP ales
ĠChris tian
O tras
Ġadm iti
p rim
ier es
Ġevolu cion
Ġxoc ola
er na
Ġman us
Ġceleb rÃ³
i anos
Ġcurs ar
ĠLor enzo
ĠA ran
Ġconcre tes
m Ã¡s
Ġas cen
F ac
ĠES PAÃĳ
Ġejec utar
ĠNov ember
Ġs ite
Ġtamb ien
C reo
Ġsi mbol
Ã¡ rez
AN EXO
Ġconfer encias
Ã² x
aÃ± os
Ġser ios
Ġp echo
Ġter t
ĠAl cal
Ġciudad ano
Ġaccid ent
Ġf ive
Ġalter aciones
Ġde jo
Ġins crib
Ġ7 1
Ġus ado
tor e
Ġinterven ciones
Ġplataform as
ĠAn al
esper anÃ§a
se x
Ġital iÃł
Ġproduc tividad
ĠEmpres as
ĠF ORM
un ciÃ³
Ġreclam a
Ġ7 7
Ã¡ p
199 6
Ġent rat
Ġc ientos
Ġlla c
Ġcre ant
Ġaud itor
U I
americ anos
ra be
Ġinstruc cions
Ġtra tados
Ġob es
di os
ĠO F
ĠB ala
ĠI S
Ġ7 4
Ġapor taciones
Ġfl ora
Ġimpro vis
Ġdo bles
N ing
Ġlengu as
ĠcrÃŃ ticas
Ġextraordin arias
Ġtend remos
Ġtestimon is
ĠP aco
Ã© ro
ob el
u u
c Ã³n
alu aciÃ³n
ĠEN T
ĠAdministra tivo
D UC
Ġmedicament o
ĠPatron at
Ġpap ers
Ġemb al
Ġsub ida
Ġactiv ar
accep taciÃ³
Ġadolesc ents
Ġfamil ies
rÃł c
Ġ9 7
Ġsatis fec
Ġmobil itzaciÃ³
T or
ĠHen ry
Ġcinqu anta
Ġesta da
Ġpen sions
ug e
Ġaplic ada
Ġcrec er
at g
Ġcontinu idad
Ġsab eu
Ãº an
et te
Ġhor itz
ĠAm erica
ĠBos ch
Ġacredi ta
Ġins tancia
Ġs n
ter Ãłpia
ĠP aci
ĠPol it
ĠperiÃ² dic
âĢĶ ,
Ġs omb
Ġmales tar
Ġcer rado
Ġargu ment
Ġdel in
ins on
Ġdi Ãłria
ĠBrus elas
ĠlÃŃqu ido
ĠLlor et
Ġcens ura
ol or
Ġutilitz en
ĠCanad Ã¡
in ers
al eg
Ġsem ej
ĠF IN
es or
Ġlic encias
Ġol ÃŃmp
Ġansi edad
ĠCol ec
cu enta
Ġaut ent
ar quitec
ur nal
Ġcor tes
Ġesde vÃ©
Ġdiri ge
pro duc
hi re
Ġir ri
tin s
Ġeduca tivos
Ġsubstitu ir
Ã©s ser
Ġse ix
Ġafec tadas
ĠPir ineu
Ġac ta
Ġtrasll at
f ran
re y
Ġfre e
Ġv iendo
Ġestim ar
Ġdesarroll an
Ġcol les
s at
Ġc e
oc er
am ing
Ġre vol
Ġlos t
Ġcohes iÃ³
Ġ196 2
ĠtÃºn el
uer tos
Ġra cÃ³
Ġreflex iÃ³n
ĠlÃŃder es
Ġcompar tida
B e
Ġconcur r
ĠAl s
Ġcl ares
d ir
Ġjam Ã¡s
In terior
rec e
IT U
ĠB atal
Ġv ÃŃn
ĠV id
Ġrellev ants
Ġpropos at
Ur banisme
Ġcomer Ã§os
Ġresul ten
Ġgas es
ĠRob erto
ac ces
ĠG ib
Ġju ventud
Ġmencion ados
Ġbaj ar
Ġba ilar
ĠCh icago
ced es
Ġadm ira
Ġmill Ã³n
Ġfran ja
Ġpas t
ĠP il
Ġsor oll
Ġamb ul
ĠMil itar
Ġsecund aria
ĠS IG
E se
Ġapar te
Ġ196 5
p od
Ġan aven
Ġpin tar
Ġol d
ĠS ad
Ġcontes tar
Ġd any
Ġsuspen siÃ³
ĠIn tegr
efici Ã¨ncia
ĠDiv isiÃ³
ĠA quÃŃ
ex cel
Ġbu f
Ġquiz Ã¡
Ä ģ
vi al
ier re
ĠJer us
Ġconsid ere
Ġreper cus
F el
Ġresponsabil idades
por que
Ġfav orables
tan ce
Ġexam ple
ĠT x
Ġde g
ĠCor ona
par l
Ġprop Ã²sit
ĠPas tor
Ġmand ato
Ġasc enso
Ġincl oses
Ġmil iÃ³
Ġcorred or
Ġaug menta
Mol ts
V am
Ġver sion
Ġna tional
Ġdej an
Ġfic ciÃ³
Ġus ing
Ġsembl en
onal d
ĠÃºn ics
ar xiu
Ġno bles
ĠÃ¡r bol
adec ans
al mente
ĠMediter rÃ¡neo
ĠS ÃŃn
Ġexcep ciÃ³
Ġbomb arde
c ore
Ġconf ron
Ġven ido
Ġvuel to
Ġeurope as
determin aciÃ³
orien taciÃ³
al co
Ġautor izado
ĠF utbol
Ġnecess item
Ġemp a
Ġpas iÃ³n
Ġanim ar
ĠC P
Inform aciÃ³
Ġsufici entemente
ĠInnov aciÃ³n
Ġcre ativa
Ġcoordin ar
Ġimper ial
Ġconnec tar
Ġasum ir
s car
emp o
Ġhor arios
Ġpr isiÃ³n
Î ±
ĠmÃłr queting
Ġdiscurs o
Ġdeb ats
Ġaficion ados
Wh at
uc es
Ġescen aris
Ã§ ament
Ġband as
Ġorg Ãłnica
ĠM au
Ġtr Ãł
Ġpublic ados
is as
all Ãł
Ã£ o
Ġbec ome
Ġtabl as
Ġt hough
Ġob re
Ġ7 6
ĠCam ÃŃ
Ġsubs idi
Ġn ig
Ġap ell
cal dia
Ġw in
Ð ½
Ġfutbol ista
es sa
Ġbus quen
Ġimp re
G B
Ġnacional ista
grÃł fica
Ġinform Ã¡ticos
T ema
Ġevi ta
Ġantel aciÃ³n
Ġexig encias
Ġh ones
Ġcons ag
Ġvincul ada
ex ig
Ġbar rera
Ġempresari als
Ġexpor taciÃ³n
Ġgr Ã¡fico
Ġur gent
al i
is ca
Ġob tiene
olu ciÃ³n
Ġanunci ado
Ġc ÃŃ
ĠO C
ĠI D
Ġfi jo
Ġprofun do
Ġmolt ÃŃssim
erg ia
Ġacab ado
ov il
ĠCuer po
Ġv on
Nos otros
Ġbe ques
Ġas sa
oblig aciÃ³
Ġver bal
Ġcom issions
v ÃŃ
ĠJorn ades
ti za
Ġconclus iÃ³
Ġhist ory
op at
Ġreconoci da
ĠS port
Ġsold ados
Ġdi ada
Ġentr arÃ¡
ĠBl ue
ass emblea
la u
ĠB B
Ġalcan zado
Ġeduca tives
Ġreg istres
tu ri
Ġpen dientes
ĠS un
clo p
Ser Ã¡
Ġrem on
Ġconced ida
Ġcoincid ir
il os
Ġemb ri
ov ia
TIC ULO
Ġ12 5
Ġdesarroll ando
ĠSal t
Ġve ÃŃ
ĠMediter rÃłnia
ales hores
Ġsindic at
Ġamb dues
le go
Ġ8 8
tiz ado
Us ted
Ġdi eci
fic aciÃ³n
' "
Ġcar tells
Ġsepar aciÃ³n
direc tor
ĠMartor ell
Ġcons er
Ġmad rile
Ġalg or
Ã§ o
Ġem issions
Ġmus eus
Ġeva cu
a unque
Ã§ Ãł
Ġpor ter
Ġhabitual mente
Ġrelig iÃ³n
Ġtom Ã³
AN DO
z heimer
ĠR ivera
Ġingre dientes
Ġvian ants
Ten go
Al bert
Ġest Ã©tica
Ġintelig encia
Ġtur b
Ġunivers o
Ġaprov ada
Ġfil ial
Ġpros per
ĠL una
Ġgrav edad
Ġ8 2
Ġmulti discipl
Ġponer se
ors a
Ġoficial mente
Ġorden ar
Ġdise Ã±os
iz ador
Ġinfec ciones
tin os
ĠUnivers al
d era
Ġcab ello
Ġdisfr ute
ĠF Ãºtbol
Ġprotocol o
ES CO
de o
Ġa tura
Ġel em
Ġcolec tiva
EM B
Ġbat erÃŃa
Ġauto bÃºs
Ġm eg
Deb ido
Ġtom ado
Ġexplic ado
Ġform ant
Ġinform aciones
tr ÃŃa
Ġfron teres
Ġpan el
ĠR em
Ġdepend Ã¨ncia
Ġest ÃŃm
Ġemiti Ã³
Ġa ran
Ġquier an
ĠD IR
Ġesper ant
Ġbron ce
Ġre util
In d
V IS
Ġpl antar
Ġsec cions
Ġn u
ĠIngenier ÃŃa
Ġapro par
Ġantigu as
ig il
Ġenerg Ã©tica
Ġpo int
Ġt echo
ĠL ES
Ġre tre
Ġrelle vant
ĠSuprem o
Ġtro p
ent ral
Ġtradi cions
Ġla w
ĠR icardo
Ġne ws
Con tinu
ĠS AL
Ã¡ u
Ð ¾
Am Ã¨rica
Ġpriva cidad
om eu
ĠLl ibre
Ġ ]
ĠCas as
Ġreci entes
Ġpleg ats
ch i
Ġpre ocupar
ĠIns pec
ad quisiciÃ³
Ġexpecta tives
Ġcompa ti
Ġacompany ats
Ġcal dria
Ġdefini tiu
Ġca ut
Ġsegu idors
Ġcat or
Ġfinan cer
Ġen gl
ĠDin amarca
ĠAl calde
Ġofer im
Ġis s
Ġespecial izado
Ġc ajas
Ġin esper
Ob ra
Ġindivid uo
en f
Ġmeta bol
C OM
Ġdeleg at
ĠH A
Ġtram s
Ġautor itzaciÃ³
Ġperjud ic
Ġprim as
ĠHist Ã²ria
Ġmir ant
Ġvig entes
Ġm Ãº
Ã§ ats
Ġsor ra
v it
Ġdescub ierto
Ġsal tar
s ter
Ġqu aranta
mes os
par tit
Ġdescri ta
Ġver da
Ġquin ta
Ġestil os
Ġren uncia
Ġesc og
Ġcon eixen
Ġesqu er
ĠS ense
hor ab
Ġcu antas
Ġbol sa
Ġat tac
cul tura
Ġest re
uel va
Ġfr utos
Ġescri tos
ĠperÃŃ odos
Ġrecin to
Ġpesc ado
Ġsold ats
Ġdirector s
Ġf ixa
Ġafec tat
Ġilumin aciÃ³n
S h
ÃŃ gen
ĠD ev
ĠCris ti
Ġafec tades
ĠProfes sional
ci osa
Ġsobir ania
Ġgos sos
Ġestat ut
Ġgeg ant
Ġbu ques
Ġplante a
Ġtorn arÃł
Ġtrans itoria
ĠproveÃ¯ dors
Ġar ros
Ġplay ed
Ġmili tants
Ġcu antos
in aria
Ġpare jas
Ġcivil s
Ġapor taciÃ³
Ġrepar to
Ġman tienen
Ġrecep ta
Ġajud en
Ġtitul ado
Ġbeb idas
ĠCor te
Ġxiqu ets
Ġgras as
Ġbrit Ã¡nico
ĠH ip
Ġfort una
et nam
Ġme an
Ã© d
Ġreparti ment
Ġbet ter
T ES
ĠS ols
Ġ9 4
Ġhol and
Ġus an
N IF
ĠD omin
Ġquad rats
Ġsus p
Ġperteneci entes
Ġpar ecido
Ġna z
k el
si vo
Ġquin to
Ġri d
Ġesper ando
Ġreform es
ĠD I
Ġfi jar
esc ala
Ġan t
ĠC OL
Ġh uevos
Ġ196 3
Ġvol ien
Ġreform as
Ġjug ando
Ġgener at
ĠGr Ã¨cia
Ġassign atures
graf ÃŃa
Ġameric ana
itz ador
min es
Ġcontinu o
ĠNor uega
ĠCl ara
uc ho
Ġprom otor
ĠP av
Ġvari etats
Ġcomplic ada
Ġmera vell
Ġpropor ciÃ³n
Ġmonum ent
Ġinteres sa
Ġautom Ã¡tica
Ġencontr Ã³
Ġpercep ciÃ³
S oy
Ġgrad ual
Ġvo tants
h ara
ĠMa ta
Ġdo es
ĠS ystem
Ġdesesti m
Ġserv ice
h onor
Ġpre cau
ist os
iqu em
ĠTel ef
aud ÃŃ
Ġofer int
Ġcompar aciÃ³
Ġestim e
Ġtitular idad
Ġw al
ÃŃ das
ĠPÃºbl iques
Ġestim ul
iz arse
ĠMediter rani
Ġcomplic ado
i um
ed ras
Ġexemp lars
ĠRom ero
Ġsol es
Ġmill ion
cor re
Ġsom et
Ġigu als
F E
assign atura
ĠAr tÃŃculo
Ġpot es
Ġor ÃŃgens
Ġprove edor
n ic
Ġrela tivamente
ĠEnerg ÃŃa
Ġcompren siÃ³n
ifica cions
Ġdescob ert
Ġdestin os
Ġp se
Ġderiv adas
Ġsolici ta
Ġrealitz ant
ĠF orn
ĠclÃŃn icos
ĠTo wn
Ġrecor do
Ġfac hada
C ualquier
c tion
Ġunivers itarios
ĠK m
Ġam paro
Ġal iv
ĠT imes
OB RE
ĠBi bl
ta cles
ĠQu im
ĠFil osof
ĠC lo
Ġr ÃŃos
Ġprogres s
ĠT elecomun
Ġenfer mos
Ġx ines
Ġhav ent
Ġpassa va
Ġelectri cidad
Ġjur ado
Ġm als
hum or
Ġdescans ar
Ġpre co
Ġt ono
g ing
ĠC rea
Ġdi pos
P RO
Ġexac tamente
Ġcre ando
Ġ8 7
Ġcons istir
estr ena
am on
Ġimpor t
Ġherm ana
Ġenerg Ã¨tic
an nex
Ġsolid ar
cop ia
Ġrenta bilidad
Ġre ino
Ġfigur an
Ġdiscu tir
Ġsorte ig
ĠH ill
Ġcob ra
ĠAc tiv
Ġtitul ada
Ġol der
Ġat emp
Ġhospital es
Ġdestin adas
ĠG ala
Ġconoci das
Ġcic les
onces to
Ġdeclar Ã³
Ġvisi bles
Ġi ll
atori as
ĠB ob
Ġver ificar
ur ban
ri an
Ġluc re
Ġsecre taria
Ġciudad anÃŃa
ar gu
Ġl una
Ġaux iliar
pe ti
ĠS af
Ġcab ell
ĠCin ema
Ġfix ar
Ġrelacion ar
ot ge
Ġvac una
ĠEl ena
Ġx at
isi ta
Ġactu a
ĠprÃ¡c tico
qu ita
Ġsent en
r ari
si fica
ĠPromo ciÃ³
un itat
Ġav ant
Ġrob ots
Ġadolesc entes
Ġas se
g ados
Ġh arÃ¡n
B i
Ġtraduc ciÃ³n
Ġpresent arse
ĠTor rent
ĠS tudi
ĠespecÃŃfic amente
ing er
Ġprestig io
Ġplan ificar
Ġros tro
P l
Ġofrec emos
Ġpien sa
Ġrelev ante
Ġpubl ished
ĠCor tes
Ġf isi
N ormal
M uy
Ġapare ciÃ³
pi as
Ġl ink
Ġav ÃŃs
Ġanterior idad
Ġcorona virus
Ġnov ed
ĠD ones
Ġp ay
Ġreca ud
Ġinnov adores
Ġbor de
o ugh
ĠT ER
ĠIs las
ĠprÃ©s tamos
on ic
Ġvo tat
Ġsensi bilitat
ĠAf ric
ĠSiti o
D esta
Ġconvid ats
Ġe as
v ÃŃa
Ġambiental es
al do
Ġ195 8
ĠJ ef
Ġcas co
Ġarti fici
min o
Ġs tudi
asc ens
Ġen for
rin cip
en io
Ġhi vern
Ġdesp ro
Ġvac un
ĠTex as
Ġtend rÃŃa
ĠRec ords
ĠSER VICI
Ġdiscapa ci
ÃŃr culo
Ġde gudament
Ol ot
" "
Ġex erc
ĠJ e
Ġexpres siÃ³
Ġec les
Ġdevol ver
Ġpl Ãłstic
us h
Ġs av
Ã³ ra
in com
ĠBra va
ĠImper io
itz i
Ġimprescindi bles
Ġmed ir
Ġem ig
ĠPat ri
Ġprev isiones
Ġcol onial
bo a
Ġdirig eix
Ġconv iene
Ġtermin is
ĠE EUU
im on
Ġpedag Ã²g
Ġimp rimir
te a
Ġemo ciones
ĠH un
ĠJoaqu ÃŃn
ĠFam ÃŃlia
Ġpreocup aciÃ³n
Ġvege taciÃ³
Ġdelic tes
Ġtorn en
Ġĉĉĉĉĉĉ ĉĉ
Ġni Ã±as
Ġsome tido
Ġmun di
ĠPrim aria
at em
ĠReg iÃ³n
ĠA ustria
Descrip ciÃ³n
Ġru eda
ĠP N
Ġenvi ado
Ġmanten iendo
Ġgastr onomia
ri tat
Ġces siÃ³
Ġsatisfac er
ĠBern at
end is
IV O
vo quen
ĠOs car
Ġexclus ivo
Ġqu itar
n oc
Ġmas co
w an
Ġconeix em
Ġjug ant
Ġavalu ar
Ġmetod ologÃŃa
Ġacces sible
vesti ga
Ġposicion ament
ĠclÃłss ics
I ÃĵN
ĠUnivers idades
Ġprevent iva
ant ena
Ġrut ina
ier te
g adas
Ġperc eb
Ġcol omb
ĠL ec
Ġcas ar
apl ica
Ġchan ge
Ġreal icen
p et
ĠHum ans
e al
X X
j i
ĠEn cara
Ġinnov adora
Ġtrans cend
ind rÃł
Ġprotagon istas
Ġdepartament s
Ġbat xillerat
ĠD ist
Ġabs trac
ĠCab all
Ġenc anta
AN D
Ġun d
Ġacompany ada
M in
Ten emos
Ġesta dio
Ġrespec tivos
Ġlle gue
Ġsustitu ciÃ³n
Ġimpuls at
Ġgim nas
Ġa tes
Ġespecial istes
ĠE usk
ĠM id
Ġderiv ats
Ġcr Ã³nica
N unca
Ġdi Ã¡logo
Ã¡m ico
ĠM E
estr anger
Ġd as
ĠMar agall
ĠPor ta
Ġimpuls o
Ġt Ã¡c
Ġrece ived
ĠB rig
Ġin gen
. âĢĵ
Ġ7 9
Ser Ãł
Ġbos ques
us es
Ġrup tura
Ġsu av
ien s
all iber
Ġfranqu isme
Ġfren ar
Ġdro gas
it ing
Ġsob rec
Ġtal lar
objec te
Ġmanifes taciones
Ġcontrac tar
avin guda
AD R
ĠIN D
Algun es
ester ol
Ġmon th
Ġac cel
os itat
Ġf edera
Ġinter vin
Ġro le
Ġrepar aciÃ³
Ġextin ciÃ³n
Ġdirec ciones
] ,
ĠmÃŃnim os
Ġcan on
Ġun il
Ġfisc ales
es tic
Ġatra ves
Ġcur ric
ĠB ran
uy Ã³
em ic
Ġpl Ã¡stico
Ġparti das
Ġfal lo
Ġaixec ar
Ġemple ats
Ġmue bles
ĠLou is
eta pa
Ġal titud
Ġmanifes ta
Å ¡
ĠÃģngel es
Ġimpor taciÃ³n
Ġt w
Ġll ui
Ġtrastor no
Ġdivid ir
na cional
Ġsu ministr
ĠJurÃŃ dico
Ġacces orios
ĠT am
Ġluc es
ĠS y
Ġarro z
Ġvis c
Ġesti p
Ġrespon de
f eu
Ġdes trucciÃ³
198 5
Ġ8 1
om et
Ġparticip an
ĠI T
ti zar
Ġsustitu ir
Ġcol esterol
Ġhaur ÃŃem
ig Ã³
Ġpar to
Ġincl usiÃ³
ist ent
Ġextre ma
ĠJosep h
Ġespor tius
terna tiva
Ġvi us
ĠJoh ns
Ġ8 6
ĠDer echos
in ts
ed s
Ġrecib en
ĠAn ti
Ġsuscep tibles
Ġm ust
Ġrealitz ats
Ġsensi bilidad
Ġcivil es
Ġgre ix
Ġdeterior o
Ġpa quete
Qu iz
Ġser ra
Ġcompar teix
Ġmostr Ã³
Ġal tamente
Ġurb ans
Ġcl Ã¡us
Ġinstal ado
ĠBlan es
Ġprom esa
ĠRev ista
Ġsan idad
Ġpermiti Ã³
Ġespec tadors
ĠAs untos
Ġespecial itzat
ex ten
Ġdoc Ã¨ncia
Ġfines tres
ĠRe is
f und
Ġmar it
Ġhec ha
ĠCom paÃ±
isi bles
ĠT Ã¨cn
Ġlux e
Ġcu a
llet ÃŃ
ĠP otser
ĠdÃ² lars
Ġconm em
Ġrequis ito
Ãī S
Ġdispos at
Ġinter esa
Ġestad ÃŃsticas
Ġvulnera bles
D eix
Ġv il
Ġman ufac
ĠT odos
Ġin her
20 18
Ac ciÃ³
Ġpen jar
rit y
Ãłn iques
Ġt Ã¨r
Ã³l icos
Q ualsevol
id en
Ġay untamiento
Ġ0 8
ĠTh ese
Ġllat ÃŃ
Ġex ista
ÃŃ metros
Ġdur Ãł
ine te
D EN
Pos teriormente
Ġmal e
Ġliter ari
te des
ĠE g
acab ar
Ġprodu zca
ĠAc ciÃ³n
Ġutilitz ats
ÃŃ bl
Ġass ess
ti cis
Ġrevolu ciÃ³n
Ġinfl uen
Ã²n ics
esta bilitat
ĠEU RO
ĠS ard
Ġrep la
Ġinform Ãłtic
ĠUn ion
Ġvoc aciÃ³
Ġp istas
ĠsÃ© p
cul as
Ġs hort
CAP ÃįTULO
Ġpot ente
ĠB ah
Ġestal vi
Ġbos que
ĠB ru
ab ric
Ġvia jeros
Ġfir mar
ĠF emen
Ġem itir
Ġf Ã³s
Ġc Ã¡r
Ġpier de
Ġexcel encia
ĠCh urch
Ġmant end
Ġis land
Ġfut uros
Ġre cip
Ġalum nado
an ada
Ġarter ial
g ulo
Ġref uer
Ġenerg Ã©tico
Ġch ica
Ġro ja
Ġfuer an
ĠPr ÃŃn
ÃŃn ia
Ġdec re
ĠC H
ent Ã©n
Ġreg les
ĠC ÃŃv
Ġsem illas
Ġinform Ã³
Ġmeu a
Ġc ena
Ġn ext
ĠMir Ã³
ĠS IN
ĠCi Ã¨ncia
ec ÃŃan
Ã¯s sa
Ġentender Ã¡
Ġre ba
Ġhab iendo
Ġre me
Enti tat
Ġb ud
Ġad quier
ĠH ong
Ġrec eta
olu ciÃ³
Ġparro quial
an omena
Ġtrobar em
and al
du res
Ġasegur ado
ĠS ra
Ġlle ure
Ġd ors
Ġso ter
ĠCas tella
b ord
Ġcl ick
S elec
iz arÃ¡
ad ir
Ġs ello
uss el
ĠCOM O
Ġvergon ya
tiv ely
Ñ ĥ
T r
Ġrep Ãºblica
Ġfavor ecer
Ġobs tÃ¡
Ġ196 1
b iÃ³
Ġ193 1
00 1
ar emos
Ġ194 8
i gut
ent rar
ĠPe Ã±a
t ly
Ġamena za
ario us
Ġmaquin aria
Ġha z
Ġpar ecÃŃa
Ġfelici tat
iss es
Ġĉĉĉĉĉĉ ĉĉĉĉ
Ġp it
Ġcar d
pr ud
ĠEx pl
ist Ã¡n
Ġdisposi cions
Ġca ire
ĠJ oves
ĠHol anda
extre m
bo ok
Ġsent o
Ġsocio ec
Ġrecoman able
tific ado
Ġg iven
ĠS ob
ĠB AR
Ġpil otos
Ġre tos
ĠEs tos
Ġabsolu to
Ñ Ģ
Ġ8 9
Ġrefle ja
Ġdes tro
Ġpertin entes
ĠS istemas
Ġtriun fo
Ġclub es
or able
Ġlo ca
Ġdestac Ã³
uel os
Ġpobre za
Ġpoli tical
ĠB las
Ġafirm Ã³
Ġcaracter itza
Ġab o
Ġoblig ados
Ġayud an
Ġsan ciÃ³n
Ġestr enar
Y eah
ĠllanÃ§ ament
ĠhistÃ³r icos
Ġnorm ales
Ġs t
Ġb ater
M edi
Ġaconse j
Ġman eras
ĠV iena
autor itat
Ġcastell ana
ĠcontÃŃn ua
Ġsu au
Ġimplement ar
bl og
No w
apro va
Ġcompren de
ĠActual ment
ĠUr g
Ġcone gudes
Ġcent rada
In cluso
V ID
Ġdesp rÃ¨s
s ense
Ġmon o
Ġemb arca
Ġcorrespon en
Ġcondu ir
Ġdes ay
Ġextraordin Ãłria
rÃ¡ tica
Ġevid entment
Ġd og
al iments
ĠgrÃ¡ ficos
Ġ8 3
ĠA par
ĠOb serv
ĠautÃ³n omas
Ġcerc ana
ĠÃģ rea
Ġtal ento
Ġ3 60
ĠprÃ²xim s
Ġin oc
ic ot
Ġindivid us
Ġtur n
ĠPas cual
Ġfis io
Ġenv as
ĠP ok
Ġconvers es
aster io
Ġsen o
r ender
Ġto x
Ġmac ro
ĠPRES ID
Ġmostr ado
Ġrefugi ats
Ġtu v
ĠMus ical
Ġde vo
ĠT rad
ĠVil adecans
Ġhub iese
Ġv ental
p is
Ġpais atges
Ġadministra ciÃ³
199 3
Ġec h
Ġv ial
ĠB anda
hid ra
Ġlan zar
ĠR ay
Ġvesti r
Ġformul ada
Ġcumpl en
Ġpens em
ĠmÃºlti ple
Ġv ela
Ġa Ã§Ã²
Ġes glÃ©sia
ĠEs tr
Ġrev esti
Ġtem or
Ġdenomin aciÃ³
Ġp Ã³l
ĠBus iness
Ġpier nas
Ġenve j
Ġnarra tiva
Ġexten siÃ³
Ġb rin
Ã¯ ble
Ġr Ã¨c
Ġdepen ent
Ġvigil Ãłncia
ĠE va
Ġmal o
Ġd avall
Ġemb ar
Ġu mb
Ġmin ister
D er
ĠAm Ã¨rica
Ġsindic atos
ob tenciÃ³
Ġassenyal ar
tific at
Ġbus iness
ĠB L
Ġencu entre
Ġdesemp leo
Ġconf ort
crip cions
k ers
ĠM ix
ĠZ el
ĠP ublic
Ġpo guessin
Ġeti queta
icia tiva
ĠEjecu tivo
Ġmodal itats
Ġfal la
Ġmin istra
Ġb ola
ar re
Un s
Qu ina
Ġident ificaciÃ³
Ġm asses
Ġmar ina
ĠLiter atura
ĠG rÃłcies
Ġcompl icaciones
Ġra zas
Ġcont ent
Ġ195 6
Ġman tuvo
ĠOb ras
empor ada
Ġfru its
gra u
Ġdifer enciar
ific ados
Ġedi ciones
s s
Ġb ad
Ġquotidi ana
R a
Ġcompar tit
Ġvalid ez
p it
Ġparcial mente
se u
i ados
Ġaqu Ã©
Ġti ra
R el
I mp
Ġfot Ã²graf
verg Ã¨ncia
ĠAl to
t ries
i mb
Ġan ex
Ġcom arc
Ġdip Ã²sit
Ġconcre tar
hab itatges
ches ter
trans m
R EC
Ġmetro politana
Ġri ure
Ġch icos
Ġcab allo
Ġaconte cimientos
ĠMin istros
Ġco ca
Ġex cusa
D ep
y Ã³
ol ic
acon segu
tu ario
H er
Pro grama
ĠPl eno
L lavors
ĠUrban ismo
El l
Ġincapa cidad
ru ary
ĠV era
Ġaprovech amiento
Ġcomun itaria
Oc upaciÃ³
Ġmonta Ã±as
Ġmas cl
Ġbon ic
Ġneg ociacions
Ġdiscrimin aciÃ³
Ġtes i
Ġcompon ent
Ġnum ero
Ġdestin ar
Ġpar ades
Ġencuent ros
Ġcomun itario
Ġdefini tivo
Ġindepen dientemente
cion ada
Ġofre ciendo
Ġlan zÃ³
ĠUS B
Ġenorm es
Ġar co
Ġcomp uestos
Es ports
Ġp ack
Ġrecone guda
Ġc ep
Ġmulti plic
Ġingredi ents
ĠRos es
Ġeste u
ĠPrim Ãłria
Ġbrill ante
Ġnacional isme
Ġjue z
Ġconviv encia
Ġvari ada
Ġneces ariamente
ĠN atur
Ġes g
Ġs ons
ĠdÃ© bil
Ġhum edad
v ien
Ġcom anda
Ã¡n eamente
' d
Ġres c
ac he
E ix
Ġconcre tamente
ura ciÃ³
ĠJa ime
Em pordÃł
ĠA pro
ĠIs la
Ġfar m
Ġprohib ida
Ġmuer tos
Ġrelev ancia
Qu eda
Ġconduc ciÃ³n
Ġalcan zÃ³
Ġperm e
Ġpla u
T ar
Ġor n
ĠH onor
Ġcolabor ar
presid ent
I OS
Ġre tal
n eg
ĠE mb
Ġbor do
Ġcu Ã¡les
Ġdesp ren
L et
Ġcon trar
Ġj er
ĠC aÃ±
Ġmul ta
um ir
ĠCir cu
Ġdespla Ã§ar
Ġestabl ertes
ĠdifÃŃci les
Ġmo tiva
ĠI glesias
ĠMes si
Ġassol it
ĠPen al
Ġc Ãºp
Ġdial ec
Ġta c
Ġtel a
Ġexpos ar
gn asi
ĠCAT AL
Ġtind ria
ĠF i
Ġlocal izaciÃ³n
Ġllam ados
Ġdesenvolup en
Ġcul tivos
Ġuniform e
ĠHa w
Ã²m etre
CE L
usu aris
Ġdepartament os
I E
Ġpens en
Ġasoci adas
Ġacces ibilidad
Ġsuf ren
ex ili
ĠMerc ado
Ġag encias
arbit ratge
Ġrel e
Ġv arem
Ġaus tral
ĠF ores
Ġha go
Ġmar gin
ĠS AN
i ev
A uditori
Ġfem ales
k u
Ġec olÃ²gica
ĠTrabaj adores
Ð º
m ir
Ġso und
Ġcomenz aron
Ġsir ven
Ġdes ac
Ġf id
Ġt ib
Ġfug ir
Ġsecund arios
esqu ena
Ġesp ont
Ġrem itir
Pod emos
Ġdi ed
Ġmane jar
Ġpresenta des
up a
Ġacos tar
Ġesca u
Ġhub ieran
Ġreivindic ar
ue ta
1 50
tu osa
al le
Organ itzaciÃ³
Ġtecn olÃ³gica
ĠMod ern
Ġve ia
ĠE t
Ġflex ibilidad
ingÃ¼ ÃŃstica
ĠCh rist
Ġvers os
ol is
j idad
es tral
ap er
Ġextraordin ario
ĠautomÃłtic ament
Ġescol ares
EN S
ĠG ob
ĠCol la
T oda
Ġconvid at
to Ã±o
Ġass ocia
Ġlig eramente
Ãłm ens
ĠAs imismo
Ġconven is
ĠT all
y ac
ĠPRES ENTE
Ġr on
ĠP obla
Ġconstruc cions
inten do
M Ã©
Ġcomplex itat
d ares
Ġan no
Ġha p
ĠAl co
Ġobs es
Ġcarre teres
Ġav aluaciÃ³
Ġinter fer
um s
Ġb ig
Ġpro li
Ġr ul
N a
institu t
to wn
Ġmon ar
Ġ195 9
Ġsim p
Ġsu ici
ĠNeg oci
ri rÃł
Ġdep Ã³sitos
ĠMÃ¡s ter
Ġver ti
Ġequiv oc
Ġv ice
C Ã³digo
Ġxocola ta
ar n
Ġbu que
ĠM oll
Ġpros titu
Ġaleg aciones
Ġfuncion ario
oo oo
Ġjudici ales
Ġconjun tamente
ci ta
Ġac tÃºa
Ġinfrac ciÃ³n
Ġsensi bles
Î ¿
Ġz o
Ġtrans forma
Ġparticular mente
Ġvari edades
Ġcanvi ant
Ġimmig raciÃ³
Ġfil ms
ĠCan aria
ĠAn im
Ġhuman idad
Ġent rÃ³
ĠlÃŃ quid
Ġab orda
Ġpar eci
Ġra ces
Ġlliber tats
g etes
ĠsÃŃmb olo
Ġh it
Rec or
Ġtr y
Ġdesc en
Ġis l
Ġestim ular
Ġcomba tir
Ġcons tÃłncia
Ã³ tico
ĠUN ESCO
ĠH ollywood
Ġcompeti tivitat
Ġproduc tors
Ġr Ã¨
Ġdesemp eÃ±o
Ġmanten int
ent era
ĠIC V
ĠR ico
ĠP AS
Ġf usiÃ³n
Ġlimita do
Ġfals a
Ġes bor
Ġterres tre
Ġcontras eÃ±a
Ġminer ales
Ġxer rades
Ġs tra
Ġcolabor adores
Ī Ĵ
Ġtecn olÃ²gica
Ġpens ava
qu eu
to dos
Ġpermiti endo
Ġespecial idades
Ġcrid ar
Ġinteress at
Ã¡ ce
Âł Âł
olog ical
ĠA ur
ĠmÃŃnim s
u ar
ic ana
Ġcan n
Ġ194 4
Ġserv eixen
Ġh in
Ġd aba
Ã³d igos
Ġ16 0
ĠJuz gado
ĠAm or
Ġdin Ã¡mica
Ġprov Ã©
pl om
Ġconsider ed
Ġdecor aciÃ³
ĠD ona
ĠBar b
ĠCar olina
Ar xiu
Ġcumpl an
N ew
Ġpatr Ã³n
f un
dol o
Ġmon ey
ĠH TML
lig ent
indi vid
Ġla go
Ġres tantes
! .
en ys
Ã¡n s
Ġfil os
Ġgrab aciÃ³n
vi edo
In tro
Ġva gin
P ass
Ġ ï¿½
entre vista
ĠUrb ana
Ġed itori
Ġmalal ts
Ġesta bil
ĠPar e
Ġreclam aciones
esc ena
Ġparti des
Ġespor ts
ĠÃ© p
Ġtur ÃŃstics
Ġfacul ta
Ġo ce
and s
any ola
Ġ193 7
Ġpudi eron
ĠProtocol o
Ġobserva ciones
Ġsegu idores
Ġalem ana
ĠInstitu te
Ġde tingut
Ġin nova
ĠC af
Ġconoc en
Ġestabl ished
Ġconf iar
ĠProced imiento
ĠSebasti Ãł
ĠEduc aciÃ³
ĠTR ANS
Ġes menta
qu ill
Ġserv ed
Ġpl ant
ĠHum anos
Ġcompens ar
Ġpin ta
Ac tu
Ġaccep ta
Ġfemen ino
Qu ant
Ġprotagon isme
Ġimpor taciones
Ġl on
ĠllanÃ§ ar
Ġc obre
Ġvental l
Ġalum inio
An na
gra mas
Ġdes fil
ac ced
Ġwork s
Ġcontar Ã¡
Ġcom idas
ĠI ES
Ġesqu ema
grÃ¡ fica
Ġdestac ada
Ġvirtu t
Ġo us
Ġoblig ar
Ġequi par
Ġfe w
Ġdom inar
Es a
Ġactitud s
Ġinterac ciÃ³n
Ġtex tura
Ġatrac tiva
ues tras
tic ul
Ġinfrac ciones
Ġavan zada
Tre ball
Ġcas e
Com un
Ġgerm ana
Ġconcre ts
Ġrom per
Ġinten so
Ġag re
at ely
auto determinaciÃ³
ad ron
ĠFeb ruary
Ġva yan
S ON
Ġvege tales
ĠCorn ellÃł
Ġmascul ÃŃ
ĠautÃ³n omos
Ġaf lu
Ġpon iendo
Ġend ins
Ġedific aciÃ³n
Ġciutad anes
Ġsa que
Ġfelici dad
Ġper eg
Ġaug mentat
C r
Ġimpl antar
Ġar ri
ĠÃĢ ngel
Ġalum ne
Ġsem i
Ð µ
Ġdisminu ciÃ³
Ġmod os
Ġescrip tors
ĠCom mun
Ġform ando
Ġhipot eca
Ġexten der
ur rec
ĠbÃłs quet
ures a
ĠMon tilla
ĠO h
Ġjap onesa
Ġ15 5
on ado
Al b
AT A
qu a
ĠBala guer
Ġvisi tante
Ġ195 7
Ġjurisdic ciÃ³n
iza tion
ri rÃ¡
ĠAl f
Ġdis cul
Ġcand ida
Ġdiscurs os
Ġass essorament
Ġn its
Igual mente
Ġv uestro
Con f
lo ga
Ġplan os
Ġper diÃ³
ofer ir
Ġmater na
Ġcor al
A noia
Ġtr in
ĠP lus
Ġmun tar
omin aciÃ³n
Ġesc Ã¨n
ĠI v
hos e
Ġsta tion
ENT A
Ġcol Ã²nies
Ġre estructura
Ġex ager
ĠG im
ĠB Ãłs
di ta
ĠI R
en viament
ĠU ru
ĠÃ©s sers
Ġcin cuenta
ĠDi ada
ĠTom Ã¡s
ĠPirine us
omb res
ces is
Ġn aran
Ġtempor adas
Ġs emb
ell ers
Ġemp erador
Ġb ate
Ġdivulg aciÃ³
Ġmad res
Ġs ombra
Ġfac e
Ã²c t
Ġgir ar
ĠautÃ³n oma
Ġinten tat
ĠLl ull
hor us
ĠMarc os
Ġperiod isme
Ġdespla zamiento
Ġcancel aciÃ³n
Ġpose en
Ġjue us
Ġca ta
Ġpoes ÃŃa
T ota
Ġposicion amiento
m ico
ĠCont empor
Ġdes trucciÃ³n
Ġz ap
ot ecn
ĠAl iment
ue vas
Ġi legal
Ġtecn olÃ²gic
Ġhot els
ĠQu ir
Ġcom isiones
Ġpol Ã¨mica
ĠQu ÃŃmica
mart ph
Ġproced a
Ġor to
Ġpued as
Ġinj ust
arrot xa
Ã©r icos
Ġdi gui
ĠMar keting
inte gr
ĠLl oc
Ġtribun als
Is rael
Ġsitu ats
Ġten ÃŃem
Ġcritic ar
F e
Ġser ÃŃan
er Ãł
Ġsof istic
ĠG old
Ã³m etro
ĠmÃ¨ dica
Ġescri u
M B
Ġre ial
ĠB arcelon
Ġestad ÃŃstica
ins trum
Ġaut ora
A cab
Ġin iti
ĠtrÃ¡m ites
Ġtransm iti
Ġbot Ã³
tit zar
C las
Ġgr ues
Ġcer im
Ġw rote
Ġdi e
Ġcoincid int
Ġgro c
Ġapor ten
ĠPolit Ã¨cnica
ps ia
Ġcrea tividad
ĠI ra
b el
s ub
Ġexac ta
Ġimplic ats
Ġintes tin
H z
ag af
Ġexplica cions
Ġre baj
Ġhec tÃł
Ġestr elles
Ġpat ologÃŃa
Ġporta va
Ġconce jal
Ġmes as
in era
Ġb aile
ĠLabor al
ad ÃŃa
Ġdivers a
ll os
Ġconsci ente
ĠJun io
ĠFin anci
Ġmar ried
S omos
Ġtermin ado
er ing
Ġex isti
ĠMal grat
Ġj aci
idi oma
Ġbas ados
Ġintegr antes
ĠVir tual
Ġesmen tats
Ġa se
V amos
Ġcont Ã³
ĠN obel
Pos teriorment
Ġdesit ja
Ġconver tint
Ġrel oj
Ġbi omas
ĠBro wn
ĠDis ney
rer os
iqu in
Ġd its
ĠU PC
ver na
ĠautÃ²n omes
ĠT im
im pos
Ġverte b
ĠAD N
ov id
Ġsubstitu ciÃ³
Ġcor rents
Ġgas tar
uel ta
Ġpat rÃ³
ĠE ul
yec tos
Ġpolici es
Ġoficial ment
Ġpor tÃł
ĠPo wer
Ġconv ent
c amp
con tra
ine a
Ġdeclar ada
Ġcel ular
x is
Ġreflex ions
ĠacadÃ¨m ica
Ġse en
ĠAlm erÃŃa
ĠN it
Ġnov edad
Ġinm igrantes
log ÃŃa
Ġprec ari
ĠM ach
Ġrecep tes
Ġconsider arse
Ġb acter
Ġcorrespon der
Ġporta voz
Ġentorn os
I dent
at ologÃŃa
Ġraz onable
J unto
Ġin Ãºtil
Ġdeleg aciÃ³n
ĠCD C
Ġent Ã¨s
ĠEstat utos
Ġsegura mente
ĠJos e
ĠT Ã©
Ġmal trac
ci rÃ¡
Ġdes astre
ĠS ex
ĠOr tega
ĠF RAN
Ġven ced
Ġb orn
Ġmarc h
Ġdefens at
itz em
ĠEd itorial
Ġrela tivament
Ġn eo
Ġc Ã³n
b Ã³
Ġhabil itat
ĠAb og
Ġsindic ales
go vern
Ġvincul ats
Ġcre us
Ġpercib ir
abs Ã¨ncia
ĠV ives
ĠCooper aciÃ³
Ġh og
L ES
Ġespecial izados
ĠC AL
ĠestÃ¡n dares
ha uran
Ġvol tants
ĠmÃºs culos
Ġord res
ĠFinal ment
In ici
Ġles ions
Ġgu iÃ³
ĠDepor tivo
Ġs un
Ġh ep
ĠB rit
Ġencar regat
Ãłrbit re
Ġcuar enta
ĠMin ister
F un
ĠC ENT
x ia
Ġcar ril
Ġcin tur
Ġrur ales
Ġconten en
ĠR as
Ġh Ã¡
v all
Ġec u
Ġmanif iesta
B Ã©
ĠH it
A le
ĠsÃ¨ ries
Ġac tÃº
ĠJun ts
es co
Ġconfir mat
ocol ate
Ġben e
Ġnega tivo
Ġdon e
Ãºl ia
2 50
les hores
Ġir land
Ġalco h
Ġprepar ada
Ġbrit Ãłnic
Ġdon em
ĠM is
an n
P rem
Ġconver g
Ġmin isteri
ĠprÃ³xim as
Ġinter loc
Ġpre ve
Ġp ra
in to
Ġhav ing
v isiÃ³
Ġidi omes
P N
Ġmic ros
Ġb ale
Ġpossi blement
Ġdescomp te
Ġobes idad
Ġap el
Ġindic ador
Ġles s
Ġsat Ã©l
Ġinten tant
ith er
Ġpi edras
Ġcon quista
ĠV iol
ten d
Ġcontinu arÃł
ace te
p io
Agr icultura
Ġllev ando
ĠLo ve
ĠVir gin
V ista
Ġpas tor
Ġinterf az
Ġequip amiento
Ġprobl emÃłtica
titu cional
Ġactiv ament
Ġes mentat
z ano
F ER
ras s
Ġsur f
Ġol iva
ĠEgip to
Ġcar peta
si o
Ġcons ola
Ġcristi ans
Ġcar gas
ag re
Ġcostu m
O ficial
Ġb ir
Ġpar cs
Es tic
aspec te
Ġt ÃŃ
ĠCar rer
Ġre ach
trÃ³ leo
ĠEmpres arial
ĠlingÃ¼ ÃŃstic
gu erra
Ġdepor tivos
Ġopera tiu
Ġlo gran
ve z
Ġextraordin aria
Ġ193 8
Ġab as
Ġh ui
Ġtrabaj Ã³
Ġpal acio
Ġcas c
Ãłn ies
Ġcostu ms
in Ãłria
Ġ194 1
To tal
ĠE uros
Ġter rible
Ġinstrum ental
Ġpav ellÃ³
Ġrequer ida
ĠJ on
Ġquier as
Ġconec tar
Ġobserv aciÃ³n
Ġencontr arse
ĠS US
Ġcompor tar
ĠC ine
Ġset t
ĠB lo
Ġdescu ento
Ġjard ins
Ġr ico
Ġab ast
ĠiP ad
Ġmor f
Ġhospital s
av ia
Ġprofesor ado
organ isme
ĠVer da
Ġde cep
T Ã©cn
ĠCom ple
ĠCal le
Ġjubil aciÃ³n
Ġestar ia
ac tor
ĠelÃ©c tricos
ĠS OBRE
D issabte
Ġri us
ĠÃłn im
Ġhard ware
S tar
ĠM et
Ġmen cionar
Ġlimita cions
Ġmar ido
Ġincre as
pi rat
v ic
aqu elles
Ġtempor ades
Ġinf Ãłncia
ÃŃl ica
i Ã©
ĠLe e
Ġunil ateral
ell ar
Ġanno un
Ġarrib i
Ġaf ortun
Ã¡ menes
Ġestable ciÃ³
ĠMer cedes
Ġextra Ã±o
Ġs aga
Ġcul tiu
Ġi ron
ex plicar
gu as
Ġat m
r arse
Ġefec tividad
Ġinaug urar
Ġadap ta
erm ita
OR T
ĠT ok
Ġben vinguda
Ġescul tura
ĠMon tes
Ġposi tius
Ġadministr ador
ĠclÃŃn ico
Ġanivers ario
ĠMar gar
Ġexig eix
Ġ195 5
Ġdefin ida
ĠSE O
Ġcu ento
ĠLeg isla
Ġan trop
Ġca ixes
ĠPol onia
Ġpublic ats
pro fes
Ġsex uales
ĠLeg al
Ġfoment o
Ġconsolid aciÃ³
oc ul
qu ito
P M
Ġclassific at
Ġlli Ã§
ARI OS
ĠDel ta
Ġa C
Ġingenier ÃŃa
fr ug
Ġrepublic ans
Ġseny als
Ġed ades
ĠEngl and
c ra
Ġarquitec to
Ġalter n
Ġjug at
Ġprogres o
Ġen z
Tamp oc
F R
ci entos
Ġfacul tades
Ġdescri u
Ġanual mente
Ġdel iber
Ġutiliz arse
Ġcarre teras
b io
ĠVen e
Ġb reak
ĠG or
la y
Ġad ministrar
ĠCon ca
on en
Ġcontro ls
ĠT ribun
Ġproli fer
M ic
al tura
ĠC Ã©s
Ġvolunt arios
Ġseix anta
Ġatrac tiu
u dio
ci li
Ġproced ent
Ġconten er
Ġcaus e
ĠD isseny
< /
P ER
om i
Ġcontempor Ãłnia
Ġbal Ã³n
c Ãº
Ġincom ple
Ġc hi
o ya
ĠR ome
Ġcoleg ios
all ar
frug ell
Ġretar d
Ġcurios itat
Ġlocal idades
Ġcol lec
Ġorgan isme
Ġarrib em
ĠfÃŃs icos
Ġinform Ãłtica
Ġcomod idad
Ġhum anes
Ġespor tistes
Ġoc ciden
Ġexter nos
vent ura
Ġmon et
Ġosc uro
Ġindic aciÃ³n
Ġcurs es
Ġac cion
Ġperfil es
O fer
Ġprior idad
Ġesta ciÃ³
Ġla dos
Ġent ero
ĠSoci ety
all en
ogrÃłfic s
C U
Ġth ings
f ins
ĠA V
ĠR eci
ac s
Ġr ic
ti ps
Ġas ocia
Ġnum er
Ġautor itzat
Ġorien tada
tim s
Ġestim ada
Ġl Ã¡s
ĠS es
ĠGran de
Ġs y
rec es
ran te
Ġho wever
Ġs w
Ġsign es
Ġess encials
Ġv arious
Ġo pon
Ġfinal itzat
Ġser io
ĠAss ociation
Ġasoci ada
Ġesc lav
ici osa
Ġdesc rito
ĠLib ro
P RES
iv ia
Ġjut jat
Ġmecan isme
Pod em
ĠSegu ra
Ġmilitar y
Ġjap ones
Ġreper cu
sion ista
Ġvac ÃŃo
Ġconcre tas
Ã³ tica
ogra ph
Respec to
Ġsup rimir
Ġequip ament
end or
Ġdem ues
ogrÃ¡ ficas
Ġdirec tivos
Ġme ter
ree k
Ġn eta
g io
Ġcomple jidad
F oto
Ġindic adores
entres tant
Ġoper ar
Ġdisfr ut
Ġcompa tibles
o C
gu arda
r ela
ĠG es
g onal
Ġsent imiento
Ġabog ado
mol t
in aciÃ³n
espa is
Ġreper tori
Ġedi tat
ĠTerritor i
Ġra to
T i
Ġw ent
Ġdens ity
Ġde ures
Ġaer ona
Ġmerc ader
ĠAr tur
P AR
ĠPresid encia
ĠB ase
Ġabier tos
ĠP ass
M or
po ques
Ġp bl
Ġvincul ades
ĠCompaÃ± ÃŃa
ĠB log
Seg undo
T J
Ġop ta
ĠRes erva
Ġrem arcar
Ġgra m
OR A
Ġimp uta
ĠestratÃ¨g ic
la us
Ġar oma
Ġcompeti tiva
cion ario
ĠF A
ĠF is
rid as
Ġesdevin gut
activ ar
Ġposi blemente
ĠCamb rils
Ã©n dez
T orn
ĠA unque
Ġcar to
Ġcomp ost
Ġretras o
u tas
Ġca bles
Ġdevelop ment
ar nos
N orm
Ġpien so
Ġnega tiu
Ġconstru ida
Ġil la
Ġconcep tual
Ġdeman ant
ĠT ran
Ġrem ol
Ġfrac aso
Un iversidad
Ġsepar aciÃ³
ins er
ĠPom peu
Ġbenefici arios
re f
ĠGu ti
Ġdiscus siÃ³
if t
ĠpÃºblic ament
Ġreconoci dos
Ġven ia
Ġpon der
ĠtelÃ© fonos
ĠTrob ada
Ġll an
Ġdon i
Ġcuad ros
ĠLu x
ent er
Ġh orno
Ġcent rat
j Ã³
Ġsan ta
Ġcr Ã²nica
Ġbas ta
Ġmur alla
Ġcom itÃ©
ĠSu iza
ers on
ĠseÃ±al ar
Ġcertific aciÃ³
E fec
Ġadecu adamente
ĠC y
Ġobligat oria
z en
Ġtecn olÃ³gico
Ġinscri ure
u ally
Ġgovern ar
Ġmet Ãłl
Ġsosten ibilidad
Ġqu im
ÃŃ ces
Ġtri ang
Ġpens ado
par ti
ĠS UP
Ġcardiovas cular
is enda
Ġsopor tar
Ġv ore
Ġhab itaciÃ³
ĠcrÃŃ tico
Ġart ÃŃstico
Ġtan cada
ad ie
OR D
b ody
Ġorgan izada
Ġp ilar
Ġmot os
Ġcinqu ena
Ġg in
res sol
Ġargent ino
Ġad ic
Ġsor ti
Al ta
Ġsuperviv encia
elim inar
Ġtitul aciÃ³
Ġsufici ents
Ġdil u
Ġapla ud
ĠSan itat
Ġfres c
Ġpl Ãłn
s el
k g
Ġo ÃŃdo
ĠdÃ© ci
Ġefica ces
Ġtranspar encia
Ġg est
ĠPhil ip
Ġt rig
Ġex ili
Ġdid Ã¡c
Ġpos arÃł
Ġt echn
ĠCas ino
Ã± ado
end en
Ġdirig idas
ĠF ord
ĠE dad
Ġpin tures
Ġr inc
Ġll ars
Ġsuf re
r ista
Cons ul
Alem anya
Ġco unt
Ġsol v
Ġdimen siÃ³n
Ġca va
Ġconvoc ada
Ġdef en
Ġnet work
dic es
ĠJ ue
Ġm ach
Ġsuf riÃ³
co pa
Ġs ona
Ġvic tÃ²ries
Ġinvi tados
Ġacces ible
Ġoper aciÃ³
ĠS tan
The y
ex clusiÃ³
Ġus tedes
Ġma il
Con tingut
Ġex tiende
Ġfinal izaciÃ³n
C urs
Ġse co
ĠCN T
Ġ( -
ish ing
Ġtr ist
Ġcom itÃ¨
ĠM otor
Ġreg lamento
T Ãº
ĠN ap
Ġdeb atre
L OS
Ġcorri entes
Ġconv ida
Ġsinc ron
S istema
Ġrecomend amos
Ġro des
av anÃ§
Ġprepar ados
ĠG ri
ĠIN FORM
Ġd ud
Ġjug Ã³
Ġt orm
ul ador
ea u
ĠÃ²r gan
Ġfabric ar
Ġlit ros
Ġfuncion en
Ġunivers itaria
IN E
Ġordin adors
Ġdescomp tat
ĠS uc
Ġsent its
Ġconlle va
ICION ES
Ġvolun taria
f an
Ġcon oz
Ġdes truc
Ġcur rent
ĠFoment o
Ġform Ã³
ĠU til
Ġespecifica ciones
Ġbra Ã§os
Ġth ird
Ġvesti t
Ġan ces
ĠL y
Ġdej amos
Ġb arcos
Es port
l Ã³g
Ġesper an
Ãºs tries
enc ara
Ġd avan
Ġabier tas
Ġconform en
Ġenques tes
Ġhuel ga
ĠO t
Ġdefin it
Ġdesapar Ã¨ixer
Ġindi quen
ĠCE IP
Ġurg encia
Ġrealiz aron
Ġmon te
g ic
ĠBarber Ãł
B an
aci l
per Ã²
ĠAb ril
Ġcontrol ada
Ġpu ta
Ġrefer ido
ĠA F
Acad Ã¨mia
ĠagrÃŃ colas
Ġform atos
ha guÃ©s
ĠU b
Ġencab ez
Ġcon quer
Ġprotec tor
arquitec te
Ġesc ales
til les
Ġtr ens
Ġ" .
Ġno ci
Ġb ill
ĠpÃ¨r dues
Ġare as
Ġced ir
Ġasegur Ã³
E very
Ġma xim
Ġcapital isme
= "
ĠElec toral
Ġven tanas
Ġim poner
Ġsuper ado
Ġorganitz adors
Ġabsolu tamente
ĠA maz
Ġhab ido
Ġhabl amos
Ġsub jecte
esc riure
f en
Ġun it
al ies
Ġmencion adas
g ico
Ġsens acions
ĠT Ã¨cnica
Ġacab Ã³
g ament
ba ciones
Ġco efici
Ġconta ba
Ġpod amos
ra je
Ġlim itat
Ġesper it
Ġfres cos
Ġmer id
Ġexclus iÃ³n
acoll ida
S M
Ġver b
A Ãºn
Ġsuperfici es
Ġindependent ment
Ġren al
C horus
Ġmi el
Ġrur als
C entre
Ġlab ios
Ġm Ãłs
Ġdu plic
Ġobligat Ã²ria
Par ece
ĠPro gram
ho to
ĠBr ussel
arc at
ĠÃºtil s
Ġcomen tat
Ġpon ent
he ad
Ġcuri Ã³s
Ġap ag
ĠA ud
Ġbur ges
Ġ195 4
Ġ[ [
EN A
Ġrec ents
re gues
Ã¡n donos
Ġblaug rana
Ġamis tad
Ã «
ĠG ent
ĠE P
Ġmar ro
TIC A
ĠTor ra
ĠG audÃŃ
ab ans
Ġval u
Ġbar s
ed os
J ordi
Ġverd uras
Ġdi Ã¡metro
Ġperiod os
Ġlab ores
cin as
ĠMol t
Ġcoinci deix
Ġllar gues
ĠN intendo
Ġinteres ada
l it
ĠEscol ar
ĠSue cia
Ġpu ro
iz e
Ġequilib rada
Ġsom riure
Ġsal to
AM IENTO
ec era
Ġni eve
res t
Ex per
ĠMa h
Ġjustific aciÃ³n
Ġvid rio
Ã³ f
Ġfu tures
ĠEs tÃł
Ġbenefici ar
anim aciÃ³
Ġprev isions
ĠA j
Ġal Ã§ada
ĠC od
Ġcu anti
Ã©n en
ĠUnivers itari
Ġf ather
Ġinteres adas
Ġpuntu aciÃ³
ĠV ell
ENT ES
Ġenerg ÃŃas
Ġta pa
Ġtra Ã§at
mos t
Ġcontin ent
Ġatm Ã³s
ĠCooper aciÃ³n
Ġdesenvolup ant
Ġparla va
Ġch il
Ġprop uesto
P oc
ti fi
Ġ194 7
Ã§ ant
on is
Ġsin te
Ob je
util itzen
Ġin ges
ĠRel aciones
ĠautÃ²n oms
Ġtrob arÃłs
Ġaprob ada
ĠG arrotxa
x y
isc os
lici tant
Ġregal ar
Ġcapit Ã¡n
ĠK ong
rob ar
Ġconex iones
ĠclÃ¡s ica
Ġps ÃŃqu
Ġpropos em
9 00
Ġcan to
Ã¡n do
Ġlog ÃŃstica
emp ren
Ġmed ic
lumin aciÃ³
ci ende
Ġgro und
ĠM oto
Ġ193 4
C entro
ĠOb ama
Ġreg ne
Ġtho ught
B er
Ġcontin ente
tr ad
dal ena
le tas
Ġneces itas
Ġinevi table
IT O
ĠAngel es
Ġcandid atures
Ġjard ines
Ġprev is
Ġe gip
ĠCor al
ici pi
Ġqu otes
esti on
Ġnota bles
Ġinter iores
Ġcomp ten
Ġll istat
Ġco unty
exp an
tu ar
uel ve
Ġcer ve
Ġgui ada
Ãł us
Ġec o
Es tar
Ġproduc tion
ĠJ ane
ĠmÃł gia
ĠTecn ologÃŃa
uen ca
Ġped idos
Igual ada
Ãįn dia
Ġcomp ac
ĠS tra
Ġrecor tes
ĠCerv antes
Ġsupon er
we et
Ãłs tics
Ġcre ated
Ġactual izar
Distribu ciÃ³n
ĠL ar
ch ar
ad jud
ĠCoordin adora
ĠNew s
Ġnacional itat
ĠN Ãº
Ad ministra
Qu ed
Ġlle genda
ĠJun queras
Ġmonum ental
Ġass istit
Ġrec uerdos
Ġcari Ã±o
Ġ0 1
Ser ve
ĠT O
198 9
Ġcom te
Ġw ord
Ġ194 2
Ġment ir
Ġli qu
Ġderro tar
Ġenc amin
Anton io
ĠG ard
Ġbr oma
Ġmol esti
op h
Ġarr els
ĠMar s
Ġacab ada
Ġdomin ios
fre do
Ġo uts
Ġs tory
ĠautÃ²n oma
ĠLat ina
eg eu
ĠV icepresid
Ġco ver
Ġfelici tar
Ġperjud icis
Ġstar t
Ġintelig ente
ĠT echn
Ġavi ones
m ond
ĠCoun cil
ĠGener als
Ġreclam acions
Ġreac ciones
ĠP adre
Ġhabil idad
ĠBer ga
Ġcon re
Ġb au
C asa
los a
ĠOc tubre
Ġrequer eixen
M IT
Ġban caria
Ġexcel entes
Ġvi ola
Ġdes ob
Ġdi arios
Ġproyec ciÃ³n
Ġhe ar
vi ol
i tiva
ĠAr quitec
Ġacog ida
Ġr is
ĠC RE
cis ta
ĠC erc
Con cre
Ġtin ent
ĠgrÃł fica
a us
ut in
Ġloc o
Ġec har
Ġla d
p ri
ĠV o
Ġprogra mar
ug os
er io
Ġesc ar
ĠSer rano
Ġpros pec
Ġapre cia
Ã¡nd ola
Hor ta
Ġvolunt Ãłria
er ve
n ou
Ġaconsegu int
Ġpac tar
Ġgobern ador
ĠconvenÃ§ ut
ho use
z ona
Ġsubjec tes
im atges
Ġextraordin ari
Ġceleb ren
Ġqu eso
Ġter rassa
qu ÃŃm
er land
h ÃŃ
. âĢĿ
Ġvaix ells
Ġres istir
ĠSec ciÃ³
te ad
Ġsur ge
ĠGuill ermo
Ã¯ ment
Ġc ust
Ġvis itat
Ġinter nos
S anta
aci miento
Ġman ga
ĠÃ¡ rabe
Ġnecess itar
Ġdon ada
Ġhi elo
Ġim posi
Ġab onar
Ġcoordin adora
ĠBart omeu
ĠDepor tes
Ġtrop ical
cul tural
Ġhog ares
Ġso ur
Ġinici ado
P ens
tra ciÃ³n
Ġd uen
Ġseleccion ado
Ġsolid Ãłria
Ġm l
Ġe go
ot ball
Ġ194 6
Direc tor
Ġ19 29
ferm eria
Ġtranquil idad
Ġsuel os
B as
ĠPas seig
Ġtranspor tar
et lla
and es
) ]
T ube
ĠÃºn icos
Ġlev anta
ĠjurÃŃdic as
Ġexped ientes
Ġcostu mbres
i led
ĠIN S
al ter
IC AS
Ġt Ãłc
Ġmedi ciÃ³n
Ġseny ora
Ġcompeti tividad
h im
Ġin co
Ġlista do
ĠG Ã¼
Ġlleuger ament
Ġtend rÃ¡s
ĠP ay
Ġinflu ir
rÃł tica
Ġoportun o
iciÃ³ s
J A
Ġcomple jos
Ġdefin ido
Ġdestac ados
Ġagrad ar
Ġespec tadores
Ġpe trÃ³leo
Ġcomercial itzaciÃ³
Ġde form
Ġrod ona
Ġtorn em
Ġsorpren ent
Ãºm enes
Ġap unt
Public at
ven a
Ġch icas
Ãį S
Ġcommem ora
POR T
ĠQ U
ĠJo han
ĠG eg
Ġat temp
Ġ193 3
Ġgri ego
Ġle j
Ġlangu age
Ġi ra
ĠP O
ĠU p
Ġo toÃ±o
Ġcri tica
ĠRo ad
Ġma king
gued Ãł
ĠRib a
Ġextre mos
Ġhip Ã²
ĠI sa
ac ha
erci al
ĠSent encia
Ġab ono
Ġprev isiÃ³n
Ġencuent ren
Ġenc uesta
Ġc Ã³digos
Ġimpor tar
ĠMol ins
Ġfill es
Ġn erv
Ġvoc es
Ġfut urs
n est
Ġentorn s
S D
Ġdi ta
ĠmÃºs ic
fic aciÃ³
ĠCon vergÃ¨ncia
ass essorament
Ġgen es
Ġr ics
ĠquÃŃm icos
ĠJ ones
Em pres
ofer eix
Ġcos tar
cri ure
Ġexplic aciÃ³n
Ġs pecial
fo x
on ales
Ã²c rates
Ġfil a
Ġpand Ã¨mia
Ġger ent
em Ã¡tico
oci miento
c Ã¨s
apor taciÃ³
Ex p
Ġes tir
Ġvolunt ariat
Ġseguir Ã¡
Ġfoto volta
T EC
Ġmen Ãºs
Ġf low
entre ga
ĠA la
Ġcompr ador
Ġr Ã©c
Ġhec tÃ¡
Ġparticipar on
Ġcorrec ciÃ³n
Ġpan car
Ġlarg os
Ġsigu iÃ³
Ġjo gu
Ġpromo ciones
Ġdi os
Ġdesign ado
Ġconstitu eixen
ĠGar riga
Ġalter aciÃ³n
Ġcompl ert
Ġind ret
Ġpassat gers
Ġan iran
Ġcontrac tual
Ġpatr onal
Ġbuild ing
ĠF AL
af ir
it iner
Ġt Ã¨x
ĠprÃłc tic
Ġsp am
Ġdemostr en
abell Ã³n
duc e
Ġcomplement arias
Ġdiscrimin aciÃ³n
r Ã³s
Ġpa tio
L u
Ġf ita
Ġcarre gar
ĠL it
d ran
ĠDol ors
Ġcommun ity
b ita
Ġma tis
ĠForm entera
Ġsolidar idad
Ġejecu tivo
ĠLis boa
Ġjuris prud
ĠF E
Ġsu ports
Ġas is
ÃŃ geno
Ġenfr entar
titz at
ul ats
ac ciones
Ġviv os
Ġdifer encial
ĠR iu
Ġjus tament
ĠB M
Ġconstant ment
Ġpu guem
Ġprob abil
de pen
rac le
Ġdesarroll Ã³
1 20
Ġv ella
l ot
I U
rim a
Ġfinan ceres
ĠFor o
Ġ195 2
ab as
ĠÃł lbum
Ġfia ble
lo v
Ġredac tar
Ġmemb er
ta je
Ġdepor tistas
Ġ194 9
Ġces iÃ³n
ic ular
crib ir
Ġefec tivamente
pi re
Ġx en
ĠÃ¡r bit
ADR ID
ĠP Ã¡
rÃ³ geno
Ġsetm an
ĠPen ÃŃnsula
Ġorien taciÃ³
acces sibilitat
Anton i
Ġi ban
Ġorg Ã¡nica
Ġfacul tad
Ġsensibil itzaciÃ³
Ġconvocat Ã²ries
Ġd ila
Ġde ure
ĠNic ol
Ġpal m
Ġpen siÃ³n
Ġjut ges
bo ur
Ġc iencias
Ġan ormal
Ġcoorden adas
H onor
Ġpre dis
Ġlegal ment
ĠSal Ã³n
Ġotor ga
ĠJa Ã©n
Ġdespleg ament
Ġre ga
ai res
Ġp lo
Ġp Ã¨l
elo w
Ġc Ã²
Ġab arca
Ġbras ile
Ġmot ors
Ġasign atura
Ġelec ciÃ³
Ġlegal itat
P ed
ĠG andia
Ġme et
n ica
E t
Ġle ave
ĠI ll
Ġmen ciÃ³n
Ge ografÃŃa
Ġemiti do
Ġsub ordin
198 8
Ġretribu ciones
Ġam antes
ĠNet work
ĠRa Ãºl
Ġreg ionales
Ġfil s
Ġpuntu aciÃ³n
Ġel eva
Ġg audi
Ġapar ells
Ġdiscipl ines
Ġinter can
Ġrectang ular
Ġden sitat
ĠEn ter
Ġes quÃŃ
Ġexp ul
Ġsex uals
Ġdesap ariciÃ³
Ġexec utar
Ġras tre
on er
Ã± ones
Ġno thing
Ġcondem na
Ġllic Ã¨ncies
Ġh ÃŃb
Ġrepresenta da
ĠSosten ible
j eras
Ġmon tar
Ġevi tando
ĠhectÃł rees
Ġt ol
Ġpor ts
Ġapun tat
aj ara
Ġsatis fer
ĠHer rera
it te
ĠS han
unta in
ĠH erman
es tos
ĠmÃ²d ul
Ġinforma tiu
ĠPlan es
Ġinter val
ĠPRESID ENTE
Ġgen Ã©tica
ĠSal Ã³
Ġdic ta
Ġcon qu
Ġes morzar
eg at
esper ar
Ġtin guÃ©s
Ġprohib it
Audi Ã¨ncia
Ġ0 9
Ġresul t
Ġid Ã©n
Ġestil s
Qu iÃ©n
ĠagrÃŃ coles
ĠĠĠĠĠĠĠĠ ĠĠĠĠĠĠĠĠ
Ġcomerci ants
Ġresolu ciones
Ġon ze
ĠB BC
ro w
Ġtransi ciÃ³n
ĠAd riÃł
ĠR amos
Ġec olog
Ġsig no
ien se
z er
tag ena
ĠL lan
ier s
Ġatmos f
os is
n ie
Ġapari encia
esqu ÃŃ
Ġmultim edia
ĠEs tas
Ġnotific aciÃ³
ha y
ru ecos
Ġconstant emente
Ġactiv es
Ġvol dria
ĠO per
Ġconf ia
li ques
B ien
Ġbe ta
y endo
lel ament
ĠM ans
ĠAM B
Ġan irem
Ġp p
Ġalt hough
R ef
Ġ194 3
Ġtecn olÃ³gicos
ĠL uz
Ġv s
Ġin und
A j
ĠD re
Ġprepar ats
ĠautÃ¨n tic
rad u
ĠE UR
Ġgo ing
ĠBale ares
enc y
199 1
esc ut
ĠRes earch
Ġutil itzada
Ġma ta
ĠMos tra
20 20
Ġcontribu ciÃ³n
Ġtreball adora
Ġdis con
Ġcopi ar
Ġsignifica tivo
Ġtracta va
Ġtelev isi
ĠFl ores
Ġaplic ando
D T
Ġlarg as
ĠPala frugell
establ ir
inter net
Ġge ogrÃłfica
Ġcoraz on
u ana
ĠlÃ³g ica
Ġb rig
labor at
in ted
ĠM IS
Ġmal os
Al m
estudi ants
Ġestadounid enses
Ġde dos
Ġins tÃłncia
ol v
Ġar ticular
Ġdesapare gut
ĠVan guardia
cl ar
Ġrefor zar
am ics
Ġplen amente
orig inal
Ġbra zo
Ġadqui rido
Ġconv Ã©
ĠCas als
ĠTer cer
Ġmat emÃłtiques
Ġmortal idad
av y
ĠT os
Ġd ents
Ġca igut
it ora
Ġdese en
Ġo di
Ġham bre
ĠVi etnam
ne a
Ġins ide
Ġincom pa
ĠT C
Ġpresent arÃ¡
ovis ual
Ġsin t
Ġforma tives
Ġcoopera tives
Or dre
Ġahor rar
ĠP OD
Ġprob abilidad
ro gen
Ġdic tar
ĠL ife
Ġenem igo
Ġfr uta
Ġavan zado
ari ta
Ġconf inament
Ġj oy
Ġdemand as
qu ila
Ġserv idors
independ Ã¨ncia
Ġinmue bles
Ġcul turas
Ġam able
Ġimpres siÃ³
Ġcorred ors
Ġro c
Ġes encia
y al
Ġcuar tos
Ġimpresion ante
Ġbat eria
ĠES O
ĠGer ard
Ġrecone guts
Ġsepar ado
Ã¯ c
Ġsign ificar
Ġemp at
Ġmov ed
Ġcic los
ĠN uestra
Ġepisod ios
Ġel abora
ht ml
Ġj erar
Ġdes h
Ġ195 3
alco hol
ĠRic ard
Ġsub ray
ĠW hen
Ġcar dia
ĠBany oles
W ith
ĠS ky
Ġamena Ã§a
Tra baj
Ġproced erÃ¡
Ġcl ose
Ġpar ques
Ġpeti cions
ap osta
ĠM ons
Ġexpres ar
ĠO x
Ġw omen
T om
Ġh alf
Ġdibuj os
O ne
ĠMau ri
Ġwh y
ĠBo i
Ġrig uros
Ġrealiz arÃ¡n
ag enda
ĠSal ou
Ġmas ia
Ġautor izados
ik a
c raft
ĠTom Ãłs
emb ro
IC V
Ġc ess
ĠMich el
in Ã¨s
ĠprÃ² xima
Ġrespec tivas
Ġcontinu at
Ġservir Ãł
ĠCom pl
Ġinn oc
in cid
Ġpass es
Ġg itan
ac um
Ġtor rent
ĠT OT
Ġutil itat
Ġer ig
Ġavan zar
ĠB erg
xa ca
Ġch ino
Ġvalor at
Ġdem arcaciÃ³
Ġcer Ãłmica
Ġag il
Ġf ight
ro pi
Ġsindic als
Ġbron ze
ĠE p
Ġdenunci at
co u
ag res
ar mes
Ġa ur
All Ãł
ĠC olu
Ġvia ble
MIN ISTR
Ġh Ãºm
Ġnecesita mos
Enti tats
Ġs ell
Ġcertific ats
Ãłn im
Ġide ologia
if a
Ġbusc adores
eix es
Ġavan tatge
Ġan tis
equip ament
Ġbacteri as
c Ã²pia
ĠIns ta
Ġfuncional idad
if f
I l
ĠJ ut
ĠfreqÃ¼ ents
Ġhiper ten
Ġcare er
Ġinges ta
ĠN ar
Ġarbit ral
ĠVir g
Ġperform ance
com p
Res ul
Ġenseny aments
ĠM ec
ĠFil m
Ġanomen ar
Ġfor os
Ġmani obra
ĠgrÃ¡ fica
Ġfutur as
Ġsan cions
Ġem etre
ĠPal mas
ĠTo do
Ġtrans corre
Ġsuper en
Ã³ v
Ġpor teria
Ġdesarroll ada
Ġcondem n
Ġdes pl
A ran
Ġespecial itzats
Ġdisfr uta
Ġdestin ades
Ġescen arios
Ġposi tion
y right
land ia
Ġsal Ã³
Ġdirig idos
Tamp oco
Ġvaria ciones
ĠRepublic ana
Ġmot her
Ġconcent rar
Ġgastr onomÃŃa
tifica cions
R IA
Ġcontinu ed
ĠcientÃŃfic as
Ġan ch
Ġpin turas
Un iversitat
Ġr icos
Ġsal en
Ġo i
Ġderiv ades
s ta
Ġar om
Ġseguir Ãł
Ġtre u
ĠSon y
Ġterra za
ĠM Ãł
Ġrefer ir
Ġcomplement ar
Ġse tanta
Ġcu bre
ĠclÃ¡s icos
um o
ĠSEC RET
Ġeleg ida
Ġmotiv aciÃ³
Ġmanip ulaciÃ³n
ĠCom Ãºn
ac or
Ġsuper ficial
Ġstr ong
Ġrequer ir
Ġmaquin Ãłria
Ġmanifes taciÃ³n
Ġllum s
Ġcomplement os
Ġobtin guts
Ġlimita ciÃ³n
ed itorial
Ġri era
bl ar
ĠC enso
Ġnoctur na
Ġr ug
ĠrÃ¨c ord
Ġdiver tit
I r
Ġl ento
Ġbl ind
H C
Ġinform Ã¡tico
ĠPresup uestos
Ġlleva ba
ari ciÃ³n
az ine
ci ls
ĠG PS
Ġprevio us
ed ios
b la
i A
ĠCons tan
Ġab riÃ³
Ġaten diendo
Ġalf ab
Ġins tante
Ġexper t
Ġdetermin e
y ent
ĠcomenÃ§ ant
Res ulta
Ġsamar reta
Ġestable zca
Ġperfil s
Ġalcan z
ĠCala f
cion ament
rom p
ĠR et
Ġc en
D av
ĠDo wn
B O
lici tat
ti pos
Ġcon tado
Ġtom Ãł
ĠCÃ©s ar
Ġan om
Ġdesf avor
Ġfores tals
alu za
as tr
ĠFil ip
Ġterap Ã¨u
ĠT ir
in trodu
Ġun ido
ĠSeÃ± ora
Ġ11 5
Ġdespat x
ĠG em
Ġperiod istas
Ġperten ecen
Ġocup at
Ġp ico
Ġproduc tiva
qu eb
Ġsab ÃŃa
Ġres titu
ja va
Ġdescub rimiento
ĠÃŃn dex
ĠcÃºp ula
aplic ar
Ġs ch
ĠO S
ĠM P
Ã¡s ico
Ġprin cesa
Ġas fal
Ġfij ado
Ġos cil
Ġmec Ã¡nica
Ġtitul at
In cl
r Ã¨n
D im
Ġcement iri
Ġsorpr endre
Ġpuer tos
Ġlidera zgo
Ġe tern
Ġspeci es
Ġnecess Ãłriament
Ġad orn
Ġguany ant
ĠB asc
oro este
ĠN ormal
. âĢ¢
H E
Ã©r rez
U b
Ġhistori ador
Ġfron teras
jun to
Ġcap Ã§al
Ġcoll ons
atem ala
. /
m ental
ĠfinanÃ§ ar
Ġvilla ge
Ġcontund ent
ĠBen et
Ġsupon en
Ġwebs ite
Ġelabor ada
ĠAn glaterra
ĠL ong
ĠL et
bl an
tan os
Ġmap es
Ã³n icos
Ġnuc lis
O V
ES A
Ġmotiv aciÃ³n
ĠG olf
ĠmÃ²d uls
Ġurban itzaciÃ³
Ġanim aciÃ³n
ĠG usta
ĠCard ona
ĠCor uÃ±a
ĠHit ler
20 19
Ġra cial
ogrÃ¡ ficos
ĠT ai
Ġpertany en
Ġtreball em
Dis pon
Ġur nes
il ton
Ġluc ro
Ġprote ÃŃna
Ġp ica
in da
N C
Ġadministra tius
Ġtem Ã¡tica
Ġsacri fici
ĠCerd anyola
B on
ar tÃŃculo
Ġincorpor at
Ġviat gers
aÃ± o
men tant
IC OS
isc op
d ida
Ġex teriores
Ġproducir se
ĠEx tra
am Ã³s
M ill
lec cions
F u
lega cions
Ġh emb
ĠCerv era
Ġvet ll
Ġtecn olÃ²gics
Ġreivindic aciÃ³
Ġses enta
Ġwh ite
Ġestan d
ĠperiÃ³ dicos
Ġpil ars
Ġ193 5
ap rendre
Ġecles i
Ġpat ologÃŃas
Ġcu p
Ġhor tal
Ġley enda
Ġindis cu
Ġregres ar
Ġel og
Ã¨c do
Ġsal ido
m ill
ĠN euro
ĠatmÃ³s fera
ĠJ azz
Ġab usos
Ġmod e
Ġer mita
ĠCon ferencia
Ġconstat ar
ĠO ut
Ġcin quÃ¨
ar x
ĠPre venciÃ³n
Ġinvers ores
Ġbec as
Ġurban ÃŃstic
Ġregistr ada
Ġcla im
ir us
Ġestar ÃŃa
Ġconcep ciÃ³
Ġt im
Ġmic rob
Ġf atal
Ġentrev istes
ĠE TA
it eu
Ġident if
apro xim
k ins
qu ins
Ġtraves sa
Ġhip Ã³
Ġv ui
ĠP U
Ġpos tres
Ġprim or
Ġadap tat
Ġson risa
ĠCom Ãº
bil ity
Ã²l ics
Ġenem igos
ĠR ab
ĠL lar
UL AR
Ġb oda
ĠTribut aria
Ġdoc tora
Ġcan ad
Ġfestiv als
v et
Ġplas m
Ġcumpl ido
Ġtr u
qu ies
Ġcor da
Ġb ara
ĠC odi
Ġ10 7
Ġlegisla tivo
iz amos
Ġb oy
Ġubic at
Z A
ĠS ig
ĠT in
Ġfal tes
Ġocup ats
Ġanual ment
Ġfe ature
Ġ( +
va il
lo va
ĠcapÃŃt ulos
tu t
Ġc ross
Ġaut onomia
Ġinteg ridad
F in
Ġx i
Ġind icaciones
Ġvin tena
Ġcompeti cions
Ġestat uts
en dio
Ġdes gas
ĠInform e
Ġfacil iten
ĠP UB
Ġreac cionar
Ġhe ter
Ġadequ ades
extre ma
Ġsembl ants
Par ticip
ĠhÃ¡ bil
M L
Ġh Ãł
ĠSan z
Ġcaball os
raes tructures
Ġvis ibilitat
Ġvig Ã¨ncia
anti gu
Ġmoto ci
Ġdipl oma
Ġassum eix
Ġcomen zado
ĠOri ente
isi era
Ġsector ial
ĠS R
ĠV ista
Ġaprob Ã³
ÃŃgen as
l ista
Ġdes ert
om pl
Ġcad enas
ĠAr c
Ġsh it
ĠcapÃŃt ols
Ġalber ga
Ġdu u
ir re
Ġaut onom
Pro duc
tr Ãº
Ġg ub
Ġdedic aciÃ³n
ĠEdu ard
Ġtr Ã¡ns
lÃłn dia
Ġpau tas
Ġurg ente
ĠL ord
Ġcandida ta
Ġd ren
Ġpo table
ra te
Ġ( Â«
ern amental
Ġcombus tibles
eny es
Ġapar tats
Ġfur ther
Ġunivers itario
us ing
ju Ã¯c
Ġdevelop ed
Ġsol itari
ĠLa w
is ted
w ar
Ac ord
Ġintroduc e
ĠB oy
AMENT O
Ġandal uz
Ġcomp rim
ĠS and
N uestros
am an
ĠCam pos
omen atge
Ġempi ez
Ġocur rido
Ġl umin
Ġenfer mo
Ġpais ajes
ĠÃģlvar o
Ġparticipar an
Ġpetro li
ĠgrÃłfic s
Ġpasse jar
Ġresolver Ã¡
clo u
Ġb uro
Ġt ones
Ġpresid encia
l ines
Ġofer irÃł
Ġcam es
Ġposi tivos
Ġcres cut
Ġalem anys
1 10
Ġestu vieron
Ġm urs
ĠH ot
Ġperspec tives
enci atura
Ġproced ir
Ġpresenta das
Al co
Ġproduc ed
es ten
Ġaspir ants
Ġpor tem
ĠMar roc
Ġmobil itzacions
Ġam pol
ĠM ot
l ad
Ġtrac tats
ĠO viedo
Cu enta
ient en
Ġman ej
Ġch ocolate
ĠPER SON
Ar gentina
ul ados
ĠW ik
Ġrealitz aran
ĠM AS
ĠFam ilia
Ġindic ando
Ġf lan
ĠCan ada
Ġne ol
ĠCon ce
Ġjudici als
Ãłl isis
vers a
Ġtur ÃŃsticos
ĠCondi cions
Ġrapid ez
IENT ES
Ġproduc tora
Ġg ab
Ġla tino
ass ass
Ġcomprome te
Ġan n
ĠBan ca
Ġman z
Ġten or
Ġ193 2
Ġsal do
ĠU K
Ġcerves a
Ġoblig ats
uy o
Ġeng ine
Ġfic ciÃ³n
Ġanun cis
al caldia
Ġnomen ament
Ġcongres o
198 7
Ġaudiovis uals
Ã©l gica
Ġanti oxid
Ġprior itats
Ġcomun ista
M ej
Ġpart ÃŃ
encar reg
ĠJack son
Ġcristi anos
Ġmanten ido
Ġanomen ats
Ġbon ito
Ġvein ti
Observ atori
Ġaisl amiento
ĠC rec
OP D
ĠT E
Ġadap tarse
ĠL and
ur en
Ġdesapar eix
Ġdef ensi
ra ma
onÃ²m ic
Ġaliment aria
Ġpar Ãł
Ġbel ieve
Ãł pies
P ese
r ino
S ome
Ġrec tificaciÃ³
ĠBatal la
Ġamar illo
Ġper di
Ġre ally
Ġadap tada
ĠPales tina
bl anc
Ġex Ã¡menes
or ies
Cap ÃŃtol
Ġassoci at
ĠA k
tan ci
ĠL ÃŃ
cri ta
ad era
ar rel
Ġadjudic at
Ġsobre viure
ĠWilli ams
ĠDE B
Ġhorizon tal
R ob
Ġguany adora
ĠT I
Ġr ÃŃg
Ġinaug ural
Ġapor te
gen os
Ġfalle cimiento
ĠAn t
esta da
O CI
Ġco tizaciÃ³n
Ã¡lo gos
Ãº ries
Ġ[ (
Ġresta bl
ell at
Ġf reg
Ġcompar ti
Ġelim ina
ap el
Ã¨s ties
ĠX Ãł
G al
ĠBos ton
Ġp Ãłr
Ġfem ale
Ġemb arc
Ġrefer ida
Buen o
ux iliar
Ġclar idad
Ġt ocat
Ã© e
Ġdirec tos
Ġreclam aciÃ³
Ġra il
Ġincorpor ado
ĠEx ecu
Ġalem anya
tu vieron
Ġresul tÃ³
Ġlleg int
Ãł cid
ĠQ ualitat
Ġbra Ã§
Ġline al
ĠLuc as
Ġest el
Ġĉĉĉĉĉĉ ĉ
E vid
Ġsan itarias
Ġmig ht
Ġposi tivament
u ena
Ġaumen tando
Ġpersonal mente
ingres sos
ĠGuardi ola
Ã² bia
at rac
Ġn adal
Ġdesen es
pr ing
ĠDom Ã¨n
ta ven
C lar
ĠAd ri
Ġacum ula
b ut
Ġen via
Ã¨l gica
ĠYou Tube
Ġpren en
Ġten gas
Ġfres co
Ġbarri os
ĠGel trÃº
Ġ19 00
Ġca z
Ġrepar ar
ĠÃį n
Ġresp etar
Ġimag ina
Ġrom ans
Ġacer tado
Ġacoll irÃł
Ġmoder ada
Ġmerc ad
Ġde je
Ġdem ora
aa aa
Ġ195 1
Ġra ÃŃces
ĠCab rera
ĠAudi encia
Ġdign idad
Ġsignific ant
iber tat
Ġexplic aciÃ³
Ġllev aron
Ġconsider ados
Ġf om
Ġperd ent
Ġvincul at
Ġsuperviv Ã¨ncia
ier ro
Ġmens uales
ĠJo urnal
Ġadre Ã§at
eg al
Ġw id
ĠPo bl
Ġmedic aments
americ ans
ĠÃ¨ x
Ġacom paÃ±a
dem oc
Ġpresenta cions
Ġenfron tar
T ur
Ġrecha zo
ĠVic tor
Ġqu iso
Ġdefec tos
D ado
Ġretribu ciÃ³n
or ada
ĠcÃ²m ode
Ġpro gen
Ġlliure ment
Ġrec etas
ĠT ÃŃtulo
ab eth
Ġaddi cionals
ĠMor ales
Ġcad u
Ġaut Ã²ct
Ġreal ista
Ġk ing
unda tion
Ġcomien zos
Ġvideoj uegos
ici oso
ĠBar ri
os idad
ĠH uelva
Ġexam inar
E j
ĠUsu arios
ĠCerd anya
Ġde ien
ĠRub ÃŃ
c up
ĠAr que
ĠA ero
Ġr uso
Ġ( *
Ġjustific ada
ens is
Ġvig ents
ĠConfeder aciÃ³n
ĠESPAÃĳ A
Ġen se
Ġdedi quen
Ġpresenta ciones
?? ?
Ġlegisla tiu
Ġesc enes
Ġconvid ar
f eo
ĠRec on
Ġinter ns
Cas tell
Ġbeg in
ampl ona
Ġpot enciales
Ġrestric ciones
Ġhabl an
Ġdi Ã³
a igÃ¼es
v enta
Ġpresenta dos
ĠJul iÃł
ĠÃ¨ poques
Ġcomple xa
Ġexam in
Ġadop tado
eci eron
ĠES PE
Ġimp ugn
it ec
Ã³r icos
Ã ´
Ġexac titud
Ġpu j
Ġblan cs
ĠM aci
ĠLl iure
ĠW EB
Ġagrad ecer
D S
ĠEnti dades
Ġrecur rir
ĠMa ig
Ġgenera ciones
tur als
Ġguer res
Ġrefer irse
ĠBen estar
Ġprohib ir
Ġtal s
ur ante
ĠC ru
Ġinvestiga cions
Ġunanim itat
Ġemp ate
Ġcontinu Ã³
Ġpriva citat
Ġver dures
Ġfu Ã©
G ar
Ġ10 1
Es tany
Ġhel p
Ġdi em
Ġdibu jo
Ġat letes
J es
Ġver emos
ĠGre at
Ġdue Ã±o
Ġexam inado
Ġpor tant
Ġex itos
Ġtras cend
Ġconten ida
Ġregistr ados
Ġmanip ulaciÃ³
Ġfic ha
Ġcos to
Ġresp irar
Ġconcre tos
ĠPac ÃŃfico
Ġdro ga
Ãłn ima
Ġnomb ramiento
ĠdiseÃ± ar
cho ols
Ġ17 0
avent ura
ĠBan k
Ġtorn eos
Ġadul ta
Ġsu yo
oc on
Ġman can
Ġdirec trices
ĠPa k
Ġdo taciÃ³
Ġaband ono
Ġparad igma
Ġopera tiva
Ã²m ens
Ġtitul aciÃ³n
Ġapr Ã¨s
ĠCla us
Ġdes infec
end rÃł
Ġc igar
Ġrad ia
Ġb ag
Ġcre ciendo
ar me
Ġtelecomun icaciones
Ġob er
Ġpart ÃŃculas
Ġt ria
Ġprocl amar
ACION AL
N ada
d at
ent Ã³
Ġbas adas
Ġdist or
ĠBo ok
Ġdipu tada
ĠTe am
Ġcient ÃŃfiques
Ġcas inos
Ġpreci siÃ³
Ġins ign
Respec te
Ġub ica
Ġforta leza
Ġimagin aciÃ³
CE D
IL L
Ġconstruc ciones
ĠeconÃ²m icament
em issiÃ³
Ġesper amos
Ġyo ung
Ġ19 18
Ġprovin ents
ĠMag dalena
lle u
Ġrepublic Ãł
Ã¡s ticos
T P
Ġtra e
Ġin inter
ĠJu ventud
N ET
Ġculp able
Ġsub stÃłncies
Ġsem anal
S up
Ġrecoll ides
ĠCar tagena
Ġdefec te
198 4
ĠMel illa
Ġdirig ides
ob tenir
Ġnev era
ĠM Ã¡r
Ġllam an
ĠmÃºs icos
Ġpa ella
s elf
Ġof fer
Ġconsider em
ing ton
V iv
Ġasign aciÃ³n
Ġrom Ãł
Ġalgor it
ĠMar g
Ġfemin ista
rat ges
Ġpeix os
Ġcontin ental
ci tos
ĠD ata
pin yÃł
Ġperman encia
ĠTr ump
ĠacompaÃ± ada
Ġfir mas
Ġcreu ar
Ġcontra tado
Ġde vas
Ġfru ites
ĠTan mateix
M os
Ġg ames
ri les
H P
Ġpala u
Ã¯ ns
n d
don de
Ġgu Ãłrdia
Ġcompar teixen
anomen at
ĠDur ing
IV ERS
le u
Ġtin ta
Ġfarmac Ã¨u
or os
Ġo ch
Ġcap as
ee ee
I AL
Ġcomp ut
Ġarrib arÃł
Ġgal eria
Ġg ave
ĠCar bon
Ġinici os
ĠS ome
m end
jo us
ĠDeleg aciÃ³n
ĠP rom
Ġb eso
Ġmus eos
Ġdig na
Ġles iÃ³
Ġv Ã©nen
ĠEste ban
Ġres ign
crip ciones
b ona
Ġag ent
fit ri
Ġtu viera
Ġp ig
Ġviol enta
Ġorient ar
Ġpobla cional
Ġcoloc aciÃ³n
Ġx ico
Ġpolici als
Ġra yos
Ġpid iÃ³
el eg
ON G
Ġl Ã¡m
Ġelec tion
Ġsorte o
AM ENTE
Ġfrag ments
ĠR ica
Ġannoun ced
Ġinter canvi
Ġliber aciÃ³n
Ġsab ido
Å Ĥ
Ġdon aciÃ³
Ġeleg ante
Ġball s
Ġdi am
Ġre baix
Ġencontrar Ã¡s
Ġdom ina
Ġllu ites
âĢ¦ .
Ġmol Ã©
Ġcul te
Cap ÃŃtulo
rÃ¡ ul
Ġprevi os
Ġprecep to
Ġfar macia
Ġd ental
Ġaleg re
Ġdro gues
oportun itats
Ġmobili ari
ĠmÃ¡xim os
Ġen do
Af eg
Pro ced
Ġdepend Ã¨ncies
ĠtÃŃp ic
En ric
al id
Ġd ans
ĠFeder ico
ex amen
Os ona
Ġpa quet
Ġvas os
Ġllam Ã³
j Ã³n
Ġm ys
Ġrob o
Ġcontras t
Ġver ificaciÃ³n
ĠSu Ã¯ssa
in versiÃ³
Ġtorn i
itor ios
Ġentren ar
vi ta
Ġinter con
Ġde tinguts
Ġar ra
ĠC ath
ĠN at
Ġdispos ats
Ġsosten ibles
Ġsomet hing
ĠV ar
Ġestr ena
Ġju guen
ib era
Ġvari ant
Ġas enta
Ġaccid ents
Ã¡m icas
Ġrela tives
Ġdetal la
tamb Ã©
AN O
ĠC ass
Ġl ist
en ciÃ³n
Ġaplic ado
e ign
Ġra ce
Ġre vi
Ġrelig iÃ³s
Ġinici ales
Ġref Ã³s
el ess
Ġprivi leg
el ement
ĠAgust ÃŃ
Ġlar gest
Ġdes ee
Ġp ediat
Ġtra jecte
Ġescen as
Ġresc ate
Ġpag aments
Ġagro aliment
Ġdeleg ado
Ġvuel tas
Ġin ad
Ġator ga
Ġpag esos
Ãłn dol
AM B
Ġhues os
Ġ14 9
ĠSu Ã¡rez
Ġtamb in
ival ent
Ãłs tima
Ġacab o
Ġcap da
tor is
Ġtan ques
ĠdesplaÃ§ ament
. :
Ġtar getes
tur ar
ÃŃs o
Ġameric ano
Ġretor no
Ġindic adors
Ġtempor ales
ĠMat eu
Hist ory
Ġconsell ers
Ġsen cer
Ġmercader ies
ĠU IB
D a
Ġfacul tat
en al
Ġin g
Ġsol edad
Ġsitu ados
Ġresul tan
T OS
ord ina
Ġfib ras
Ġincendi os
f asi
Ġalter ar
Ġesper en
Ġizquier do
ĠI gnasi
ĠSeg uros
ab tes
l ÃŃ
Ġcar den
Ġlider ar
Ġaliment Ãłria
Ġsuel do
Ġgener an
Ġmolec ular
Ġmus e
Ġenerg ies
Ġargu menta
ĠI U
Ġdetec ciÃ³
Ġsobre pas
Ġvege taciÃ³n
ord era
Ġnoctur n
Ġbal oncesto
Ġl ob
ĠB ona
Ġn aciÃ³n
im pl
ĠG i
A us
ĠG N
Ġcaracter es
Ġcapital ista
ren e
Ġnom inal
Ġdel itos
fer encias
Ġsome tidos
ĠquirÃºrg ica
ĠAt lan
ĠTelef Ã³nica
ĠEcu ador
Ġindustri as
Ġo thers
ĠM obil
Dic ho
ĠparÃł graf
Ġconced ir
ĠPAR T
Ġdirig iÃ³
ĠES TE
Ġbos sa
ocas iÃ³
Ġbe h
Ġsustitu ye
Ġcr omos
Ġcam ar
Ġha guessin
Ġrepor tatge
legi ats
r ico
ĠP it
Ġjubil aciÃ³
Ġbe gudes
P lus
Ġexper ien
ĠGuti Ã©rrez
Ġadv ocat
s ur
ĠfreqÃ¼ ent
ĠJohns on
L loc
rim as
ĠA gua
Ġdirec tius
Ġexpl otar
Ġox ÃŃgeno
Ġconvers aciÃ³n
Ġcual idades
Car rera
Ġempren edors
ag ossa
El ec
que tas
Ġexten s
Ġesc asa
F ou
Ġpres cripciÃ³n
Ġsetm anal
Ġocur riÃ³
Ġten is
Ġex quis
Ġof fice
Ġqueda va
Ġrepresenta cions
Ġestim at
Ġrebut jar
Ġstar ted
Ġgas olina
ĠJorn adas
ul i
Ġro ll
y ch
Ġpion era
Ġcl Ãłus
Ġregal os
S oci
Ġdirector es
Ġalem anes
s us
It Ãłlia
Ġso ul
Ġautom Ãłtica
Ġfigur en
m edi
ul ls
Ġsom nis
Ġconstru Ã¯da
Ġconsci entes
cin c
ĠA do
Ġse as
Ġconform an
M er
ĠtrÃ¡ns ito
Ġviv ia
Ġg af
Ġas al
ĠEn seÃ±
ĠEs peci
Ġpapel es
Ã ª
Af ter
ĠTex to
i remos
Ġsa w
Ġrecoll it
Ġaficion ats
inici ar
ĠP un
AM A
B aix
Ġcab ecera
Ġasc ens
Ġi rÃ¡
Ġcom enci
Ã§ an
Ġprodu cida
Ġhist Ã²riques
Ġcor ren
ĠAc ciÃ³
Ġcostu mbre
Ġg em
Ġprimor dial
ĠGu atemala
Ġproporcion an
Ġd amos
Ġpren ent
Ã© ano
Ġp y
âĢ ĭ
ĠMi ami
Ġtin guem
Ġpen itenci
ĠR EL
198 6
ĠCoopera tiva
Ġwrit ten
Ġcil ind
ĠCap it
ĠDe porte
w ers
x en
Ġfactura ciÃ³n
Ġcarb oni
in vestig
Ġfor at
s ki
oc aciÃ³n
Ġconclo ure
ad ern
Ġtor tu
Ġaf ro
ĠsÃŃmb ols
ĠFre der
B a
ĠEm ilio
Ġam ist
ran ge
Ġdesc entral
ĠPal amÃ³s
AD E
Ġacredi taciÃ³n
Ġtercer es
Ġauxili ares
Ġrellev Ãłncia
ĠR D
Ġampli amente
Ġbrin da
ĠS agrada
h ard
Ġayud arÃ¡
Par al
ĠenseÃ± ar
por tes
Ġimpl ÃŃci
Ġ2 20
Ġmedi aciÃ³
Ġperm it
Ġdese os
ĠF ED
ĠL ive
oc key
ĠMar ruecos
Ġal tar
ĠMan comun
Ġtren ca
va cions
Ġarquitec tÃ³n
Ġcer cle
es is
Ġmis sa
ĠcrÃŃ tics
Ġimp ide
ific ador
ĠÃ©x itos
es ia
Go ogle
OR IA
Ġnervi oso
V all
Ġatra p
ĠOf fice
Ġagu antar
Ġle van
Ġbeb er
Ġb elow
Ġelectr om
Ġdesign aciÃ³n
Ġsome one
Ġtaron ja
ĠA lacant
Ġgener ada
Ġvin cle
Ġsu men
Medi ante
V is
Ġaut os
Ġseny ors
Ġunanim idad
ĠP acte
Ġment ida
ĠLib re
Ġimplic ar
M ira
gr ÃŃa
Ġcomien zan
em magatzem
Ġresid ent
Ġguar di
Ġacostu m
Ġsol ares
ros o
Ġcubier tas
Ġusu ally
Ġvo cab
ure u
ĠColec tivo
A ren
Ġconserv ador
ĠBB VA
Ġay untamientos
Ġdescar tar
Ġvin cles
Ġw est
Ġfu i
ĠCal der
Ġinser ciÃ³n
Ġaprof undir
ĠPR IM
O blig
Ġci tados
glÃ©s ies
ĠWord Press
Ġdescrib ed
Ġ4 50
AD ES
ĠM it
Ġara g
Ġqued arse
ĠProvin cia
onÃ³m ico
emp at
Dem ografÃŃa
Ġrecog idos
ĠT AB
Ġfos c
Ġrob ar
alliber ament
ĠRos ario
igual tat
ĠEMP RES
ĠUru guay
Ġconvier ten
Ġlle ve
Ġcomple ixen
ĠAlcal Ã¡
ĠN utri
Ġcontras enya
Ġmue ve
n on
ti du
Ġtard es
Ġform atge
Ġt emÃłtiques
Ġclar as
Ġadap taciÃ³
Ġtom an
Ġimpuls ada
itz aran
ĠRod rigo
Ġsal idas
Ġdescri ure
Ġconser ven
ĠLa ke
Ġviv iendo
Ġdiagn Ã³s
per quÃ¨
Ġrespec tius
il er
Ġintegr ants
Ġincrem enta
Ġcar as
lo y
Ġdesarroll ados
Ġal cal
Ġrecicl atge
Ġcolum nas
ol fo
ĠB ag
es as
A igua
Ġgal etes
Ġprote Ã¯nes
apor ta
Ġacum ular
Ġrel ato
Ġangles a
ĠB adia
Ġtempor als
Ġgra mos
ĠespectÃ¡ culos
ĠprÃŃn cep
Ġofer t
Ġcircum s
im post
Ġrela tions
Ġprepar ant
ĠG rado
Ġtri partit
ĠOrden aciÃ³n
pan ish
Ġdisc ur
PS OE
ĠForm a
ĠacadÃ©m ica
ĠtÃŃp ico
Ġacab arÃł
b urgo
Ġalred edores
Ã¯ lla
R OS
Ġro ad
Ġref ieren
onÃ³m ica
Ġconoc emos
ĠN ev
Ġassegur en
ab ra
Ġpre jud
N ot
ĠmÃ© rito
ĠF ou
Ġinter acciÃ³
Mun icip
Ġestric tament
Ġquad res
ĠRe forma
Ġdeb iendo
Ġsus tancial
Ġconsider arÃ¡
Ġtra tarse
A lex
Ġna cions
Ġprotes tes
Ġdivid ida
Ġ19 17
Ġinstitu ts
ĠPall ars
Ġass essor
ĠCarn aval
ver de
Ġob ispo
Ġre is
ri ta
Ġaprob ar
ĠMerc antil
Ġorg ull
Ġpen e
al idad
Ġinscri ts
Ġnutri entes
Ġdel e
Ġcons tancia
ĠSolid aritat
i tion
Re pres
OL OG
inc ent
l ight
I OR
h at
ĠEn g
Ġprofes ora
Ġvicepresid ente
Ġestad ÃŃstiques
Ġlig ero
Ġcontras te
Ġparcel a
ĠF lam
ĠR onda
Ġenten em
ĠCon tin
ĠT S
ogrÃł fiques
ĠCh r
Ġtan mateix
Ġaut hor
Esper em
iber al
wh ere
ĠS how
Ġtr ue
in forma
land s
Ġrelacion a
id entitat
Ġb lat
Ġart ÃŃstiques
Ġlater als
aj or
Ġgener ado
19 80
Ġhar mon
Ġv ells
des de
Ġherm osa
ĠUS A
M ont
Enti dad
ĠGar raf
P ots
Ġanal ÃŃ
ĠB ou
oc ho
Ġabo ve
Ġvia bilitat
Ġ ut
Ġsupos en
ĠCiutad ella
Ġforma tius
! )
Ġprohib ido
ĠNicol Ã¡s
fer ence
Ġac ross
re tes
Ġcap illa
Ġbon ica
N ivel
Ġs tyle
ul ts
Ġex it
Ã¯ r
ĠP u
Ġgan ancias
Ġlleg at
ĠArm y
Ġadministra tives
Ġemprend edores
adi cional
ĠcÃłm eres
Ġadi ent
E du
Ã¨d it
Ġin vern
l ie
y en
in novaciÃ³
Ġcos tas
ĠPe pe
vin guts
int el
ĠPic asso
vi as
Ġcog er
anomen ada
Ġsangu ÃŃn
Ġam ants
Ġgan adores
Ã³n ima
Ġpu ga
Ġconv Ã¨ncer
Ġson idos
pol is
Ġautom Ã¡tico
Ġno via
Ġdegus tar
Ġesc or
Ġmar g
Ġoblig aciÃ³
ĠC ho
ac cident
ĠR an
ur ÃŃa
ĠM ig
ĠOl ot
ĠCal des
Ġcas al
aj ud
ĠCar l
Ġindic ados
B ajo
U A
Ġargu mento
Ã¡ zar
IS A
Ġmin oria
ER N
Ġvalenci anes
V il
Ġforma tiu
Ġid Ã³n
in gu
ĠestÃłnd ard
Ġfon aments
Ġfeder aciÃ³
ed ificaciÃ³
Ġconcl uye
Ġfesti us
Ġtrans g
ĠA ward
T end
Ġfer ma
Ġc aj
ĠcrÃŃ ticos
ĠDes ign
on tal
di ciÃ³n
ist ente
Ġreflec teix
Ġpu guen
Ġremiti do
ĠSecret ari
ĠOlÃŃmp icos
ad ona
Ġajud at
ĠOrg Ãłnica
Ġdes equilib
Ġestr eno
Ġlocal itzaciÃ³
Ġcicl ista
Ġrepe teix
es mentat
Ġfor tes
ĠW ith
ĠS MS
Ġc iv
ĠP rats
l ip
Ġreac cion
ĠEURO PE
Ġvo taciÃ³n
ĠM I
Ġnaz is
rÃ¡n ea
Ġesca pe
ols o
Ġparlament ari
Ġque ixes
Ġexplic ant
ha urien
di um
Ġs tock
Ġres earch
Ġre ver
Ġfund Ã³
a gu
des p
UN E
Ġnervi os
ĠPrem ios
Ġb ressol
Ġfrecu entemente
Ġca os
Ġresid Ã¨ncies
ĠT y
ĠFuer zas
Ġd ance
d ig
Activ itats
Ġdes pres
Ġgluc osa
Ġvin ya
Ġr Ãºs
ĠCient ÃŃfic
Ġprodu cidos
ĠH y
Ġa fer
ĠM AN
Ġinferior s
pl y
Ġproteg its
Ġend ur
per son
Ġac o
0 80
ne um
ent ena
D in
re os
Ä į
Ġc eller
Ġ11 2
Ġrevel ar
rÃ¡ fico
ĠautonÃ²m ic
P at
Ġpresentar on
Ġdetec ta
ĠincreÃŃ ble
Ġadver tir
Î ½
Ġpes os
Ġinflam aciÃ³n
Ġbenefici ario
entren ament
Ġb its
Ġtra um
ĠAfric an
ĠB og
ulari tats
ĠEx p
Ġconta mos
ci les
Ġlan za
Ġrel ats
Ġocup ada
Ġven cer
Ġmoder nos
Ġp esta
Ġasi ento
ĠlÃ²g ic
Ġll or
Ġsolu cion
Ġrem isiÃ³n
aut ora
AC C
Ġbrit Ã¡nica
Ġsotm etre
Ġfi res
Ġran king
ĠMar atÃ³
Ġredu eix
An dre
ĠEx cel
ĠL ima
Ġll orar
Ġinclu irÃ¡
cid ente
Ġpac to
ĠhectÃ¡ reas
s ÃŃ
ir al
Ġw ords
Ġmantener se
r ons
Ġconten idors
ĠInform Ã¡tica
Ãłn iament
ĠP V
Ġen ough
Ġsp ace
elec tri
Ġf le
Ġpesse tes
Ġesc oger
ĠVirgin ia
se e
Ġestrec ha
si es
Ġdomin ant
Ġparticipa tiva
Ġmonum entos
ĠM ai
Ġartes anal
ĠCON SE
Ġconjun ts
Ġcondem nat
Ġmaes tros
ĠAD MINISTR
Ġcor respons
ven ir
Ġenvej ecimiento
ada jo
Ġs martph
ĠB ud
Ġcul to
Ġher idas
Ġnacional idad
Ġex ci
Ġesta mp
Ġre plante
l Ãł
Ġe ficÃłcia
ĠF edera
Ġrequer imientos
Ã³ b
Ġgrave tat
Ġparcial ment
execu tiu
Ġfes te
Ġs cre
Ġh und
ĠEx terior
Ġexclus iu
Ġreci cla
Ġmag ia
ĠacadÃ¨m ics
Ġor ÃŃgenes
Ġdepen dientes
Ġregul an
Ġutilitz ades
ĠN ie
em Ã¡ticos
Ġg or
ĠT ay
Ġfac turas
Ġri tual
Ġap oder
Ġcab al
ĠPuig cer
ĠSpa in
Ġes tes
Ġun ders
Ġexecu tiu
---------------------------------------------------------------- ----
Ġpres cin
Ġdefens or
ĠK o
Ġblo ques
Ġoc ta
ti gar
Ġtranscurs o
Ġdec ad
od in
Ġcircum stÃłncia
Ġtelev ision
Ġjap onÃ©s
f s
Ġc ese
Ġdispos em
ĠAutor idad
Ġdi as
ĠS EM
Ġas turi
Ġprom in
ĠV Ã¡zquez
Ġress Ã²
Ġa x
Ġ19 19
ĠC Ãł
Ġlater ales
Ġsignifica tiu
og l
Ġdetermin aciÃ³
Ġtra tan
P G
ij Ã³n
Ġmitj anes
Ġdesign ar
ĠCam ino
Ġdiss ol
bo ut
S ent
le ep
Ġin segu
ĠIntegr al
Ġconsid ero
ĠAr nau
Ġabsor ciÃ³n
Ġdol ent
it Ã©s
ĠTa ula
Ġamen aces
Ġbicicle tes
Ġm Ãłn
ĠV igo
arr Ã²s
Ġllarg s
Ġdeman em
Ġdetermin en
Ġredu Ã¯da
Ġreivind icacions
ur banisme
Ġtrac k
p ent
C os
Ġbar es
Ġdol Ã§a
Dav id
Î ¹
th ur
ti cias
Ġvesti do
Ġpav iment
Ġpal e
Ġnacional istes
Ġles ion
Ġs era
ri gues
Ġdiscre p
ĠestratÃ¨g ica
Ġca Ã§a
N e
v ÃŃn
Ġf ly
Ġg one
Ġsencill os
C amb
ĠH os
v iendo
Ġindirec ta
qu eria
ĠS ams
Ġr ond
Ġup on
L ocal
Ġmanip ular
Ġan ima
Ġd anza
l ats
reg aciÃ³
ÃŃ rez
ĠF uster
Ġminer als
Ġconsider ando
ĠRib es
b ury
adajo z
Ġinter posar
ĠÃ¨x its
Ġpro poner
Ġaven Ã§os
Ġrecoman em
ar la
Ġextraordin Ãłries
Ġna zi
ic on
Ġconsigu iendo
ĠPers onas
Ã©r icas
Ġargu mentos
Ġdesesti mar
Ġingles a
por ta
Ã²c rata
Ġhomolog aciÃ³n
ad ing
ĠelÃ©c tricas
el ev
Ġcre adors
Ġpropor ciÃ³
ris on
ĠBer guedÃł
Ġradi aciÃ³n
Ġsta y
ĠM and
ÃĪ N
Ġefec tivos
ĠIn glÃ©s
ĠNo guera
Ġformular is
ost Ã©
Ġpla cas
Ġdescu entos
ON U
ĠelÃ¨c trics
la go
ĠBat xillerat
Ġcapit Ãł
ĠIn forma
Â¡ Â¡
ĠhipÃ³ tesis
ĠVer de
Ġg at
Im ag
Ġcontempor ani
Ġace ites
ĠCurs o
ĠD eu
c ols
Ġconsecu ciÃ³n
Ġconced er
r ones
is ma
Ã¨ re
ĠTelev isiÃ³
Ġcon versiÃ³n
Ġconfirm ado
Ġac re
ĠclÃŃn icas
ĠtrÃł fic
anes e
iller ato
por tiu
eci dos
ate ur
do wn
Ġexpos at
Ġfit xa
Ġsolid ari
Ġ tat
ab o
el ements
Ġab oc
Ġsin ies
Ġescrib e
Ġher b
Ġgra cia
Ġsent idos
ĠFar mac
anim als
ĠOR GAN
ĠMej or
ĠO ce
ĠautÃ©n tico
ex tin
Ġtanc ats
Ġob ed
Ġesc udo
Ġcontribu ciÃ³
apar ell
part ment
Ġpresen tats
Ã³graf o
ĠT otes
ĠN atura
ĠM estre
ĠC AN
Ġsupos o
era bles
Ġbil ingÃ¼
Ġc ra
C RE
Ġstud ents
one y
Ġesc oc
ona bles
m ero
B aby
ĠÃŃn dole
Ġsal arios
Ġaproxim ada
Ġapas ion
l ara
Ġs tates
Ġec olÃ²gic
Ġhim self
n ormal
M arc
Ġqued aron
Ġacum ulaciÃ³n
ĠSeg arra
Ġcur va
N E
ST ITU
ĠF lash
ĠCOM IS
h ero
queb is
ĠPer pinyÃł
aut om
Ġllo gar
Ġproteg it
Ġavis ar
Ġro ta
avan tatge
ĠRel acions
Ġengan x
Ġimplem entaciÃ³n
ĠbÃ¡s icamente
itiner ari
ps on
agrup ament
Ġprof it
ĠCari be
Ġcrec e
Ġcent er
Ġbusc ador
OL U
Ġfinal itzaciÃ³
ĠJ x
Ġc uch
o ficial
ĠT ant
Ġcuales quiera
Ġra mas
Ġexter no
i ja
Ġaum entado
ĠCol om
Ġadjud icaciÃ³n
Ġco ure
ĠK os
ĠF la
Ġreun eix
Ġpresid ida
Ġn ec
IM A
Ġtra uma
Ġev angel
ri ament
Ġproteg idos
Ġestabl iment
Ġras gos
Ġorganitz ades
Ġtradi ciones
Ġaddi tion
Ġfa tiga
ĠcÃ¡r cel
Ġlec tures
mes es
Ġtor os
ĠnÃºvol s
Ġaprof itat
Ġpon drÃ¡
Ġcondicion at
Ġcolec ciones
Ġadecu aciÃ³n
Ġprogram at
as is
ĠautÃ¨n tica
Or questra
ĠVa tic
ĠD J
Ġa guda
Ġsal m
s olo
Ġlocal itats
Ġevid Ã¨ncia
Ġjard in
op tim
ĠavanÃ§ ada
cn ica
Ġparro quia
Ġplante jament
S Ã©
ĠLe on
ĠrÃ©c ord
Ġinten tando
Ġjustific aciÃ³
ĠRe volu
ĠT ec
Ġcob ro
Ġocup en
ĠlÃ¡s er
Ġrom Ãłn
ĠGuadal ajara
ĠSte ve
ĠReg idoria
Ġfinan cers
C OR
Ġconsider i
Ġanti ci
Ġmes urar
Ġnega tivos
ĠPrincip al
Ġtur ista
ĠprÃ¡c ticos
Ã² d
Di umenge
ĠJ en
Ġe ast
Ġvicepresid enta
e ficÃłcia
Ġf estiu
Ġgra bar
m it
Ġ19 14
ve y
Ġcomand ament
Ġfr ÃŃa
tamb iÃ©n
Ġtari fes
Ġdesc arg
Ġass emble
v or
Ġcons igo
Ġan ant
eg en
Ġd istra
ac en
ĠFu ente
Ġque do
rÃ© d
en za
Ġf lash
Ġre marca
Ġinter rump
Ġobten ida
ĠMed ina
Ġesta bles
Ġpr endas
ĠG om
Ġemp or
Ġappe ared
expan siÃ³
Ġdi ga
Ãºn cies
ex pos
urn ÃŃ
Pre par
ĠEstudi o
Ġfre da
CI O
Ġca tas
Ġasign aturas
Ġimpul sa
Ġobs ol
An al
Ġde rog
Con di
ĠF Ãł
d rÃŃa
truc ture
ĠK ir
iz aron
Ġvirtu ales
Ġpodr ÃŃamos
ĠAr men
Ġlibre mente
Ġfuncion ari
Ġver tic
Ġconten cioso
Ġsancion ador
Ġc ach
Ġprov ision
vi Ãł
Ġdem ol
b ella
M itj
ĠcuÃ¡n do
Ġinsufici encia
Ġinter poner
Ġinfantil es
Ġextrac ciÃ³n
Ġaliment ar
Ãłri tas
ĠlÃŃqu idos
ug hout
Ġa vail
Ġresul tante
ĠUR L
Ġdeix o
Ġth ing
Ġpa quetes
ĠK n
ĠMont se
Ġmon itors
Ġk ey
Ġor ques
AS E
Ġal tament
S Ã³c
ĠAl zheimer
iste ixen
Ġw he
Ġen der
P oco
CI S
es tres
Ġlle vo
anes a
Al ba
Ġcr om
dic amente
d ado
Ġrumb o
Ġesmenta des
er ror
Ġfich as
Ġtra zado
Ġexig encia
Ġ( )
ĠB Ã¨lgica
Ġkil os
Ġassoci ades
qu ero
ĠÃ©p ocas
Ġtum ores
encar regat
if i
tit za
Ġcl or
ĠT ib
Ġ19 28
UR S
Ġmanifes tants
Ġespecta culars
Ġcamp anar
ĠD iseÃ±o
ĠcÃ³mo do
Ġcas tig
Ġeix e
Ġimpor tes
ĠEconÃ³m ica
Ġpat ern
Ġesp a
Ġdist Ãłncies
ig Ã³n
Ġexter ns
ov o
Ġinter rog
Ġpi ra
Ġmo ve
Ġsob ren
Ġmal as
ic ally
idad os
Ã² cia
og ene
Ã³rm ula
Ġemple ar
A uto
M entrestant
Ġalim enta
Ġper diendo
ĠA th
Ġdesc om
ag Ã¨ncia
Ġelev ar
ĠAgust ÃŃn
C in
Ġin unda
Ġpublic ades
ĠP amplona
Ġ19 10
Ġcant Ã³
Ġes tant
Ġform ed
Ġl um
ĠSc ott
ris to
Rec on
Ġdepor tista
Ġb in
Ġconfirm aciÃ³n
Ġvolum s
Ġf ocal
Ġtestimon io
Ġcatalan isme
Con se
Ġmediter rÃłnia
Ġmas as
uel to
Ġtre p
Ġespera ba
Ġprofund ament
cu entro
Ã¡r s
Ġtut ela
Ġfac tures
Ġfus iÃ³
Ġreun it
f ora
Ġcont ents
ng els
Ġamb ien
Ġra Ã¯m
Ġreb rÃł
Ġriv als
Ġg iro
am as
til idad
ĠF ox
Ġrec uer
Ġsu mat
Precis ament
Ġemb aj
Ġac orde
Ãłs tiques
tain ed
cion isme
Ġvib ra
Ġvesp rada
Ġc ist
Ġdesp re
Ġra ther
ĠfÃŃs ics
Ġcircu itos
Ġconce j
ĠR ot
ĠcomenÃ§a va
Ġdipu tado
Ġapas sion
Ġtard ar
Ġcompeti ciones
Ġde udas
om ot
Ġdif undir
Ġcompr endido
ĠZel anda
de fin
Ġall otjament
tin yent
Ġos ci
Ġra ma
Ġpar er
Ġvita minas
Ġaleg ria
Ġrecuper at
ĠO k
Ġejemp lar
g is
Es p
ĠSar agossa
Ġnul idad
ĠP y
Ġrepresen tat
Ġclim Ã¡tico
Ġes mentada
Ġtranscur rido
Ġprac ti
ĠSad urnÃŃ
Ġtren es
Prim era
Ãº per
ĠI zquier
ĠcÃ²m ic
esca u
ĠM anten
Ġcontex tos
Ġesqu ina
Ġdre tes
Ġj ueg
Ã ĩ
ĠB ulg
Ġdi et
T RO
ĠCON TR
Ġ ost
Ġdesay uno
Ġb ingo
Ġapren entatge
Ġesc ons
Ġsup Ã²sits
umen ges
Ã¡n eos
i ant
Ġque m
ĠCO VID
Ġdese an
el ia
Ġparticipa tiu
Ġflex ibilitat
Ġin equ
Ġsin ton
Ä ĩ
ĠdinÃłm iques
pany ol
ariz aciÃ³n
ĠJ ew
Ġesten dre
b ec
Ġadhes iÃ³n
Ġdef end
Ġexemp lar
ĠSosten ibilitat
ĠJes uc
Ġinaugu raciÃ³n
Ġassump tes
e is
Ġins istir
Ġeduca tivas
Ġcre emos
ĠaÃ© rea
Ġaccep tat
Ġdon aran
rar y
Ġpar tic
Ġent era
tan er
Ġcerve za
Ã¡ndol os
Ġinc endio
o pa
Agr upaciÃ³
AR AN
c ell
Ġac cent
im enta
oni as
uer te
Ġcogn oms
Ġcal cio
Ġcomp la
Ġa os
Ġb oc
L lu
artic les
Ġmas siva
Ġcomplem enta
Ġmusulm ans
Ġestal viar
Ġrepublic ana
Inform aciÃ³n
Ġvege tals
Ġsus ci
ian as
Ġexterior s
elec tr
Ġp Ã³
i el
ĠHab ana
Ġmedi as
L ey
ĠC olau
Ġasist encial
Ġenvol ta
Ġc Ã²n
ĠB ak
as se
c usiÃ³n
ĠCon ferÃ¨ncia
form es
Ãłr mac
ĠÂ º
ĠP is
gr Ã¡fico
Ġmeta b
us sa
Ġterror ista
v ocats
ĠS Ã¡
Ġj ovent
b ur
k ar
Ġbas c
Ġqued ant
ĠVer d
Ġmediter rani
Ġcamb iÃ³
h on
ĠP rado
F il
Ġm uro
Ġsep ul
Ġdeb ida
al ar
adop ciÃ³
Ġguard Ã³
Ġun eix
Ġconsolid aciÃ³n
ĠFire fox
me j
am ina
Ġrestaur ar
Ġtra tando
n omÃ©s
Ġpa guen
ĠSub direc
ĠP oll
ĠOn line
ĠS cience
Ġinterior s
Ġcomprob aciÃ³n
P s
int ent
ĠLux emb
ĠAm ics
dic s
C amp
Ġf Ã²s
Ġencarg ada
M art
am ic
Ġdeb Ã²
Ġb iz
rab es
ĠG am
M T
Ġagrad aria
Ġequilib ri
Ġcrea tiu
Ġesp on
et ta
Ġimagin aciÃ³n
ĠC uenca
Ġidentific ado
Ġgan ando
lec tuals
Ġadm itir
Ġfant Ãłstic
Ġequip ada
ĠÂ °
Ġfi eld
Ġopen ed
Ġeleg idos
entren ador
Ġas ume
Ġfals os
ĠL ac
Ġpreveu en
Ġteix its
Ġimp id
Ġviv ido
Ã²s of
Ġpens ada
Ġinvi ta
Ġprotocol os
Ġpos es
Ġemo ciÃ³n
Ġrid ÃŃcul
Ġocur rir
Ġlim pia
ĠPol o
Ġgu ÃŃas
ĠLic eu
Ġincons titucional
Ġimplic ados
ĠautonÃ³m ica
Ġfa x
IV OS
Ġrell otge
Ġapor tan
b orn
Ġim posiciÃ³n
Ġin tac
Ġcar am
ĠpolÃŃtic ament
ĠEs tÃ¡
Ġcon tando
Ġdisseny ador
Ġvesti ts
Ġfran co
Ġverm ella
Ã² loga
ex emp
Ġw ife
EC CION
Caracter ÃŃsticas
inter venciÃ³
Ġmas car
ĠVill ar
Ġten Ã©is
Ġdisc usiÃ³n
Ġde ro
Ġjurisdic ciÃ³
Ġexpress at
Ġca e
Ġanal ÃŃtica
Ġes qui
ĠestÃłnd ards
ĠH ugo
ĠN ik
RES PON
Ġseleccion ados
Ġal arma
Ġm uta
all ot
Ġjut jats
u as
Ġcorrec ciÃ³
Ġbr ut
Ġa gar
Ġun ion
Ġfor ce
ĠComp et
Ġpens amientos
Ġcad enes
ĠJ am
ĠTur quia
Ġsur ti
F I
Ã Ĺ
Ġ19 24
ĠMill or
ta ta
Ġent Ã©n
Ġplante jat
Ġarreg lar
Ġpl uges
ĠAr quitectura
Ġlit res
Ġpas tis
ĠAcad emy
Ġle vel
encar rega
Ġdes grÃł
Ġinstruc tor
ĠFr ont
Amb os
ĠPS M
Ġdivid e
r gan
N Ãºmero
Ġmexic ana
Ġneg ociaciones
ĠOlÃŃmp ics
Ġvari aciÃ³n
ĠV erg
Ġator gat
ens eny
Ġpregun to
Ġtermin ales
Ġaf in
ĠT ime
argu ment
[...]
