{"!":0,"\"":1,"#":2,"$":3,"%":4,"&":5,"'":6,"(":7,")":8,"*":9,"+":10,",":11,"-":12,".":13,"/":14,"0":15,"1":16,"2":17,"3":18,"4":19,"5":20,"6":21,"7":22,"8":23,"9":24,":":25,";":26,"<":27,"=":28,">":29,"?":30,"@":31,"A":32,"B":33,"C":34,"D":35,"E":36,"F":37,"G":38,"H":39,"I":40,"J":41,"K":42,"L":43,"M":44,"N":45,"O":46,"P":47,"Q":48,"R":49,"S":50,"T":51,"U":52,"V":53,"W":54,"X":55,"Y":56,"Z":57,"[":58,"\\":59,"]":60,"^":61,"_":62,"`":63,"a":64,"b":65,"c":66,"d":67,"e":68,"f":69,"g":70,"h":71,"i":72,"j":73,"k":74,"l":75,"m":76,"n":77,"o":78,"p":79,"q":80,"r":81,"s":82,"t":83,"u":84,"v":85,"w":86,"x":87,"y":88,"z":89,"{":90,"|":91,"}":92,"~":93,"¡":94,"¢":95,"£":96,"¤":97,"¥":98,"¦":99,"§":100,"¨":101,"©":102,"ª":103,"«":104,"¬":105,"®":106,"¯":107,"°":108,"±":109,"²":110,"³":111,"´":112,"µ":113,"¶":114,"·":115,"¸":116,"¹":117,"º":118,"»":119,"¼":120,"½":121,"¾":122,"¿":123,"À":124,"Á":125,"Â":126,"Ã":127,"Ä":128,"Å":129,"Æ":130,"Ç":131,"È":132,"É":133,"Ê":134,"Ë":135,"Ì":136,"Í":137,"Î":138,"Ï":139,"Ð":140,"Ñ":141,"Ò":142,"Ó":143,"Ô":144,"Õ":145,"Ö":146,"×":147,"Ø":148,"Ù":149,"Ú":150,"Û":151,"Ü":152,"Ý":153,"Þ":154,"ß":155,"à":156,"á":157,"â":158,"ã":159,"ä":160,"å":161,"æ":162,"ç":163,"è":164,"é":165,"ê":166,"ë":167,"ì":168,"í":169,"î":170,"ï":171,"ð":172,"ñ":173,"ò":174,"ó":175,"ô":176,"õ":177,"ö":178,"÷":179,"ø":180,"ù":181,"ú":182,"û":183,"ü":184,"ý":185,"þ":186,"ÿ":187,"Ā":188,"ā":189,"Ă":190,"ă":191,"Ą":192,"ą":193,"Ć":194,"ć":195,"Ĉ":196,"ĉ":197,"Ċ":198,"ċ":199,"Č":200,"č":201,"Ď":202,"ď":203,"Đ":204,"đ":205,"Ē":206,"ē":207,"Ĕ":208,"ĕ":209,"Ė":210,"ė":211,"Ę":212,"ę":213,"Ě":214,"ě":215,"Ĝ":216,"ĝ":217,"Ğ":218,"ğ":219,"Ġ":220,"ġ":221,"Ģ":222,"ģ":223,"Ĥ":224,"ĥ":225,"Ħ":226,"ħ":227,"Ĩ":228,"ĩ":229,"Ī":230,"ī":231,"Ĭ":232,"ĭ":233,"Į":234,"į":235,"İ":236,"ı":237,"Ĳ":238,"ĳ":239,"Ĵ":240,"ĵ":241,"Ķ":242,"ķ":243,"ĸ":244,"Ĺ":245,"ĺ":246,"Ļ":247,"ļ":248,"Ľ":249,"ľ":250,"Ŀ":251,"ŀ":252,"Ł":253,"ł":254,"Ń":255,"Ġd":256,"es":257,"en":258,"Ġde":259,"Ġl":260,"Ġa":261,"er":262,"Ġp":263,"Ġc":264,"ar":265,"ci":266,"on":267,"Ġs":268,"ta":269,"os":270,"or":271,"el":272,"qu":273,"Ġla":274,"an":275,"in":276,"re":277,"al":278,"Ġm":279,"un":280,"Ã³":281,"Ġt":282,"Ġqu":283,"Ġel":284,"ent":285,"ad":286,"ti":287,"as":288,"Ġque":289,"Ġen":290,"Ġi":291,"om":292,"Ġf":293,"Ġes":294,"is":295,"Ġn":296,"ciÃ³":297,"Ġun":298,"ic":299,"ra":300,"Ġv":301,"Ġh":302,"ro":303,"Ġcon":304,"Ã©":305,"ÃŃ":306,"ol":307,"at":308,"Ġdel":309,"em":310,"Ġy":311,"Ġse":312,"Ġper":313,"res":314,"ri":315,"id":316,"Ġo":317,"Ġin":318,"ĠĊ":319,"ec":320,"Ġal":321,"it":322,"Ġre":323,"Ġcom":324,"ĠC":325,"am":326,"âĢ":327,"Ã¡":328,"Ġe":329,"aciÃ³":330,"us":331,"te":332,"Ġb":333,"Ãł":334,"Ġg":335,"Ã©s":336,"ul":337,"Ġpar":338,"le":339,"ia":340,"Ġpro":341,"ed":342,"Ġno":343,"cion":344,"tat":345,"ur":346,"il":347,"mb":348,"gu":349,"Ġha":350,"do":351,"Ġuna":352,"âĢĻ":353,"Ġlos":354,"ĠP":355,"ir":356,"ĠS":357,"ĠE":358,"ĠA":359,"Ã¨":360,"Ġles":361,"ĠM":362,"ter":363,"to":364,"Ġ1":365,"ada":366,"Ġsu":367,"tu":368,"im":369,"ca":370,"ix":371,"Ġdes":372,"la":373,"od":374,"Ġan":375,"tal":376,"ot":377,"Ġpor":378,"cia":379,"ant":380,"Ġ(":381,"Ġlas":382,"Ġdi":383,"tan":384,"Ġamb":385,"aciÃ³n":386,"Ã²":387,"bl":388,"ques":389,"tr":390,"va":391,"ĠL":392,"Ġels":393,"orm":394,"Ãº":395,"Ġ2":396,"oc":397,"Ġac":398,"ig":399,"ente":400,"ĠD":401,"ica":402,"ciÃ³n":403,"ist":404,"era":405,"ici":406,"Ġex":407,"Ã³n":408,"se":409,"Ġj":410,"emp":411,"Ġser":412,"ado":413,"ĠB":414,"ac":415,"di":416,"ari":417,"ĠT":418,"ob":419,"he":420,"si":421,"et":422,"uc":423,"Ġpara":424,"Ã±":425,"ab":426,"eg":427,"ran":428,"um":429,"ĠR":430,"de":431,"da":432,"00":433,"ĠG":434,"ut":435,"ver":436,"ÃŃa":437,"Ġres":438,"El":439,"Ġva":440,"Ġcomp":441,"tes":442,"ĠI":443,"tiv":444,"ien":445,"Ġr":446,"idad":447,"tra":448,"ĠF":449,"itat":450,"ĠÃ©s":451,"ap":452,"ts":453,"tic":454,"por":455,"Ġent":456,"lo":457,"Ġ\"":458,"ient":459,"ons":460,"Ġcons":461,"Ġcu":462,"ment":463,"per":464,"Ġthe":465,"tor":466,"Ġpu":467,"Ġsi":468,"Ã¡s":469,"tar":470,"iz":471,"Ġw":472,"pl":473,"ell":474,"Ġpre":475,"Ġrec":476,"Ġim":477,"fer":478,"Ġdels":479,"ĠmÃ©s":480,"ciones":481,"ĠJ":482,"io":483,"oci":484,"ament":485,"Ã§":486,"Ġpres":487,"Ġto":488,"ador":489,"Ġesta":490,"Ġtra":491,"als":492,"Ġll":493,"Ġas":494,"Ġar":495,"Ġpr":496,"La":497,"ĠV":498,"ing":499,"ales":500,"ona":501,"Ġesp":502,"rec":503,"eix":504,"ten":505,"cions":506,"pos":507,"rim":508,"ĠN":509,"Ġdis":510,"Ġta":511,"Ã¨n":512,"aj":513,"tos":514,"par":515,"En":516,"enta":517,"Ġcomo":518,"Ġof":519,"fic":520,"Ġaques":521,"itz":522,"ue":523,"Ġpod":524,"end":525,"Ġlo":526,"Ġfin":527,"ib":528,"all":529,"ier":530,"Ã¡n":531,"iv":532,"ues":533,"ud":534,"av":535,"any":536,"form":537,"ag":538,"..":539,"Ġcar":540,"obre":541,"Ġcas":542,"Ġpers":543,"Ġob":544,"Ġpos":545,"Ġform":546,"Un":547,"Es":548,"Ġtot":549,"ones":550,"ÃŃs":551,"up":552,"ĊĊ":553,"ida":554,"Ġme":555,"ens":556,"ĠEs":557,"ener":558,"Ġor":559,"Ġinter":560,"ades":561,"eb":562,"emb":563,"ents":564,"ĠH":565,"ando":566,"Ġsobre":567,"ip":568,"ĠmÃ¡s":569,"ina":570,"tas":571,"Ġpas":572,"cul":573,"og":574,"ma":575,"Ġest":576,"Ġ19":577,"ana":578,"ria":579,"ido":580,"Ġentre":581,"eu":582,"ce":583,"min":584,"ha":585,"ill":586,"ho":587,"Ġ3":588,"ug":589,"Ġcap":590,"Ġprim":591,"Ġparti":592,"que":593,"duc":594,"iento":595,"ados":596,"Ġad":597,"Ġman":598,"Ġten":599,"arc":600,"til":601,"ero":602,"Ã¨ncia":603,"pa":604,"gun":605,"Ġcl":606,"ĠO":607,"cl":608,"Â·":609,"atal":610,"ism":611,"ats":612,"Ġmat":613,"ven":614,"ces":615,"pi":616,"tin":617,"vi":618,"Ġcor":619,"Ġ20":620,"Ġmol":621,"tad":622,"rib":623,"Ġtamb":624,"encia":625,"ve":626,"na":627,"--":628,"Ġter":629,"esti":630,"tica":631,"Ġtan":632,"Ġsol":633,"Ġcol":634,"isi":635,"tro":636,"Ġap":637,"ista":638,"ex":639,"Ġnos":640,"Ġsus":641,"Ġreal":642,"ora":643,"ord":644,"ante":645,"Ġemp":646,"ÃŃn":647,"Ġcan":648,"ores":649,"tiva":650,"ara":651,").":652,"gra":653,"ico":654,"Ġhan":655,"Ġpl":656,"Ã©n":657,"pres":658,"ras":659,"Ġesc":660,"enci":661,"ge":662,"uer":663,"Ġab":664,"ĠEl":665,"Ġins":666,"Ġand":667,"Ġcre":668,"ay":669,"tres":670,"Ġcam":671,"aci":672,"ĠIn":673,"ans":674,"ez":675,"tre":676,"),":677,"ble":678,"cional":679,"eci":680,"Ġon":681,"fec":682,"Ġhi":683,"Ġpel":684,"Ġfer":685,"Ġenc":686,"ĠâĢ":687,"eces":688,"Ġmed":689,"ga":690,"ers":691,"cip":692,"op":693,"Ġsin":694,"iu":695,"Ġseg":696,"Ġgran":697,"Ġus":698,"go":699,"Ġseu":700,"Ġrel":701,"Ġreg":702,"Ġcos":703,"ub":704,"gan":705,"ys":706,"Ġals":707,"Ġpued":708,"ya":709,"Ãºn":710,"Ġvol":711,"tament":712,"adas":713,"Ġdon":714,"vers":715,"entes":716,"pon":717,"mente":718,"onal":719,"Ġsoci":720,"Ġlle":721,"jec":722,"titu":723,"Ġnom":724,"ov":725,"du":726,"tura":727,"urs":728,"fes":729,"ema":730,"ĠUn":731,"fici":732,"ita":733,"Ġam":734,"ĠLa":735,"Ġinform":736,"vol":737,"Ġseva":738,"Ġeste":739,"ĠaÃ±":740,"Ġcal":741,"Ġ201":742,"ba":743,"ior":744,"Ġmar":745,"Ġ4":746,"ario":747,"ies":748,"Ġgr":749,"orn":750,"Ġaquest":751,"Ġpa":752,"Ġver":753,"Ġmen":754,"Ġ200":755,"Ġvan":756,"les":757,"Ġpol":758,"Ġdeb":759,"ĠCom":760,"Ġdos":761,"Ġhab":762,"Ġsegu":763,"Ġle":764,"Ġfun":765,"cer":766,"ren":767,"Ġdur":768,"Ġsal":769,"Ġneces":770,"Ġaix":771,"bles":772,"ura":773,"Ġdesp":774,"tim":775,"Ġtre":776,"ĠperÃ²":777,"ular":778,"Ãºbl":779,"Ġresp":780,"dad":781,"Ġ5":782,"Ġson":783,"una":784,"Ġmun":785,"Ġmolt":786,"itar":787,"Ġpot":788,"and":789,"Ġtod":790,"eneral":791,"tir":792,"iÃ³":793,"Ġmes":794,"ÃŃcul":795,"Ã¯":796,"uy":797,"Ġcent":798,"ĠEn":799,"dic":800,"amente":801,"Ġja":802,"Ġdem":803,"Ġens":804,"Ġalgun":805,"gr":806,"tiu":807,"Ġqual":808,"Ġproduc":809,"Ġmod":810,"ĠtambÃ©":811,"ors":812,"Ġco":813,"Ġfor":814,"Ġcontra":815,"Ġcada":816,"ced":817,"ĠAl":818,"Ġtran":819,"ĠCon":820,"sa":821,"ves":822,"co":823,"tual":824,"Ġtemp":825,"Ġte":826,"ific":827,"Ġdifer":828,"ins":829,"ou":830,"Ġth":831,"itu":832,"Ġperm":833,"iÃ³n":834,"tado":835,"rob":836,"tats":837,"ena":838,"Ġpla":839,"ĠW":840,"ard":841,"pe":842,"Ġsigu":843,"Ġaut":844,"ĠCatal":845,"ros":846,"ĠMar":847,"siÃ³":848,"Ġdirec":849,"Ãºs":850,"\".":851,"Ġdesc":852,"baj":853,"Ġimpor":854,"Ã§a":855,"Ġespeci":856,"Ġni":857,"tant":858,"ĠtÃ©":859,"Ġsen":860,"Ġmi":861,"Ġforma":862,"Ġval":863,"iÃ©n":864,"Ġpo":865,"Ġca":866,"tivo":867,"bre":868,"ball":869,"Ġu":870,"if":871,"\",":872,"ĠsÃ³n":873,"Ġho":874,"Ġsec":875,"Ġempres":876,"no":877,"Ġserv":878,"ll":879,"aques":880,"emos":881,"ios":882,"tros":883,"Ġcomun":884,"za":885,"âĢĿ":886,"plic":887,"Ġcr":888,"Ã¼":889,"des":890,"Ġinc":891,"Ãłn":892,"Ġpun":893,"ĠU":894,"jo":895,"ch":896,"Ġcer":897,"idades":898,"Ġaqu":899,"Ġtr":900,"Ġtrans":901,"ĠDE":902,"dos":903,"uro":904,"ja":905,"Per":906,"ep":907,"ement":908,"ĠpÃºbl":909,"Ġ6":910,"Ġprimer":911,"Ġfa":912,"Ġtien":913,"itats":914,"me":915,"ismo":916,"Ġfinal":917,"Ġra":918,"cies":919,"Ġtrabaj":920,"Ġbas":921,"Ġprin":922,"truc":923,"embre":924,"Ġprofes":925,"ola":926,"Ġoc":927,"Ġem":928,"olog":929,"vo":930,"Ġtreball":931,"Ġcontin":932,"tudi":933,"Ġanys":934,"amb":935,"Ġtal":936,"ano":937,"Ġmill":938,"je":939,"ai":940,"ES":941,"ics":942,"Ġaquesta":943,"Ġfins":944,"----":945,"ign":946,"arÃł":947,"Ġequ":948,"Ġsub":949,"Ã¨s":950,"Ġhas":951,"posi":952,"Ġactiv":953,"ĠAn":954,"iment":955,"arios":956,"Al":957,"oment":958,"Ã±a":959,"Ġdia":960,"Ġ-":961,"Ġnue":962,"tur":963,"ĉĉ":964,"ĠÂ":965,"Ġfr":966,"Ġmateix":967,"Ġdef":968,"Ġec":969,"Ġpe":970,"los":971,"cep":972,"xim":973,"Ġdeci":974,"ual":975,"rÃł":976,"ÃŃas":977,"tis":978,"quÃ¨":979,"Ġpass":980,"port":981,"ial":982,"Ġsent":983,"Ġfam":984,"Ġutil":985,"Ġpart":986,"oria":987,"istra":988,"und":989,"Ġsitu":990,"ere":991,"gut":992,"jun":993,"Ãºl":994,"car":995,"No":996,"ĠpolÃŃ":997,"ĠâĢľ":998,"ĠK":999,"arcel":1000,"Ġsuper":1001,"Ġsist":1002,"Ġya":1003,"Ġop":1004,"aÃ±":1005,"Ġfet":1006,"Ġpero":1007,"ĠX":1008,"int":1009,"Ġve":1010,"hi":1011,"tion":1012,"Ġaf":1013,"miento":1014,"aria":1015,"erv":1016,"Ġtu":1017,"ev":1018,"uel":1019,"unya":1020,"Ġti":1021,"ants":1022,"Ġincl":1023,"Ġav":1024,"ER":1025,"Ġera":1026,"Ġso":1027,"Ġgra":1028,"CI":1029,"ili":1030,"erci":1031,"Ġcul":1032,"Ġorgan":1033,"Ġdoc":1034,"Ġnues":1035,"Ġresul":1036,"empre":1037,"gua":1038,"Qu":1039,"aran":1040,"rÃ©s":1041,"Ġpubl":1042,"ust":1043,"Ġmanera":1044,"Ġprogra":1045,"Ġ.":1046,"Ġquan":1047,"ĠCatalunya":1048,"Ġprincip":1049,"Ġvida":1050,"Ġass":1051,"Ġ7":1052,"Ġmay":1053,"Ġri":1054,"Ġfue":1055,"In":1056,"Ġgu":1057,"ĠperquÃ¨":1058,"vid":1059,"000":1060,"Ġconf":1061,"19":1062,"ass":1063,"den":1064,"tÃŃcul":1065,"adores":1066,"Ġespecial":1067,"Ġcatal":1068,"Ġprop":1069,"arÃ¡":1070,"ministra":1071,"able":1072,"ON":1073,"segu":1074,"Ġ|":1075,"Ġ8":1076,"arcelona":1077,"Si":1078,"Ġ18":1079,"rer":1080,"Ġ9":1081,"ĠtambiÃ©n":1082,"Ġtots":1083,"Ġtodo":1084,"icos":1085,"Ġapar":1086,"Ġmoment":1087,"Ġelec":1088,"Ġtres":1089,"arro":1090,"Ġro":1091,"Ġpuede":1092,"ĠSan":1093,"idos":1094,"Ġrealiz":1095,"amos":1096,"ula":1097,"bil":1098,"Ġmuc":1099,"erc":1100,"20":1101,"EN":1102,"Ġz":1103,"its":1104,"Ġmo":1105,"Ġcual":1106,"Ã³m":1107,"rem":1108,"Ġestat":1109,"Ġli":1110,"Ġprimera":1111,"Ġdesde":1112,"Ġinf":1113,"Ġciu":1114,"Ġloc":1115,"Ġsab":1116,"ĠaixÃ²":1117,"Ġis":1118,"Ġ10":1119,"ĠRe":1120,"Ġmin":1121,"ie":1122,"Els":1123,"terior":1124,"Ġhist":1125,"esp":1126,"Ġjun":1127,"Ġmal":1128,"cn":1129,"ges":1130,"Ġgrup":1131,"bor":1132,"Ġdic":1133,"Ġmuy":1134,"Ġrela":1135,"esc":1136,"ĠaÃ±os":1137,"Ġdist":1138,"ivers":1139,"tras":1140,"Ġrepres":1141,"vern":1142,"Ġconc":1143,"tac":1144,"gi":1145,"Ġimp":1146,"Ġmej":1147,"Ġpoder":1148,"aris":1149,"ĠestÃ¡":1150,"ito":1151,"Los":1152,"Ġperson":1153,"Ġplan":1154,"Ġconsid":1155,"via":1156,"Ġestudi":1157,"Ġx":1158,"Ġhe":1159,"Ġweb":1160,"Ġefec":1161,"Ġhasta":1162,"icas":1163,"pany":1164,"ĠBarcelona":1165,"Ġparte":1166,"lar":1167,"Â»":1168,"itzaciÃ³":1169,"Ġseus":1170,"Ġtrob":1171,"atur":1172,"arse":1173,"itj":1174,"uros":1175,"ret":1176,"po":1177,"ess":1178,"tados":1179,"nos":1180,"Ġind":1181,"antes":1182,"rÃ¡":1183,"Ġref":1184,"taciÃ³":1185,"Ġtip":1186,"ĠestÃł":1187,"Ġpersones":1188,"Ġsor":1189,"isme":1190,"ion":1191,"ine":1192,"izaciÃ³n":1193,"Ġtin":1194,"zo":1195,"Ġben":1196,"hos":1197,"tÃŃculo":1198,"Ġneg":1199,"Ġlloc":1200,"Ġcel":1201,"Ãłria":1202,"Ġsense":1203,"ome":1204,"Ġecon":1205,"isiÃ³n":1206,"Ġpersonal":1207,"Ġaltres":1208,"th":1209,"iente":1210,"Ġpoc":1211,"Ġcomen":1212,"AR":1213,"Ġinv":1214,"Ġk":1215,"Aques":1216,"Ġnorm":1217,"Ġgeneral":1218,"OS":1219,"ĠPro":1220,"ure":1221,"rar":1222,"ĠAr":1223,"ella":1224,"istes":1225,"ĠY":1226,"ĠCar":1227,"gar":1228,"Ġtrav":1229,"tico":1230,"Ġwas":1231,"anda":1232,"ric":1233,"Ġci":1234,"Ġvi":1235,"Ãī":1236,"itzar":1237,"Ã²ria":1238,"ĠPar":1239,"iendo":1240,"...":1241,"Ġet":1242,"oll":1243,"han":1244,"Ġcontinu":1245,"ĠÃºl":1246,"ino":1247,"adors":1248,"ĠpaÃŃs":1249,"endo":1250,"Ġparticip":1251,"Ġmunici":1252,"atge":1253,"Ġna":1254,"Ġcuando":1255,"Ġtodos":1256,"Ġservici":1257,"Ġprev":1258,"Ġprojec":1259,"ĠtravÃ©s":1260,"ugar":1261,"Ġtotal":1262,"Ġsistema":1263,"tante":1264,"tivos":1265,"Ġer":1266,"overn":1267,"Ã±o":1268,"rip":1269,"Ġsocial":1270,"ern":1271,"fica":1272,"omo":1273,"Ġset":1274,"taciÃ³n":1275,"igu":1276,"tius":1277,"pec":1278,"Ġ15":1279,"Ġgener":1280,"Ġarrib":1281,"ribu":1282,"Ġveu":1283,"ible":1284,"imiento":1285,"erg":1286,"Ġfe":1287,"Ġestar":1288,"Ġcomple":1289,"ĠPer":1290,"Ġserve":1291,"Ġniv":1292,"Ġactual":1293,"Ġvis":1294,"ne":1295,"Ġma":1296,"Ġprobl":1297,"Ġat":1298,"osa":1299,"ala":1300,"AS":1301,"De":1302,"Ġtant":1303,"ĠGeneral":1304,"tec":1305,"Se":1306,"ĠquÃ¨":1307,"versi":1308,"ĠaÃ±o":1309,"idas":1310,"Ġmon":1311,"Ãłs":1312,"Ġmant":1313,"edad":1314,"Ġmater":1315,"Ġmas":1316,"ĠCas":1317,"Con":1318,"Ġequip":1319,"jar":1320,"lan":1321,"'s":1322,"ĠDe":1323,"der":1324,"Ġmis":1325,"ĠÃ¡":1326,"ite":1327,"amiento":1328,"plica":1329,"quier":1330,"cab":1331,"entar":1332,"Ġmor":1333,"ĠÂ«":1334,"Ġtiene":1335,"Ġbar":1336,"Ġconv":1337,"Ġrefer":1338,"Ġbe":1339,"atos":1340,"Ã²m":1341,"gen":1342,"Ġmedi":1343,"ÃŃt":1344,"Ã²n":1345,"Ġexper":1346,"ĠasÃŃ":1347,"....":1348,"ĠLe":1349,"Por":1350,"uen":1351,"Ġdonde":1352,"Ar":1353,"ecu":1354,"AL":1355,"Ã³s":1356,"Ġcurs":1357,"eros":1358,"ith":1359,"Ġall":1360,"ental":1361,"erra":1362,"Ãºm":1363,"Ġapro":1364,"ĠJo":1365,"Ġdar":1366,"ries":1367,"Ġtiemp":1368,"pend":1369,"Ġsim":1370,"Ġveg":1371,"Ġposi":1372,"Ġpresenta":1373,"Ġ199":1374,"Ġcaso":1375,"ueg":1376,"ĠCons":1377,"esta":1378,"rid":1379,"AN":1380,"Ġpat":1381,"Ġdurant":1382,"Ġleg":1383,"Ġdesarro":1384,"Ġcont":1385,"Ġedi":1386,"Ġpropi":1387,"Ġcondi":1388,"ĠnomÃ©s":1389,"Ġrespons":1390,"Ġmarc":1391,"elec":1392,"Ġcontro":1393,"Ġtras":1394,"mos":1395,"Ġag":1396,"Ġev":1397,"tiques":1398,"Ġtemps":1399,"Ġmos":1400,"Ġmitj":1401,"aix":1402,"Ġhum":1403,"ĠdesprÃ©s":1404,"Ġej":1405,"Ġceleb":1406,"li":1407,"Ġhay":1408,"Ġdivers":1409,"rada":1410,"rig":1411,"Ġvez":1412,"sos":1413,"ines":1414,"respon":1415,"Ġara":1416,"aciones":1417,"Ġprov":1418,"Ġpublic":1419,"ars":1420,"eny":1421,"ini":1422,"Ġdir":1423,"las":1424,"ea":1425,"entre":1426,"ton":1427,"ĠVal":1428,"Ġdocum":1429,"eo":1430,"Ġsan":1431,"aron":1432,"Ãīs":1433,"Ã¨ncies":1434,"yec":1435,"ĠEuro":1436,"OR":1437,"ls":1438,"eres":1439,"adi":1440,"ban":1441,"Ġsem":1442,"Ġproced":1443,"Ġrespec":1444,"oma":1445,"qui":1446,"cÃ©s":1447,"ĠaixÃŃ":1448,"Ġmejor":1449,"Ġreci":1450,"illa":1451,"Ġgesti":1452,"hora":1453,"ĠEspa":1454,"tit":1455,"ont":1456,"ĠSant":1457,"Ġactu":1458,"ĠdÃŃa":1459,"Ġcorrespon":1460,"Ġmayor":1461,"fr":1462,"tific":1463,"Ġtrac":1464,"ells":1465,"eta":1466,"Ġhacer":1467,"ticas":1468,"oy":1469,"Ġlib":1470,"ĠDi":1471,"Ġrep":1472,"emÃ¡s":1473,"ritor":1474,"uda":1475,"anÃ§":1476,"est":1477,"Ġbien":1478,"cias":1479,"Ġpresid":1480,"Ġcin":1481,"ientos":1482,"cal":1483,"Ġdurante":1484,"Ġpag":1485,"Ġtiempo":1486,"altres":1487,"Âł":1488,"ĠNo":1489,"Ġpartir":1490,"encias":1491,"Ġotros":1492,"Ġpens":1493,"Ġrev":1494,"cio":1495,"Ġpri":1496,"Ġ12":1497,"ted":1498,"An":1499,"abor":1500,"ĠÃºltim":1501,"gl":1502,"Ġdeix":1503,"ĠCh":1504,"ĠInter":1505,"lament":1506,"Ġmillor":1507,"tics":1508,"lu":1509,"ĠAs":1510,"Ġmerc":1511,"acions":1512,"Ġtorn":1513,"Ġlocal":1514,"entro":1515,"IC":1516,"tud":1517,"ÃŃan":1518,"Ġmismo":1519,"ĠThe":1520,"Ġsector":1521,"anes":1522,"iques":1523,"Ġide":1524,"men":1525,"abil":1526,"au":1527,"ĠnÃºm":1528,"ril":1529,"icial":1530,"Ġpes":1531,"Ã³r":1532,"ral":1533,"II":1534,"Ġpersona":1535,"Ġautor":1536,"dre":1537,"udad":1538,"Ġrecon":1539,"Ġhom":1540,"Ġespec":1541,"ecn":1542,"termin":1543,"Ġtel":1544,"Ġobs":1545,"Ġaplic":1546,"Les":1547,"Ġmunicip":1548,"Ġdiferents":1549,"estig":1550,"Ġofer":1551,"Ġcomunic":1552,"Ġusu":1553,"Ġencara":1554,"Ġtrabajo":1555,"Ġvalor":1556,"con":1557,"teri":1558,"nes":1559,"Ġsign":1560,"Ġcaus":1561,"Ġhem":1562,"As":1563,"Ġmaj":1564,"Ġcab":1565,"Una":1566,"atura":1567,"Ġcat":1568,"Ġdesen":1569,"Ġpossi":1570,"Ġven":1571,"tada":1572,"oto":1573,"10":1574,"Ġfu":1575,"Ġeuros":1576,"gual":1577,"Ġnatur":1578,"cil":1579,"AD":1580,"xa":1581,"inal":1582,"ĠÃ©":1583,"Las":1584,"Ġobl":1585,"ong":1586,"Ġexp":1587,"leg":1588,"Ġproces":1589,"gui":1590,"ĠFran":1591,"Ġpersonas":1592,"Ġconsider":1593,"ÃŃm":1594,"Ġtar":1595,"Ġwith":1596,"Ġviv":1597,"ĠSe":1598,"Ġfuncion":1599,"--------":1600,"Ġuno":1601,"cin":1602,"Ġqued":1603,"Ġhor":1604,"Ġfaci":1605,"Ġtenir":1606,"Ġwh":1607,"tell":1608,"Ġlugar":1609,"Ġtanto":1610,"200":1611,"can":1612,"volu":1613,"Ġfal":1614,"Ġseves":1615,"olu":1616,"arias":1617,"Ġutiliz":1618,"ke":1619,"cid":1620,"Ġemb":1621,"Ġch":1622,"Ġthat":1623,"siÃ³n":1624,"Ġay":1625,"gres":1626,"ĠReg":1627,"Ġcir":1628,"emas":1629,"zar":1630,"ori":1631,"ich":1632,"cis":1633,"Ġcasa":1634,"ĠâĢĵ":1635,"trar":1636,"Ġllib":1637,"reg":1638,"Ġfac":1639,"Ġcompl":1640,"Ġcamb":1641,"rac":1642,"ate":1643,"atre":1644,"Ġcuenta":1645,"Ã©r":1646,"Ġ'":1647,"eixen":1648,"juntament":1649,"Ġfuer":1650,"Ġbus":1651,"Ġmil":1652,"ĠinformaciÃ³n":1653,"Ġ17":1654,"Ġinde":1655,"Ġjug":1656,"ui":1657,"Ġ30":1658,"mar":1659,"acter":1660,"Ġaj":1661,"Ġ0":1662,"reu":1663,"ifica":1664,"Ġvisi":1665,"ĠJos":1666,"Ã³lo":1667,"ato":1668,"ientes":1669,"erm":1670,"Ãłr":1671,"Ġcompr":1672,"Ġinterna":1673,"Ġjo":1674,"ento":1675,"Ã¡c":1676,"Ġacon":1677,"arg":1678,"Ġdin":1679,"Ġne":1680,"com":1681,"ĠSal":1682,"Ġdom":1683,"tants":1684,"Ġacab":1685,"Ġqui":1686,"Com":1687,"Ġnou":1688,"ĠÃºn":1689,"af":1690,"cs":1691,"tives":1692,"ĠbÃ©":1693,"Ġprem":1694,"ĠartÃŃculo":1695,"Ġgovern":1696,"Ġdetermin":1697,"ĠAd":1698,"panya":1699,"Ġprograma":1700,"Ġempresa":1701,"Ġafec":1702,"Ġur":1703,"ull":1704,"Ãłc":1705,"Ġ14":1706,"Ġestabl":1707,"rea":1708,"ok":1709,"icia":1710,"Ġveure":1711,"Ġ16":1712,"Ġint":1713,"oble":1714,"Ġclas":1715,"uj":1716,"Ġestan":1717,"Ġprodu":1718,"sevol":1719,"rat":1720,"ÃŃfic":1721,"Ġdif":1722,"Ġanti":1723,"aquest":1724,"Ġcompar":1725,"Ġderec":1726,"Ġ,":1727,"lam":1728,"Ġ13":1729,"Ġzona":1730,"Ġorig":1731,"ĠMad":1732,"Ġciutat":1733,"Ġpoden":1734,"ĠlÃŃn":1735,"edi":1736,"Ġresta":1737,"Ġhavia":1738,"Ġsido":1739,"Ġagr":1740,"Ġciudad":1741,"Ġpueden":1742,"Ġproyec":1743,"emes":1744,"Ġestos":1745,"Ġyou":1746,"rir":1747,"Ġtur":1748,"argo":1749,"Ġfil":1750,"Ġpobl":1751,"anos":1752,"Ġconten":1753,"Ġdisc":1754,"tivas":1755,"ert":1756,"Ġmus":1757,"Ġau":1758,"Ġescri":1759,"Ġestable":1760,"etat":1761,"Ġbaj":1762,"Tamb":1763,"Ġinte":1764,"ĠsÃŃ":1765,"Ġfi":1766,"Ġencu":1767,"ly":1768,"Ġmodel":1769,"Ġpen":1770,"Ġtotes":1771,"ulo":1772,"istas":1773,"uper":1774,"iste":1775,"Ġuns":1776,"Des":1777,"mo":1778,"ibil":1779,"ĠSoci":1780,"Ġobje":1781,"red":1782,"Ġsempre":1783,"Ġlabor":1784,"Ġinten":1785,"unque":1786,"ece":1787,"var":1788,"ĠÃ":1789,"Ġlleg":1790,"uÃ©s":1791,"Ġtrata":1792,"Ġden":1793,"Ġcosa":1794,"iter":1795,"Ġany":1796,"aquesta":1797,"Ġoblig":1798,"Ġby":1799,"ht":1800,"Ġadministra":1801,"has":1802,"lec":1803,"Ġprincipal":1804,"Ġ11":1805,"Ġdisposi":1806,"ols":1807,"Ġprogram":1808,"Ġtempor":1809,"ĠmÃ³n":1810,"Ġtend":1811,"Ġtit":1812,"sion":1813,"Ġpodr":1814,"net":1815,"unta":1816,"Ġcop":1817,"Ġcanvi":1818,"Ġcomerci":1819,"emente":1820,"Ġcontrol":1821,"Ġcri":1822,"Ġcualquier":1823,"Ġqualsevol":1824,"Ġtecn":1825,"ĠZ":1826,"Ã³g":1827,"ĠEspaÃ±a":1828,"ĠestÃ¡n":1829,"llo":1830,"Ġpon":1831,"ticos":1832,"ĠmÃł":1833,"ixer":1834,"ĠLl":1835,"Ġpropos":1836,"Ġespany":1837,"avor":1838,"Ġrecurs":1839,"ĠMan":1840,"Ġid":1841,"Ġnombre":1842,"unt":1843,"Ġgent":1844,"Ġhec":1845,"ares":1846,"itos":1847,"Ġetc":1848,"ĠNa":1849,"oles":1850,"Ġpels":1851,"Ġpassat":1852,"Ġprojecte":1853,"Ġnov":1854,"ĠCam":1855,"uego":1856,"30":1857,"ÃŃo":1858,"adora":1859,"Ġbanda":1860,"Ġdispon":1861,"Ġbo":1862,"tantes":1863,"qÃ¼":1864,"Ġllen":1865,"Ġ25":1866,"ordin":1867,"Ġdies":1868,"jos":1869,"Ġyo":1870,"ĠCol":1871,"Ġterritor":1872,"Ġpues":1873,"mp":1874,"Ġnostre":1875,"Ġdiss":1876,"Ġnostra":1877,"ital":1878,"ots":1879,"ĠAc":1880,"Ġvin":1881,"Ġigual":1882,"tamente":1883,"sions":1884,"AT":1885,"Para":1886,"11":1887,"Ġdecl":1888,"tima":1889,"Ġcaracter":1890,"rag":1891,"ĠpolÃŃtica":1892,"graf":1893,"omb":1894,"âĢĵ":1895,"Ġaquell":1896,"Ġtipo":1897,"ĠCo":1898,"ÃŃl":1899,"Ġdatos":1900,"ĠCor":1901,"unci":1902,"Ġhace":1903,"tru":1904,"Ġconsum":1905,"Ġdirig":1906,"avant":1907,"pen":1908,"ĠMon":1909,"ĠnÃºmero":1910,"Ġclar":1911,"cel":1912,"Ġdues":1913,"ĠCan":1914,"Ad":1915,"ĠQ":1916,"Ġdonar":1917,"ĠOr":1918,"Ġpi":1919,"uesto":1920,"Ġindi":1921,"iones":1922,"efici":1923,"Ġmanten":1924,"ĠPa":1925,"Ġtenen":1926,"Ġalum":1927,"Ġsiempre":1928,"ĠmÃºs":1929,"Ġren":1930,"rera":1931,"endre":1932,"art":1933,"ĠGu":1934,"ron":1935,"IS":1936,"ologÃŃa":1937,"ĠMadrid":1938,"seguir":1939,"Ġpap":1940,"Ġgas":1941,"Ġotras":1942,"Ġconjun":1943,"Ġotro":1944,"Â¿":1945,"Ġestr":1946,"Ġinvestig":1947,"uts":1948,"Ġaquests":1949,"ris":1950,"IN":1951,"ĠcomenÃ§":1952,"Ġinstal":1953,"eria":1954,"Ġpop":1955,"Ġmundo":1956,"volup":1957,"Ġmov":1958,"stitu":1959,"Ġpartici":1960,"Ġencon":1961,"Ã²g":1962,"Ġlim":1963,"Ġit":1964,"Ġning":1965,"Ġconver":1966,"ĠinformaciÃ³":1967,"âĢĿ.":1968,"ity":1969,"Ġrepresenta":1970,"Ġconsul":1971,"Ġdades":1972,"Ġvig":1973,"Ġconstitu":1974,"Ġtex":1975,"ef":1976,"equ":1977,"uerdo":1978,"Ġda":1979,"Ġ198":1980,"Ġservicios":1981,"her":1982,"Ġpaci":1983,"Ġampl":1984,"Ġsegun":1985,"clus":1986,"esa":1987,"guin":1988,"Ġvia":1989,"Ġnecess":1990,"Ã±os":1991,"Ġcasos":1992,"Ġfran":1993,"lic":1994,"EC":1995,"ple":1996,"ima":1997,"Ġinici":1998,"uz":1999,"Ġtener":2000,"das":2001,"Ġdirector":2002,"Ġsea":2003,"Ġcompet":2004,"Ġmenos":2005,"Ġconoci":2006,"inar":2007,".-":2008,"Ġcapaci":2009,"Ġesper":2010,"Ġserveis":2011,"iversi":2012,"Ġobten":2013,"Ã¨cn":2014,"erÃŃa":2015,"ĠserÃł":2016,"Ġbase":2017,"of":2018,"Ġporque":2019,"12":2020,"wn":2021,"ensa":2022,"Ġaten":2023,"ures":2024,"Ġtradi":2025,"Ġreb":2026,"ĠPla":2027,"Ġexpres":2028,"Ġnuevo":2029,"Ġnivel":2030,"Ġnuev":2031,"Ġsigui":2032,"eti":2033,"Ġselec":2034,"ian":2035,"ĠCl":2036,"ide":2037,"Ġdistin":2038,"Ġdestin":2039,"Ġfund":2040,"Ġmomento":2041,"Ġllam":2042,"Ġfon":2043,"ĠQu":2044,"ĠComun":2045,"pre":2046,"Ġsetm":2047,"Ġtodas":2048,"Ġrelacion":2049,"ĠespaÃ±":2050,"ĠMun":2051,"Ġfir":2052,"aba":2053,"ĠUnivers":2054,"Ġjul":2055,"Ġconven":2056,"Ġpal":2057,"Ġred":2058,"Ġbon":2059,"Ġtota":2060,"ĠPor":2061,"Ġgen":2062,"Ġrequ":2063,"Ġdre":2064,"lex":2065,"ĠLA":2066,"Ġdo":2067,"Ġinstitu":2068,"ĠsÃ³lo":2069,"ĠĠ":2070,"ridad":2071,"ase":2072,"Ġprepar":2073,"The":2074,"Ġmet":2075,"Ġpresent":2076,"Ġreun":2077,"ĠserÃ¡":2078,"ĠLle":2079,"Ġrem":2080,"Ġnatural":2081,"Ġelectr":2082,"ĠDirec":2083,"Ġabans":2084,"itzat":2085,"Ġanterior":2086,"ional":2087,"Ġresid":2088,"ENT":2089,"Ġmad":2090,"Ġident":2091,"Ajuntament":2092,"Ġnostres":2093,"Ġdiv":2094,"ierno":2095,"ologia":2096,"ical":2097,"Ġdavant":2098,"Ġconstruc":2099,"gina":2100,"ĠÃł":2101,"tural":2102,"Ġexplic":2103,"cu":2104,"for":2105,"Ġcomb":2106,"Ġtermin":2107,"Ġsup":2108,"forma":2109,"Ġdesenvolup":2110,"Ġsa":2111,"Ġpermet":2112,"Ãłncia":2113,"ĠdÃŃas":2114,"Ã¡l":2115,"iqu":2116,"ecer":2117,"els":2118,"ĠaquÃŃ":2119,"encial":2120,"ĠAm":2121,"Ġpeti":2122,"Ġfut":2123,"uta":2124,"Ġestas":2125,"Ġencuent":2126,"iti":2127,"Ġtro":2128,"orpor":2129,"Ġil":2130,"Ġexist":2131,"rup":2132,"atges":2133,"olÃ³g":2134,"az":2135,"ĠcatalÃł":2136,"ĠLey":2137,"dia":2138,"eca":2139,"ost":2140,"Ġfrom":2141,"Ġdec":2142,"Ġantes":2143,"âĢ¢":2144,"Ġnacional":2145,"Ġfoto":2146,"Aquest":2147,"seg":2148,"ID":2149,"Ġotra":2150,"partament":2151,"Ġbu":2152,"Ġ/":2153,"Aix":2154,"Ġalguna":2155,"ila":2156,"Ġseguir":2157,"tubre":2158,"Ġacces":2159,"inter":2160,"gon":2161,"Ġesto":2162,"Ġdebe":2163,"uls":2164,"Ã¨r":2165,"Ġrecom":2166,"ides":2167,"Ġdins":2168,"ĠtÃŃt":2169,"tando":2170,"Ġir":2171,"Ġanim":2172,"Ġacom":2173,"ira":2174,"Ġorden":2175,"ĠmÃ©":2176,"uesta":2177,"Ġsur":2178,"Ġnuestro":2179,"izar":2180,"ĠeconÃ²m":2181,"ĠmÃ¡":2182,"ender":2183,"Ġapor":2184,"Ġpan":2185,"Ġsegons":2186,"crip":2187,"tores":2188,"Ġsolu":2189,"ÃŃstica":2190,"Ġfinan":2191,"ĠEx":2192,"ACI":2193,"ĠtÃ©cn":2194,"are":2195,"eron":2196,"Ġrecord":2197,"Ġindepend":2198,"ĠBar":2199,"Ãłl":2200,"Ġfavor":2201,"imen":2202,"itor":2203,"Ġgan":2204,"Ġ24":2205,"ĠdespuÃ©s":2206,"iments":2207,"Ġdedic":2208,"Ġvegada":2209,"Ġpregun":2210,"Ġfan":2211,"eza":2212,"Ac":2213,"Ġbaix":2214,"Ġfacil":2215,"Ġinteres":2216,"alu":2217,"Ġsolici":2218,"Ġmolts":2219,"Ġnecessi":2220,"Ġnova":2221,"Ġol":2222,"Ġobjec":2223,"Ġcla":2224,"Ġbenefici":2225,"50":2226,"ferm":2227,"Ġquier":2228,"Ġpunt":2229,"itza":2230,"Ġnot":2231,"âĢĿ,":2232,"ela":2233,"tera":2234,"Ġjorn":2235,"Ġsolo":2236,"entos":2237,"ĠEstado":2238,"Ġextra":2239,"Ġuso":2240,"che":2241,"upos":2242,"ĠmÃŃn":2243,"Ġexemp":2244,"Ġrecor":2245,"Ġrecib":2246,"ĠCal":2247,"ĠPol":2248,"ĠConse":2249,"resa":2250,"iga":2251,"Ã²r":2252,"ticular":2253,"Ġabs":2254,"Ġtipus":2255,"Ġlec":2256,"ĠpÃºblic":2257,"bol":2258,"__":2259,"Ġbi":2260,"Ãłries":2261,"Ġnegoci":2262,"Ġofrec":2263,"Ġaunque":2264,"ĠLos":2265,"ind":2266,"uerra":2267,"Ġmani":2268,"Ã²s":2269,"Ġtienen":2270,"oni":2271,"Ġcamp":2272,"ach":2273,"Ġeuro":2274,"Esta":2275,"uso":2276,"gin":2277,"Ġservicio":2278,"ivil":2279,"pital":2280,"uns":2281,"lla":2282,"eric":2283,"cionales":2284,"Ġquals":2285,"umpl":2286,"Ġsuperior":2287,"aje":2288,"ĠpÃ¡":2289,"ificaciÃ³n":2290,"pro":2291,"Ġquien":2292,"EM":2293,"Ġfamili":2294,"Ġservei":2295,"Ġĉĉ":2296,"iversitat":2297,"Ġconeix":2298,"portun":2299,"Ġocas":2300,"Ġaltre":2301,"Ġtri":2302,"raf":2303,"Ġpresente":2304,"Ġpin":2305,"ĠEls":2306,"Ġunos":2307,"ĠademÃ¡s":2308,"Ġciutad":2309,"Ġdesta":2310,"Ġtor":2311,"Ġtom":2312,"ĠfamÃŃl":2313,"Ġindic":2314,"obierno":2315,"teg":2316,"Ġ[":2317,"ĠEurope":2318,"18":2319,"Ġmul":2320,"ĠMed":2321,"ites":2322,"Ġproductos":2323,"Ġhores":2324,"atro":2325,"Ġdesarrollo":2326,"Ġvaig":2327,"trat":2328,"Ġguany":2329,"Ġtrobar":2330,"IT":2331,"ĠsegÃ¼":2332,"Ġanar":2333,"ĠtÃ¨cn":2334,"Ġmedio":2335,"Ġpartit":2336,"Ġdeber":2337,"ns":2338,"rit":2339,"Ġgaran":2340,"Ġhis":2341,"Ġrecursos":2342,"Ġvari":2343,"labor":2344,"Ġimportant":2345,"Ġjus":2346,"Ġ2010":2347,"Ġaquestes":2348,"Ġello":2349,"tors":2350,"ets":2351,"Ġpromo":2352,"Ġcapital":2353,"ĠMin":2354,"Ġped":2355,"Ġhecho":2356,"ĠGran":2357,"iure":2358,"ice":2359,"umen":2360,"Ġarribar":2361,"Ġestado":2362,"Ġ100":2363,"Ã¨ixer":2364,"Ġnuestra":2365,"Ġprom":2366,"Ġdefini":2367,"Amb":2368,"Ġcontac":2369,"Ġcateg":2370,"Ġgl":2371,"Ġ22":2372,"ator":2373,"Ġdisp":2374,"duca":2375,"tia":2376,"15":2377,"ocat":2378,"Ġvir":2379,"Ġ2011":2380,"cen":2381,"Ġmenys":2382,"Ġejemp":2383,"OM":2384,"isc":2385,"Ġella":2386,"ĠmÃºsica":2387,"Ġpoco":2388,"Ġaltra":2389,"Ġcentre":2390,"âĢ¦":2391,"Ġmucho":2392,"Ġenerg":2393,"Ġpropor":2394,"bilitat":2395,"igo":2396,"Este":2397,"ĠvÃŃ":2398,"Ġ197":2399,"one":2400,"ĠsegÃºn":2401,"Ġconcep":2402,"Ġcob":2403,"erva":2404,"dial":2405,"Ġmiemb":2406,"CE":2407,"199":2408,"Ġdiversos":2409,"Ġprotec":2410,"istr":2411,"mes":2412,"ĠMa":2413,"!!":2414,"Ġdecid":2415,"Ġsaber":2416,"Ġunivers":2417,"iar":2418,"Ġsom":2419,"ĠNacional":2420,"Ġjur":2421,"Ġobra":2422,"Ġparticular":2423,"eder":2424,"Ġresponsabil":2425,"Ġequipo":2426,"Ġesti":2427,"Ġaspec":2428,"pia":2429,"Ġincorpor":2430,"ĠGeneralitat":2431,"Ġacuerdo":2432,"elo":2433,"tida":2434,"gues":2435,"Ġredu":2436,"Ġese":2437,"omen":2438,"Ġterme":2439,"isis":2440,"ĠsinÃ³":2441,"activ":2442,"ang":2443,"ilar":2444,"Ġ21":2445,"olÃ²g":2446,"Cu":2447,"cial":2448,"Ġpriv":2449,"Ġempresas":2450,"cionar":2451,"Ġ50":2452,"ĠTer":2453,"iss":2454,"Ġalter":2455,"guts":2456,"ificar":2457,"Ġpeque":2458,"Ġproblema":2459,"Ġdentro":2460,"Ġgrupo":2461,"ĠTor":2462,"ota":2463,"Ġdesarroll":2464,"ĠSer":2465,"Ġwere":2466,"cido":2467,"Ġmanifes":2468,"Ġellos":2469,"aments":2470,"aqu":2471,"Ġbuen":2472,"ĠEN":2473,"ativa":2474,"Ġemple":2475,"ĠprÃ²":2476,"ĠJu":2477,"ĠpÃºblica":2478,"Ġpresentar":2479,"Ãłm":2480,"etes":2481,"Ġinm":2482,"Ġactivitats":2483,"Ġsos":2484,"tades":2485,"Ġrom":2486,"Ġdiferentes":2487,"Ġparticipar":2488,"aire":2489,"ticle":2490,"Ġmediante":2491,"ĠhabÃŃa":2492,"ules":2493,"Ġban":2494,"Ġporta":2495,"ww":2496,"Ġdeclar":2497,"Ġsuport":2498,"AM":2499,"Ġgrans":2500,"Ġindivid":2501,"13":2502,"âĢĶ":2503,"ork":2504,"Ġpoble":2505,"Ġfem":2506,"tancia":2507,"Ġtoda":2508,"ĠeconÃ³m":2509,"ond":2510,"Ġses":2511,"Ġpopular":2512,"zas":2513,"tien":2514,"Ġmisma":2515,"ĠsituaciÃ³":2516,"RE":2517,"Ġnav":2518,"Ġmuj":2519,"ĠJoan":2520,"ĠseÃ±":2521,"Aquesta":2522,"Ġhoras":2523,"st":2524,"ale":2525,"Ġaplica":2526,"14":2527,"Ġnueva":2528,"ocar":2529,"Ġvos":2530,"ame":2531,"segur":2532,"tructura":2533,"Seg":2534,"Ġinicia":2535,"Ġinternacional":2536,"vis":2537,"ĠPres":2538,"PerÃ²":2539,"Ġindust":2540,"Ġcrear":2541,"Ġimportante":2542,"Ġposar":2543,"Ġdise":2544,"Ġher":2545,"Ġllev":2546,"gos":2547,"ientras":2548,"Ġare":2549,"Ãĵ":2550,"Ġcalidad":2551,"Ġhora":2552,"iza":2553,"ire":2554,"Ġconform":2555,"gn":2556,"Ġtema":2557,"ĠprocÃ©s":2558,"porte":2559,"ĠSi":2560,"ĠConsejo":2561,"ions":2562,"Ġrecuper":2563,"hor":2564,"Ġfeb":2565,"eda":2566,"ias":2567,"Ġalguns":2568,"Ġdistribu":2569,"ru":2570,"Ġsiguiente":2571,"ĠEm":2572,"Ġproyecto":2573,"dap":2574,"ĠfÃŃs":2575,"ĠpÃł":2576,"Ġtemporada":2577,"oso":2578,"onom":2579,"Ġcarrer":2580,"alla":2581,"Ġmag":2582,"Ġocup":2583,"Desp":2584,"arÃ¡n":2585,"Ġfalta":2586,"Ġinclu":2587,"RO":2588,"ospital":2589,"inc":2590,"Ġalg":2591,"Ġconstru":2592,"Ġcumpl":2593,"Ġhaur":2594,"Ġante":2595,"ania":2596,"Ġconoc":2597,"Ġblo":2598,"icio":2599,"cat":2600,"Ġmateixa":2601,"Ġunes":2602,"ĠSanta":2603,"ĠDec":2604,"raciÃ³":2605,"Ġmaterial":2606,"Ġos":2607,"Ġpresident":2608,"Ġmajor":2609,"Ġsino":2610,"Ġdemos":2611,"Ġsig":2612,"Ġnormal":2613,"Ġinteress":2614,"acte":2615,"ements":2616,"Ġenferm":2617,"onar":2618,"man":2619,"Ġxar":2620,"Ġveh":2621,"ser":2622,"TambÃ©":2623,"AC":2624,"cir":2625,"Ġsetmana":2626,"erta":2627,"ps":2628,"Pero":2629,"utor":2630,"UE":2631,"Ġimag":2632,"Ġeduca":2633,"ĠDes":2634,"cionals":2635,"Ġconcre":2636,"Ġahora":2637,"idor":2638,"embla":2639,"ixen":2640,"Ġcultura":2641,"Ġhaver":2642,"17":2643,"elles":2644,"Ġimpres":2645,"Ġdispos":2646,"Ġrepresen":2647,"posiciÃ³":2648,"jas":2649,"Ã¡m":2650,"Ġintegr":2651,"mac":2652,"Ġfes":2653,"ArtÃŃculo":2654,"Ġalgunos":2655,"Ġnivell":2656,"Ġconsidera":2657,"Ġcomprom":2658,"ocup":2659,"Ġadap":2660,"iod":2661,"Ġcolor":2662,"Ġperd":2663,"Ġcier":2664,"Ġbona":2665,"Ġproper":2666,"ĠRo":2667,"âĤ":2668,"ĠprÃłc":2669,"Ex":2670,"ava":2671,"dose":2672,"amental":2673,"ĠAdministra":2674,"16":2675,"ast":2676,"iental":2677,"Ġpreci":2678,"Ġdret":2679,"dica":2680,"Ġcontr":2681,"Ġed":2682,"Ġ26":2683,"Ġcoses":2684,"Ġpossible":2685,"Ġdecir":2686,"ĠmÃŃnim":2687,"Ġquatre":2688,"Â».":2689,"Ġfec":2690,"ama":2691,"aven":2692,"mientos":2693,"ĠcÃłr":2694,"Ġsex":2695,"Ġcorrec":2696,"Ġexig":2697,"ĠVall":2698,"Ġ23":2699,"Ġcausa":2700,"acord":2701,"lamento":2702,"ĠConsell":2703,"Ġreclam":2704,"use":2705,"ĠAques":2706,"Ġcompany":2707,"ĠgrÃł":2708,"edades":2709,"Ã¯t":2710,"Ã¨g":2711,"Ġcient":2712,"iol":2713,"Ġembargo":2714,"Ġmig":2715,"Ġdol":2716,"Ġcur":2717,"Ġanal":2718,"âĤ¬":2719,"eras":2720,"Ġrealizar":2721,"ĠcaracterÃŃs":2722,"ultura":2723,"issiÃ³":2724,"Ġdetal":2725,"âĢľ":2726,"Ġmir":2727,"Ġblan":2728,"omin":2729,"ĠhistÃ²ria":2730,"Ġfar":2731,"Ġmuchos":2732,"ĠIs":2733,"ibilidad":2734,"Ġagua":2735,"quen":2736,"retat":2737,"Ġqualitat":2738,"ÃŃcula":2739,"ated":2740,"osos":2741,"Ġsalud":2742,"Ġmili":2743,"nov":2744,"Ġcondiciones":2745,"lici":2746,"Pro":2747,"vin":2748,"antil":2749,"glÃ©s":2750,"Ġoportun":2751,"erca":2752,"Ġevitar":2753,"Ġprof":2754,"Ġtercer":2755,"Ġjornada":2756,"otel":2757,"ĠAnd":2758,"Ġalgo":2759,"ï¿":2760,"Dur":2761,"Ġlegis":2762,"rin":2763,"Ġcontrac":2764,"ï¿½":2765,"Ġposible":2766,"Ġpunto":2767,"iencia":2768,"Ġfamil":2769,"tures":2770,"ÂŃ":2771,"Ġdeman":2772,"Ġexemple":2773,"be":2774,"Tot":2775,"Ġempreses":2776,"equip":2777,"anÃ§ant":2778,"Ġmai":2779,"Ġbajo":2780,"ĠSec":2781,"Ġsocietat":2782,"Ġmunicipal":2783,"Ġsentit":2784,"ber":2785,"ĠPS":2786,"Ġllarg":2787,"ĠEL":2788,"Ġsiguientes":2789,"quit":2790,"Ġescol":2791,"blo":2792,"Ġtall":2793,"anto":2794,"Ġenvi":2795,"hom":2796,"Ġacced":2797,"Ġactividad":2798,"tions":2799,"Ġvo":2800,"ĠLas":2801,"icament":2802,"Ġmoltes":2803,"ĠformaciÃ³":2804,"hib":2805,"Ġactividades":2806,"gue":2807,"Ġimm":2808,"ĠaplicaciÃ³n":2809,"ack":2810,"Ġ2009":2811,"Ġventa":2812,"ode":2813,"ximo":2814,"arca":2815,"Ġplante":2816,"Ġopera":2817,"Ġmeses":2818,"Ġcomercial":2819,"Ã³mo":2820,"Ġintro":2821,"'t":2822,"Ġayud":2823,"Ġderi":2824,"ĠLes":2825,"teriorm":2826,"Ġqueda":2827,"trac":2828,"Ġvuel":2829,"Ġtind":2830,"Ġejemplo":2831,"Ġdestac":2832,"Ġlan":2833,"ÃŃcia":2834,"ĠpoblaciÃ³":2835,"Ġcastell":2836,"ĠUniversitat":2837,"Ġmot":2838,"ĠSocial":2839,"ister":2840,"Ġelabor":2841,"AdemÃ¡s":2842,"ĠcompaÃ±":2843,"Ġconse":2844,"ĠcomenÃ§ar":2845,"----------------":2846,"Ġcand":2847,"Ġ27":2848,"ocia":2849,"Ġimpl":2850,"Ġcompeti":2851,"ismos":2852,"Ġderecho":2853,"ĠprÃ¡c":2854,"Ġvista":2855,"Ġafir":2856,"Ġ28":2857,"ĠPal":2858,"Ġeurope":2859,"Ġregul":2860,"Ġcic":2861,"Ġseguridad":2862,"Ġhacia":2863,"ĠrelaciÃ³n":2864,"emÃł":2865,"ater":2866,"Ġpassar":2867,"ĠquÃ©":2868,"Ġhoy":2869,"ĠCi":2870,"Ġmesos":2871,"Ġresolu":2872,"ĠES":2873,"ĠInterna":2874,"Ġconsecu":2875,"Ġamor":2876,"IV":2877,"Ġelement":2878,"ĠlÃŃ":2879,"ĠmÃłxim":2880,"dico":2881,"rado":2882,"Estat":2883,"Ġviol":2884,"ieron":2885,"pid":2886,"Ġespaci":2887,"Ġ196":2888,"Ġdones":2889,"ĠpodrÃ¡":2890,"uch":2891,"Ġcentro":2892,"Ġperfec":2893,"Ġrepar":2894,"Ġmentre":2895,"diente":2896,"ĠReal":2897,"ĠÃ©l":2898,"ĠJor":2899,"Ġincluy":2900,"eno":2901,"Ġsignifica":2902,"Ġllibre":2903,"oves":2904,"entaciÃ³n":2905,"Ġinterven":2906,"Ġfill":2907,"Ġproceso":2908,"col":2909,"poca":2910,"ck":2911,"ish":2912,"ĠJosep":2913,"tido":2914,"Ġtas":2915,"vant":2916,"Ġpad":2917,"Ġterc":2918,"Ġconserv":2919,"Ġado":2920,"eas":2921,"Ġmillones":2922,"Ã©c":2923,"ech":2924,"pr":2925,"Ġdona":2926,"guda":2927,"Ìģ":2928,"Ġllu":2929,"ĠSol":2930,"ĠEuropa":2931,"Ġhabitu":2932,"Ġfinanci":2933,"Ġidea":2934,"Ġmemb":2935,"gles":2936,"Ġresponsable":2937,"istro":2938,"cos":2939,"Ġoficial":2940,"ĠGovern":2941,"Ġperman":2942,"ĠJosÃ©":2943,"ubl":2944,"Ġalta":2945,"ĠMus":2946,"edor":2947,"ionales":2948,"ĠSeg":2949,"asi":2950,"Ġofici":2951,"organ":2952,"raciÃ³n":2953,"EL":2954,"bo":2955,"izado":2956,"ĠJa":2957,"Ġcompte":2958,"titud":2959,"Ġexcep":2960,"Ġespanyol":2961,"Ġdrets":2962,"Ġfueron":2963,"loc":2964,"objec":2965,"ime":2966,"quitec":2967,"Ġart":2968,"ĠdifÃŃ":2969,"xes":2970,"ĠFund":2971,"Ġsocials":2972,"edia":2973,"tagon":2974,"uri":2975,"ally":2976,"anas":2977,"Ġfab":2978,"Ġavui":2979,"Ġ2012":2980,"Ġoper":2981,"TA":2982,"Ġconta":2983,"Ġservir":2984,"Ġsob":2985,"Ġpodem":2986,"Ġgrandes":2987,"Ġedifici":2988,"Ġlaboral":2989,"tot":2990,"ĠComisiÃ³n":2991,"let":2992,"Ġmientras":2993,"dio":2994,"UN":2995,"Ġdefin":2996,"Ġsegle":2997,"Ġvam":2998,"Ġentorn":2999,"ĠVic":3000,"Ġdiu":3001,"ĠII":3002,"Ġauto":3003,"utar":3004,"ĠgestiÃ³":3005,"ĠÃ¨":3006,"Ġ40":3007,"Ġeso":3008,"gel":3009,"Ġtracta":3010,"Ġcatalana":3011,"Ġexpl":3012,"Ġrad":3013,"inas":3014,"Ġries":3015,"Ãºblica":3016,"Ġllengua":3017,"Ġsembla":3018,"Ġexclus":3019,"isiÃ³":3020,"entaciÃ³":3021,"cri":3022,"ĠMas":3023,"Ġmercado":3024,"ĠGir":3025,"Ġpunts":3026,"Ġub":3027,"Ġprue":3028,"Ġalcan":3029,"cular":3030,"Ġfent":3031,"Ġmajoria":3032,"Ġaconseguir":3033,"imos":3034,"Ġsupos":3035,"Ġsota":3036,"Ġdici":3037,"Ġimpos":3038,"ĠCON":3039,"ej":3040,"Ġquin":3041,"Â´":3042,"Ġliter":3043,"Ġprofess":3044,"rÃ¡n":3045,"Ġtram":3046,"Ã§os":3047,"Ġ29":3048,"Ġsegona":3049,"40":3050,"bres":3051,"Ġadop":3052,"lav":3053,"Ġejerci":3054,"ĠmitjanÃ§ant":3055,"Ġmer":3056,"Ġincre":3057,"tio":3058,"sional":3059,"Ġacord":3060,"ight":3061,"ew":3062,"Ġesa":3063,"yo":3064,"Ġpasado":3065,"posiciÃ³n":3066,"Ġavan":3067,"Ġperiod":3068,"ificaciÃ³":3069,"Ġnuestros":3070,"Ġeleg":3071,"Sin":3072,"Ġsiendo":3073,"Ġexplica":3074,"Ġrespon":3075,"aud":3076,"Ġcentral":3077,"ribun":3078,"Ġ2008":3079,"Ġinterpre":3080,"Ġhaber":3081,"ĠAnton":3082,"ĠÂ¿":3083,"iene":3084,"uela":3085,"Ġconduc":3086,"empresa":3087,"itzada":3088,"ociaciÃ³":3089,"Ġvot":3090,"Ġtenim":3091,"Ġplazo":3092,"iva":3093,"land":3094,"trum":3095,"ĠUniversidad":3096,"ĠcanciÃ³n":3097,"Ġaprov":3098,"ĠformaciÃ³n":3099,"ĠrelaciÃ³":3100,"Ġencuentra":3101,"iten":3102,"Ġnoves":3103,"Ġestudio":3104,"Ġ%":3105,"cipi":3106,"rers":3107,"Ġclub":3108,"Ã©u":3109,"ĠÃģ":3110,"ze":3111,"utos":3112,"OL":3113,"ĠsituaciÃ³n":3114,"ÃŃtica":3115,"ĠpÃºblico":3116,"Ġcultural":3117,"Ġ2007":3118,"mas":3119,"Ġdigi":3120,"ni":3121,"Ġjunto":3122,"fil":3123,"Ġcandid":3124,"Ġcontemp":3125,"Ġprotagon":3126,"Ġprofesional":3127,"Ġestim":3128,"Ġtratamiento":3129,"Ġdesenvolupament":3130,"ĠInternet":3131,"Ġdigital":3132,"Ġdeixar":3133,"Ġwhich":3134,"ĠMart":3135,"IA":3136,"Ġgus":3137,"Ġjust":3138,"Ã¨c":3139,"Ġdiverses":3140,"Ġplata":3141,"cimiento":3142,"ense":3143,"ror":3144,"Ġcanti":3145,"mat":3146,"tadas":3147,"IM":3148,"ugh":3149,"ĠJuan":3150,"Ã³d":3151,"mon":3152,"ĠforÃ§a":3153,"Ġlegal":3154,"reto":3155,"ĠcÃłrrec":3156,"Ġexten":3157,"ĠfÃ¡":3158,"ĠLu":3159,"Que":3160,"Ġmy":3161,"Ġgo":3162,"AixÃŃ":3163,"Ã¯sos":3164,"22":3165,"ĠIN":3166,"ĠBen":3167,"tem":3168,"jud":3169,"Ġacceso":3170,"Ġdemoc":3171,"Ġjuny":3172,"Ġvul":3173,"Ġsuf":3174,"Ġhistoria":3175,"Ġsepar":3176,"Ġsens":3177,"acciÃ³":3178,"Ġsegon":3179,"Ġfeina":3180,"Ġgaire":3181,"Ġtransm":3182,"Ġsac":3183,"Ã³p":3184,"Ġnosaltres":3185,"ĠCap":3186,"cle":3187,"we":3188,"Ġpil":3189,"Ġpis":3190,"Ã±as":3191,"Ġveces":3192,"ono":3193,"Ġcara":3194,"Ġproductes":3195,"uria":3196,".,":3197,"irÃł":3198,"Ġcuatro":3199,"ĠgestiÃ³n":3200,"arra":3201,"Ġcompor":3202,"tric":3203,"Ġju":3204,"uestra":3205,"Ġcone":3206,"tudis":3207,"Ġindustri":3208,"Ġguerra":3209,"tatge":3210,"Ġcondicions":3211,"Ġapr":3212,"Ġaum":3213,"ĠEstados":3214,"turas":3215,"Ġjoc":3216,"Ġcivil":3217,"omas":3218,"Ġvic":3219,"Ġaliment":3220,"apar":3221,"Ġprovin":3222,"ĠTh":3223,"lor":3224,"ĠprÃ³":3225,"Ġgol":3226,"Ġfutur":3227,"Ġdisseny":3228,"ĠRes":3229,"Ġapartado":3230,"Ã¨m":3231,"25":3232,"Ġcarre":3233,"Ġdej":3234,"Ġtelev":3235,"Ġjud":3236,"ĠBo":3237,"Ġmec":3238,"Ġcuer":3239,"Entre":3240,"ĠcamÃŃ":3241,"Ġmaig":3242,"tri":3243,"ph":3244,"Ġvolun":3245,"Â»,":3246,"Ġfou":3247,"Ġmem":3248,"siones":3249,"ĠTe":3250,"Ġnada":3251,"ĠâĢĺ":3252,"Ġps":3253,"Ġell":3254,"aigua":3255,"ger":3256,"Ġprojectes":3257,"Ġmilions":3258,"ĠparticipaciÃ³":3259,"ry":3260,"ficul":3261,"Ġmeu":3262,"Ġfigu":3263,"ĠPP":3264,"Ġhad":3265,"ĠespaÃ±ol":3266,"Ġinclo":3267,"mbit":3268,"ĠÃºltimo":3269,"IL":3270,"Ġingres":3271,"Ass":3272,"ĠAmb":3273,"ĠcomunicaciÃ³":3274,"ace":3275,"Ġexiste":3276,"ĠAb":3277,"Ġfecha":3278,"tiz":3279,"Ġapoy":3280,"Ġmiembros":3281,"Ġajud":3282,"Ġdisfr":3283,"Ġseua":3284,"quil":3285,"Ġproteg":3286,"Ġpermite":3287,"Ġells":3288,"Ġadecu":3289,"Ġmuchas":3290,"ĠSegu":3291,"ĠRep":3292,"Ġcirc":3293,"Lo":3294,"fi":3295,"ĠSu":3296,"bilidad":3297,"80":3298,"estat":3299,"ĠDepartament":3300,"Ã©g":3301,"tel":3302,"Ġtrad":3303,"estar":3304,"Ġsome":3305,"Ã¡cter":3306,"UR":3307,"ĠCr":3308,"Ġobres":3309,"Ġcategor":3310,"Ġobjetivo":3311,"Ġah":3312,"ĠespecÃŃfic":3313,"Ġgratu":3314,"Ġdiciembre":3315,"ĠcarÃ¡cter":3316,"ĠTar":3317,"lus":3318,"guÃ©s":3319,"Ġlargo":3320,"Ġcoment":3321,"Ġnaveg":3322,"Como":3323,"enc":3324,"calde":3325,"Su":3326,"Ġurban":3327,"Ġmica":3328,"ficial":3329,"Ġbal":3330,"itan":3331,"cola":3332,"Ġubic":3333,"posta":3334,"ĠSE":3335,"Ġglob":3336,"Ġserie":3337,"Ġmens":3338,"TambiÃ©n":3339,"Ġconcer":3340,"Ġevid":3341,"taciones":3342,"istir":3343,"Ġfabric":3344,"Ġraz":3345,"ĠEspanya":3346,"ĠTra":3347,"ĠMor":3348,"Ġfos":3349,"Ġvalenci":3350,"ago":3351,"........":3352,"Ġtenia":3353,"Ġjuliol":3354,"Ġconvocat":3355,"Ġterritori":3356,"Ġcoordin":3357,"Ġcertific":3358,"ĠMo":3359,"Ġgar":3360,"Ġelim":3361,"ÃŃfica":3362,"ĠtÃ©r":3363,"Ġgrups":3364,"Ġprofesionales":3365,"Ġprincipi":3366,"Ġnous":3367,"Ġderechos":3368,"Ġmateri":3369,"Ġdim":3370,"Ġley":3371,"Ġllegar":3372,"Ġmarca":3373,"objectiu":3374,"Ġacabar":3375,"ĠjurÃŃ":3376,"ACION":3377,"ĠEuropea":3378,"Ġobserv":3379,"ĠconÃ¨ixer":3380,"Ġ31":3381,"Ġdefensa":3382,"Ġvel":3383,"Ġcolabor":3384,"Ġge":3385,"pu":3386,"ks":3387,"Ġafeg":3388,"ĠperÃŃ":3389,"Ġfotograf":3390,"tran":3391,"Ġfamilia":3392,"Ġtren":3393,"Ġbarri":3394,"Ġproblemas":3395,"ther":3396,"Ġtransform":3397,"Ġbut":3398,"Ġentrada":3399,"Ġmedidas":3400,"Ġvegades":3401,"Ġtitular":3402,"gas":3403,"Ġhav":3404,"ĠCastell":3405,"Ġtard":3406,"Ġmuer":3407,"Ġejec":3408,"Ġrequer":3409,"Ġdificul":3410,"Ġder":3411,"Ġsufici":3412,"Ġefectos":3413,"Ġseguretat":3414,"itir":3415,"ĠfamÃŃlia":3416,"ĠdifÃŃcil":3417,"):":3418,"Or":3419,"ierra":3420,"enda":3421,"Ġrealitat":3422,"Ġeren":3423,"imientos":3424,"ĠRec":3425,"Ġsep":3426,"isti":3427,"ĠpaÃŃses":3428,"Ġtroba":3429,"ĠPrem":3430,"tilla":3431,"tival":3432,"oper":3433,"Ġsubven":3434,"Ġrelig":3435,"ĠGobierno":3436,"Ġsegundo":3437,"ws":3438,"ĠÌģ":3439,"Ġfuera":3440,"ĠVil":3441,"ĠGo":3442,"Ġcompos":3443,"grat":3444,"ĠpoblaciÃ³n":3445,"Ġpuesto":3446,"Ġcad":3447,"tacions":3448,"ĠrÃł":3449,"UL":3450,"Ġunas":3451,"uld":3452,"orte":3453,"capa":3454,"ĠJordi":3455,"Ġvarios":3456,"Ġincluso":3457,"ĠfÃł":3458,"Ġnecesario":3459,"Ġalumnes":3460,"Ġeduc":3461,"esqu":3462,"inos":3463,"vil":3464,"Ġrealitz":3465,"ĠCent":3466,"tÃ¡":3467,"Ġ60":3468,"Ġmodo":3469,"ĠDEL":3470,"sionals":3471,"Ġpare":3472,"Ġcontribu":3473,"tex":3474,"ĠTur":3475,"cur":3476,"adal":3477,"Ġsatis":3478,"rero":3479,"Cons":3480,"ĠFer":3481,"Ġsetembre":3482,"ĠpodrÃł":3483,"Ġjoves":3484,"ĠReglamento":3485,"onas":3486,"Ġoriginal":3487,"Ġseny":3488,"ÃŃem":3489,"Ġhabl":3490,"Ġconcurs":3491,"60":3492,"iot":3493,"val":3494,"Ġlado":3495,"ivo":3496,"ĠGirona":3497,"Ġrealitzar":3498,"Ġcasi":3499,"ĠInstitu":3500,"Ġaprob":3501,"Ġrespecte":3502,"Ġcolec":3503,"Ġconfir":3504,"dientes":3505,"Ġmunicipi":3506,"ik":3507,"qÃ¼esti":3508,"ĠÃīs":3509,"old":3510,"TR":3511,"Ġaconsegu":3512,"ĠHe":3513,"Ġmitjans":3514,"Ġdijo":3515,"fa":3516,"Ġinterior":3517,"ĠPe":3518,"otros":3519,"Ġresultados":3520,"Ġinfer":3521,"Ġcambio":3522,"Ġnuevas":3523,"ĠcÃ³mo":3524,"tista":3525,"Ġaga":3526,"etra":3527,"rad":3528,"Ġemo":3529,"unca":3530,"ĠValenci":3531,"Ġjunio":3532,"Ġsuc":3533,"Ġjulio":3534,"Ġcriter":3535,"Ġdit":3536,"Ġanunci":3537,"ĠÃ¡mb":3538,"Ġconcent":3539,"arga":3540,"Ġalgunes":3541,"Ġencontrar":3542,"Ġnuevos":3543,"table":3544,"Re":3545,"tional":3546,"Ġbot":3547,"Ġjuego":3548,"pol":3549,"Ġterra":3550,"ĠInternacional":3551,"gent":3552,"Ġdicho":3553,"ograf":3554,"iÃ¨ncia":3555,"Ġpatrim":3556,"inform":3557,"ĠPat":3558,"Cuando":3559,"DesprÃ©s":3560,"Ġdetec":3561,"Ġespai":3562,"Ġlegisl":3563,"ider":3564,"gia":3565,"Ġpuntos":3566,"our":3567,"Ġsimpl":3568,"ĠqÃ¼esti":3569,"Ġpacientes":3570,"ĠLlei":3571,"Ġ193":3572,"Ġpassa":3573,"uestos":3574,"Ġfel":3575,"ciendo":3576,"istÃ¨ncia":3577,"ters":3578,"Ġvac":3579,"abte":3580,"ĠAut":3581,"Ġfot":3582,"Ġpreten":3583,"Ġalgunas":3584,"Ġextre":3585,"ĠinvestigaciÃ³n":3586,"Ġrequis":3587,"ĠvÃŃde":3588,"Ġinnov":3589,"Ġelev":3590,"Ġesde":3591,"ĠlÃŃm":3592,"actual":3593,"Ġpress":3594,"Ġsobretot":3595,"Ġdomin":3596,"Ġreduc":3597,"Ġentitats":3598,"Ġparl":3599,"Ġrespecto":3600,"Ġvisita":3601,"ĠRam":3602,"ĠPrim":3603,"gre":3604,"Ġpaper":3605,"anta":3606,"ĠFor":3607,"viembre":3608,"nas":3609,"altra":3610,"line":3611,"Ġmenor":3612,"Ġiniciativa":3613,"Ġusuarios":3614,"Ġtornar":3615,"dol":3616,"ume":3617,"tÃ³":3618,"Ġavi":3619,"guen":3620,"Ġimpuls":3621,"lacions":3622,"ecen":3623,"Ġprofessional":3624,"AP":3625,"Ġdoncs":3626,"Ġpensar":3627,"ties":3628,"etre":3629,"ĠAy":3630,"ĠlÃŃnia":3631,"Ġdub":3632,"jes":3633,"ĠServ":3634,"hab":3635,"Ġinstrum":3636,"Ġliber":3637,"ĠmarÃ§":3638,"Ġprefer":3639,"Ġclient":3640,"Ġplanta":3641,"Ġtreballar":3642,"ibles":3643,"usiÃ³n":3644,"Ġcarrera":3645,"guer":3646,"uals":3647,"ee":3648,"zos":3649,"Ġdesembre":3650,"Ġcentres":3651,"uny":3652,"Ãį":3653,"iber":3654,"Par":3655,"Ġprofessionals":3656,"enes":3657,"cho":3658,"ĠCentre":3659,"ĠPlan":3660,"ED":3661,"Ġhabitual":3662,"Ġpob":3663,"ĠMaria":3664,"Ġindependent":3665,"21":3666,"uari":3667,"Va":3668,"ĠPresid":3669,"uales":3670,"rÃ³":3671,"apro":3672,"Ġnit":3673,"Ġthis":3674,"Ġalterna":3675,"ÃŃtulo":3676,"ĠplaÃ§a":3677,"Ã©l":3678,"Ã¡tica":3679,"onces":3680,"aquests":3681,"Ġfrente":3682,"ĠhaurÃł":3683,"tora":3684,"Ġru":3685,"aban":3686,"iciÃ³":3687,"ancia":3688,"ocal":3689,"Ġmembres":3690,"ĠmayorÃŃa":3691,"ĠniÃ±os":3692,"ms":3693,"Ġconjunt":3694,"wo":3695,"Ġverdad":3696,"Ġresol":3697,"vos":3698,"atori":3699,"Ġproblemes":3700,"Ġestaba":3701,"Ġespor":3702,"Ġsiglo":3703,"Ġrecog":3704,"Ġadqui":3705,"And":3706,"Ġup":3707,"Ġacep":3708,"tany":3709,"ural":3710,"ĠpÃłgina":3711,"Ã²l":3712,"Ġhaya":3713,"ive":3714,"Ġreflex":3715,"cas":3716,"Ġsosten":3717,"ates":3718,"ĠtÃ©rmin":3719,"Ġaug":3720,"ak":3721,"icip":3722,"quÃŃ":3723,"ET":3724,"Ġdura":3725,"Ġdeben":3726,"Ġmayo":3727,"Ġsegunda":3728,"Ġjugar":3729,"ick":3730,"ĠClub":3731,"Ġgaud":3732,"Ġfase":3733,"Ġmilitar":3734,"Ġrestaur":3735,"Ġcompon":3736,"Ġquer":3737,"ĠcarÃłc":3738,"igh":3739,"Ġhemos":3740,"uestas":3741,"Ġdefens":3742,"anza":3743,"Ġconvertir":3744,"ware":3745,"ĠgrÃłcies":3746,"Ġconocer":3747,"Ã³l":3748,"Ġpue":3749,"Ġadi":3750,"ĠDel":3751,"Ġconflic":3752,"Ġnomb":3753,"Ġportar":3754,"izada":3755,"Ġtus":3756,"ju":3757,"rie":3758,"ese":3759,"ty":3760,"Ġadm":3761,"Ġcostat":3762,"Ġmujeres":3763,"ribunal":3764,"Ġxarxa":3765,"Ġcita":3766,"bÃ©":3767,"Ġtamp":3768,"ÃĢ":3769,"Ġautom":3770,"Ġparlar":3771,"bas":3772,"ĠCu":3773,"Ġprecis":3774,"Ġgal":3775,"ĉĉĉĉ":3776,"AB":3777,"Ġdu":3778,"Â«":3779,"ables":3780,"Ġpreven":3781,"Ġentren":3782,"ĠXV":3783,"itud":3784,"Ġcerca":3785,"Ġcrec":3786,"estudi":3787,"Ġfora":3788,"Ġvid":3789,"Ġcosas":3790,"bliot":3791,"ĠcientÃŃfic":3792,"Ġdepor":3793,"Ġfru":3794,"bit":3795,"Ġcomplement":3796,"Ġayuda":3797,"ĠÃºltima":3798,"Ġsuel":3799,"Ġpartits":3800,"Ġderiv":3801,"ĠelectrÃ³n":3802,"entemente":3803,"Ġcuanto":3804,"caba":3805,"Ġexped":3806,"octubre":3807,"Ġnoviembre":3808,"laboraciÃ³":3809,"Ġpresen":3810,"Ġsof":3811,"Ġabril":3812,"ĠsÃ©":3813,"ĠJunta":3814,"Ġcinc":3815,"Desde":3816,"ĠdÃ³n":3817,"orca":3818,"24":3819,"ĠPas":3820,"Ġpublici":3821,"ĠÃºnica":3822,"Ġentrar":3823,"iso":3824,"Ġtampoc":3825,"Ġmarzo":3826,"izo":3827,"Ġproducto":3828,"Ġproporcion":3829,"Ġmostra":3830,"Ġrepro":3831,"ĠproducciÃ³n":3832,"Ġfacilitar":3833,"ĠlÃŃnea":3834,"peci":3835,"ĠsegÃ¼ent":3836,"tral":3837,"Ġllocs":3838,"low":3839,"dez":3840,"Ġresultats":3841,"itari":3842,"Ġvincul":3843,"rido":3844,"ĠcomunicaciÃ³n":3845,"Ġpodemos":3846,"Ġcabo":3847,"reo":3848,"rez":3849,"abril":3850,"Ġestudios":3851,"hav":3852,"Ġtrabajadores":3853,"Ã¡b":3854,"ĠWeb":3855,"UP":3856,"obra":3857,"ĠelectrÃ²n":3858,"etro":3859,"ĠRos":3860,"Ġsitio":3861,"Ġ2006":3862,"Ġmedios":3863,"ĠTamb":3864,"IB":3865,"Ġtemper":3866,"ĠPen":3867,"olid":3868,"Ġmateria":3869,"ah":3870,"Ġconsci":3871,"Quan":3872,"Ġinicial":3873,"mien":3874,"ĠpodrÃ¡n":3875,"ani":3876,"ĠatenciÃ³n":3877,"istencia":3878,"Ġrecep":3879,"Ġoctubre":3880,"tiembre":3881,"Ġnormativa":3882,"Ġcantidad":3883,"Ġhip":3884,"ublic":3885,"Hi":3886,"ĠGrup":3887,"ĠpÃ¡gina":3888,"Ġ194":3889,"23":3890,"paÃ±":3891,"Ġquedar":3892,"diendo":3893,"Ġterren":3894,"accÃ©s":3895,"Ġexperiencia":3896,"laciones":3897,"toria":3898,"icamente":3899,"Ġenero":3900,"Ġbuena":3901,"Ġcrea":3902,"Ġnovembre":3903,"Ġhave":3904,"ĠÃ³r":3905,"Ġrecoll":3906,"zado":3907,"ĠpaÃ¯sos":3908,"ĠveÃ¯":3909,"Ġband":3910,"alles":3911,"Ġdep":3912,"Ġsubs":3913,"Ġsemana":3914,"iere":3915,"ĠcarÃłcter":3916,"Ġminuts":3917,"Ġcapacidad":3918,"Ġsindic":3919,"Ha":3920,"ĠMarc":3921,"adament":3922,"ĠUN":3923,"activitat":3924,"Ġnum":3925,"Ġreconoci":3926,"icios":3927,"ĠFac":3928,"ĠdaÃ±":3929,"Ġdeu":3930,"onomia":3931,"Ġevolu":3932,"led":3933,"umenge":3934,"Ġequi":3935,"Âº":3936,"Ġ195":3937,"ĠOb":3938,"ses":3939,"tivamente":3940,"Ġasoci":3941,"icaciones":3942,"Ġaband":3943,"rom":3944,"ĠBi":3945,"pas":3946,"ĠAix":3947,"Ġmesures":3948,"ĠPed":3949,"rÃŃa":3950,"Ġenv":3951,"Ġcatalans":3952,"ulos":3953,"Ġinforme":3954,"ĠValÃ¨ncia":3955,"Ġprob":3956,"iscal":3957,"Ġmassa":3958,"Ã¡ndose":3959,"Ġespecialment":3960,"Ġnens":3961,"Ġfre":3962,"Ġagu":3963,"ĠaÃ±ad":3964,"uig":3965,"Ġcub":3966,"Ġrecerca":3967,"Ġmic":3968,"Ġglobal":3969,"Ġseria":3970,"Ġmort":3971,"espa":3972,"Ġriesgo":3973,"ĠfunciÃ³n":3974,"'m":3975,"RES":3976,"Ġcreix":3977,"Ġdata":3978,"Ġusuario":3979,"Ġusuaris":3980,"arial":3981,"ĠseÃ±al":3982,"tive":3983,"Ġmalal":3984,"ld":3985,"ĠNav":3986,"endres":3987,"Ġmoder":3988,"ump":3989,"Ġobras":3990,"Ġinsta":3991,"Ġnord":3992,"ĠserÃ¡n":3993,"ĠFern":3994,"ĠinterÃ©s":3995,"Ġlliure":3996,"Ġsalut":3997,"Ġpalab":3998,"ĠFeder":3999,"Ġkno":4000,"Ġcuerpo":4001,"amp":4002,"Ġmeva":4003,"tivament":4004,"ore":4005,"____":4006,"Ġ2000":4007,"ĠsegÃ¼ents":4008,"ĠGal":4009,"ĠComunidad":4010,"OE":4011,"Ġtradicional":4012,"Ġaproxim":4013,"onor":4014,"Ġconsell":4015,"onat":4016,"Ġpropio":4017,"toral":4018,"Ġanual":4019,"Ãłmbit":4020,"Ġdecidir":4021,"Ġsistemas":4022,"Ġtothom":4023,"Ġsupon":4024,"Ġinflu":4025,"Ġpapel":4026,"ĠGar":4027,"ĠningÃºn":4028,"Ġesqu":4029,"Ġbuscar":4030,"Ġlimita":4031,"ĠcreaciÃ³":4032,"Ġguard":4033,"Ġ90":4034,"Em":4035,"ICI":4036,"Ġsentido":4037,"Ġconci":4038,"ĠMat":4039,"Ã¨ria":4040,"Ġhub":4041,"Ġone":4042,"Ġcontenido":4043,"Ġpressupos":4044,"recu":4045,"edo":4046,"Ġpost":4047,"ingÃ¼":4048,"Ġul":4049,"tales":4050,"ĠâĢĶ":4051,"Ġofrece":4052,"ĠXX":4053,"tiene":4054,"Ġestrat":4055,"Ġblog":4056,"Pod":4057,"ĠBer":4058,"Ġcinco":4059,"Ġpron":4060,"ĠaÃºn":4061,"Ġacompany":4062,"Ġdissabte":4063,"ĠAdministraciÃ³n":4064,"dem":4065,"educ":4066,"ticia":4067,"Ġnunca":4068,"Ġpugui":4069,"Ġteu":4070,"Ġpartido":4071,"Ġple":4072,"US":4073,"Ġsociales":4074,"Ġcursos":4075,"Ġpueda":4076,"Rec":4077,"teriores":4078,"ĠediciÃ³":4079,"menta":4080,"Ġcurso":4081,"ais":4082,"ĠCos":4083,"Ġmercat":4084,"Ġpais":4085,"way":4086,"Ġcontinguts":4087,"tador":4088,"Ġcuesti":4089,"Ġluc":4090,"AsÃŃ":4091,"fo":4092,"obil":4093,"ĠsÃ¨":4094,"Ġprac":4095,"Ġprecio":4096,"Ġpremi":4097,"IR":4098,"Ġllevar":4099,"arem":4100,"Ġcampanya":4101,"Ġintrodu":4102,"zÃ³":4103,"hes":4104,"legi":4105,"Ġorganitz":4106,"ĠSuper":4107,"Ġtreballadors":4108,"Ġejercicio":4109,"Ġpantal":4110,"Ġkm":4111,"ings":4112,"Ġintel":4113,"ĠrÃ¡":4114,"Ġsean":4115,"aquestes":4116,"Ġpodria":4117,"Ġfons":4118,"istre":4119,"Ġprincipals":4120,"Ġhabi":4121,"ĠperÃŃode":4122,"Ġtercera":4123,"Ġvist":4124,"ments":4125,"cidad":4126,"ĠconstrucciÃ³":4127,"ÃŃp":4128,"fac":4129,"Ġlogr":4130,"rans":4131,"Ġeleccions":4132,"Ġejecu":4133,"ĠÃ¡mbito":4134,"Ġpaso":4135,"Ġproposta":4136,"erramien":4137,"Ã©gimen":4138,"Ġorigen":4139,"vent":4140,"Ġconced":4141,"Ara":4142,"Ġpreocup":4143,"Cal":4144,"Ġentonces":4145,"Ġestava":4146,"itario":4147,"Im":4148,"unda":4149,"Ġaquellos":4150,"Ġenfermedad":4151,"Ġclientes":4152,"Ġllei":4153,"Ġsala":4154,"Ġprincipales":4155,"ello":4156,"Ġ80":4157,"Ġestu":4158,"Ġgente":4159,"isto":4160,"ĠcrÃ©":4161,"ĠÃŃn":4162,"ĠdemÃ¡s":4163,"ka":4164,"ĠdemocrÃł":4165,"davant":4166,"imo":4167,"ega":4168,"Ġhagi":4169,"Ġpropia":4170,"igur":4171,"Ġgracias":4172,"din":4173,"Ġconn":4174,"ĠBan":4175,"Ġdenomin":4176,"Ġsil":4177,"Ġcoin":4178,"Ġcrisi":4179,"ner":4180,"cap":4181,"Ġsociedad":4182,"untamiento":4183,"Ġenfr":4184,"Ġseptiembre":4185,"ĠUna":4186,"orar":4187,"Ġsentir":4188,"Ġinferior":4189,"Ġeconom":4190,"Ġdestacar":4191,"ĠmÃ¨":4192,"ĠConven":4193,"ĠbÃ¡s":4194,"fico":4195,"esper":4196,"ĠRod":4197,"Ġtractament":4198,"Ġmostr":4199,"Ġeta":4200,"ĠdirecciÃ³n":4201,"icacions":4202,"Ġposterior":4203,"Ġaudi":4204,"Ġtermini":4205,"util":4206,"uegos":4207,"Ġviu":4208,"Ġresto":4209,"Ġprogres":4210,"Ġcompra":4211,"pir":4212,"ĠVer":4213,"Ġindividual":4214,"Ġdescon":4215,"ragona":4216,"Ġformat":4217,"Ġmodelo":4218,"Ã¡lisis":4219,"Ġvas":4220,"Ġevalu":4221,"Ġmedida":4222,"ĠPl":4223,"Ġrepe":4224,"Ġrob":4225,"Ġexplicar":4226,"xima":4227,"Ġtarde":4228,"Ġbos":4229,"ulas":4230,"Ġcapacitat":4231,"Ġorganiz":4232,"ÃŃstic":4233,"Ġfron":4234,"Di":4235,"adamente":4236,"III":4237,"Ġurb":4238,"Ġresultat":4239,"Ġacad":4240,"Ġinfantil":4241,"ĠmatÃŃ":4242,"anÃ§a":4243,"70":4244,"teix":4245,"ĠdeberÃ¡":4246,"Ġdebido":4247,"29":4248,"Ġvisitar":4249,"taria":4250,"Ġdepartament":4251,"rÃŃ":4252,"Ġmillorar":4253,"ĠMunicip":4254,"Final":4255,"odos":4256,");":4257,"anys":4258,"Ġlibre":4259,"entment":4260,"Ġalso":4261,"ĠpolÃŃtic":4262,"TE":4263,"Ġmejores":4264,"Ġtingut":4265,"ance":4266,"xit":4267,"bu":4268,"ĠCamp":4269,"Ġincrement":4270,"ey":4271,"ĠEsc":4272,"Ġmundial":4273,"culo":4274,"Ġdepend":4275,"Ġfigura":4276,"Ġresulta":4277,"ĠMol":4278,"ĠAg":4279,"Ġprimers":4280,"Ġvarias":4281,"Ġfrecu":4282,"ĠSin":4283,"Ġefica":4284,"ĠJes":4285,"Ġmolta":4286,"Ġespacio":4287,"Ãºtil":4288,"ĠâĤ¬":4289,"teriormente":4290,"Ġaquells":4291,"Ġeran":4292,"tÃłncia":4293,"Ġestructura":4294,"ĠfarÃł":4295,"Ġveloci":4296,"Ġaccep":4297,"ence":4298,"Ġedad":4299,"Ġproyectos":4300,"Ġconsulta":4301,"isterio":4302,"illas":4303,"blement":4304,"Ġinversi":4305,"Â¡":4306,"ministraciÃ³":4307,"Ġfamiliar":4308,"ÃĵN":4309,"genes":4310,"Ġmotiu":4311,"tividad":4312,"Ġtir":4313,"out":4314,"turo":4315,"Ġmantenir":4316,"Ġrend":4317,"autor":4318,"Ġobjeto":4319,"Ġexcel":4320,"Ġformar":4321,"Ġellas":4322,"OC":4323,"presa":4324,"Ãłtic":4325,"Ġcuales":4326,"itaria":4327,"pes":4328,"ogle":4329,"Ġcoc":4330,"Ġequipos":4331,"ĠMont":4332,"Ġluego":4333,"isa":4334,"unes":4335,"cidos":4336,"Ġdeleg":4337,"ĠdiseÃ±o":4338,"Ġpartes":4339,"blemente":4340,"Ġformul":4341,"ete":4342,"Ġampli":4343,"To":4344,"Ġhauria":4345,"isiones":4346,"Ġciutadans":4347,"Ġimportantes":4348,"escola":4349,"Ġherramien":4350,"Ġcontex":4351,"ife":4352,"Ġpagar":4353,"Ġ2005":4354,"Ġvivien":4355,"Ġcombin":4356,"Ġarquitec":4357,"Ġefecto":4358,"Ġwe":4359,"Ġend":4360,"ary":4361,"//":4362,"glÃ©sia":4363,"Ġpuguin":4364,"ting":4365,"Ġsols":4366,"Ġorigin":4367,"ival":4368,"ĠCultura":4369,"apa":4370,"Ġgrupos":4371,"ĠPerÃ²":4372,"ĠMÃ©":4373,"americ":4374,"Ġelementos":4375,"Ġponer":4376,"Ġsh":4377,"AixÃ²":4378,"rament":4379,"Ġconseguir":4380,"article":4381,"ĠDecreto":4382,"Ġpesar":4383,"Ġdesign":4384,"Ġimplic":4385,"Ġgaudir":4386,"ĠmÃ¡ximo":4387,"Ġenll":4388,"ĠRE":4389,"Ã©is":4390,"ÃŃci":4391,"Ġits":4392,"28":4393,"Ġyour":4394,"ĠtÃŃtulo":4395,"quet":4396,"illo":4397,"Ġcomer":4398,"ĠpresentaciÃ³":4399,"ĠÃ©x":4400,"ĠpolÃŃtiques":4401,"26":4402,"Ġdespla":4403,"irÃ¡":4404,"Ġestem":4405,"ĠpresÃ¨ncia":4406,"Ġconfer":4407,"ĠGra":4408,"ĠHo":4409,"diÃ³":4410,"Ġ2015":4411,"itaciÃ³n":4412,"Ġlen":4413,"Ġdiumenge":4414,"avier":4415,"Ġdolor":4416,"Ġcapa":4417,"Ġ:":4418,"orld":4419,"Ġasegur":4420,"Ġhospital":4421,"ĠfÃłcil":4422,"Ġĉ":4423,"ĠalgÃºn":4424,"Ġpropiet":4425,"uto":4426,"Ġsap":4427,"aren":4428,"ĠForm":4429,"itÃłria":4430,"Ġdismin":4431,"Ġprior":4432,"tÃŃculos":4433,"sific":4434,"ĠdirecciÃ³":4435,"alt":4436,"Ġmedia":4437,"Ġpresidente":4438,"Ġnoche":4439,"inici":4440,"Me":4441,"ĠQUE":4442,"ĠcaracterÃŃsticas":4443,"ĠLleida":4444,"Ġrisc":4445,"tÃ²ria":4446,"ise":4447,"ĠsÃŃn":4448,"ĠbÃłs":4449,"aten":4450,"Ġdoble":4451,"Ġsis":4452,"usuari":4453,"ĠJul":4454,"IO":4455,"Ġ2016":4456,"Ġutilizar":4457,"bum":4458,"ĠorganizaciÃ³n":4459,"Ġprohib":4460,"Ġpuedan":4461,"ĠeconÃ²mica":4462,"Ġmagn":4463,"Ġnota":4464,"ĠtindrÃł":4465,"Ġsortir":4466,"king":4467,"anya":4468,"Ġhotel":4469,"Ġespecialmente":4470,"Ġpresup":4471,"ĠCOM":4472,"Ġfebrer":4473,"Esto":4474,"ĠDav":4475,"cipl":4476,"Ġdescar":4477,"Ġsta":4478,"tivitat":4479,"',":4480,"Ġseran":4481,"quiera":4482,"tible":4483,"lavors":4484,"Ġcontinuar":4485,"onia":4486,"ĠpolÃŃtics":4487,"ĠprotecciÃ³n":4488,"ĠMundial":4489,"Ġempez":4490,"ĠallÃ²":4491,"Ġhabil":4492,"CO":4493,"Ġalem":4494,"Ġcorrespondiente":4495,"ĠAp":4496,"Ġabsolu":4497,"Ġflu":4498,"Ġquanti":4499,"Ġout":4500,"Ġajus":4501,"Ġ2017":4502,"Ġparece":4503,"ĠTarragona":4504,"mina":4505,"Ġgre":4506,"Ġsenci":4507,"Ġmodern":4508,"Ġtheir":4509,"Ġbr":4510,"Ġresultado":4511,"atorio":4512,"Ġprou":4513,"ĠtÃŃtol":4514,"Ġprofessor":4515,"Ġlliber":4516,"Ġimatge":4517,"Ġindustrial":4518,"Ġnecessitats":4519,"paÃ±a":4520,"Ġsensi":4521,"27":4522,"Ã¨tica":4523,"Ġdescob":4524,"Ġfunciones":4525,"ĠUnidos":4526,"Ġarriba":4527,"198":4528,"ĠServe":4529,"Ġcompartir":4530,"blioteca":4531,"ĠOl":4532,"Ġescen":4533,"Ġrevista":4534,"ilib":4535,"ĠvehÃŃcul":4536,"Ġsolid":4537,"ĠfamÃŃlies":4538,"ĠFundaciÃ³":4539,"umb":4540,"Ġcelebrar":4541,"Ġmusical":4542,"Ġnecessitat":4543,"Ġcomprar":4544,"Ġdescub":4545,"ĠÃºltimos":4546,"Ġanomen":4547,"Durant":4548,"Jo":4549,"ĠConstitu":4550,"tern":4551,"tÃł":4552,"fe":4553,"ĠfÃ¡cil":4554,"Ġmano":4555,"Ġdejar":4556,"Ġhome":4557,"Ġtecnolog":4558,"Ġtenemos":4559,"ĠQue":4560,"idors":4561,"ĠgairebÃ©":4562,"Ġviure":4563,"sim":4564,"Ġfas":4565,"Ġambiental":4566,"Ġinforma":4567,"Ġvehic":4568,"Ġbat":4569,"opera":4570,"DO":4571,"icina":4572,"ĠprÃ²pia":4573,"Ġnosotros":4574,"Ġgro":4575,"Ġye":4576,"actu":4577,"ĠclÃŃn":4578,"Ġdivendres":4579,"vestig":4580,"ĠMartÃŃn":4581,"Ġtitul":4582,"ĠconseqÃ¼":4583,"Ġcuar":4584,"Ġlocals":4585,"Ġherm":4586,"igos":4587,"Ã¼es":4588,"Ġrealidad":4589,"Ġjustific":4590,"dades":4591,"**":4592,"Ġencontr":4593,"Ġmetres":4594,"Ġelements":4595,"Ġdepen":4596,"Ġartic":4597,"TO":4598,"Ġconeixement":4599,"Ġnuc":4600,"ĠCatalana":4601,"Ġimagen":4602,"ĠproducciÃ³":4603,"son":4604,"Ġefectu":4605,"Ġ2013":4606,"ki":4607,"Ġprocedimiento":4608,"Am":4609,"Ġorien":4610,"arts":4611,"tig":4612,"ĠFes":4613,"Ġactivitat":4614,"iera":4615,"Ġestruc":4616,"Ġfl":4617,"Ġreserva":4618,"so":4619,"Ã¡tico":4620,"seÃ±":4621,"Ġbases":4622,"Ġcorpor":4623,"Ġcelebra":4624,"Ġprimeros":4625,"ĠMerc":4626,"ciden":4627,"Res":4628,"IF":4629,"Ã§ar":4630,"Ġnorma":4631,"ĠEsta":4632,"Institu":4633,"Ġcentros":4634,"ixa":4635,"Ġcert":4636,"Ġgobierno":4637,"90":4638,"Ġdivid":4639,"raes":4640,"ĠÃºnico":4641,"Ġfol":4642,"Ġentr":4643,"ĠRepÃºblica":4644,"Ġpotser":4645,"Car":4646,"br":4647,"Ġexerci":4648,"ĠpodrÃŃa":4649,"Ġllum":4650,"Ġreconeix":4651,"Ġperten":4652,"enso":4653,"Ġnecesidad":4654,"Ġprova":4655,"Ġvaria":4656,"Ġmismos":4657,"Ġaquella":4658,"ĠresoluciÃ³n":4659,"Ġconstruir":4660,"antar":4661,"Ġwho":4662,"echo":4663,"ped":4664,"espec":4665,"Ġespera":4666,"ĠMarÃŃa":4667,"ĠJun":4668,"Ġdicha":4669,"Ġcarretera":4670,"Ġcomm":4671,"odi":4672,"Ġconjunto":4673,"ĠSa":4674,"udo":4675,"ye":4676,"ĠIt":4677,"Ten":4678,"Ġgir":4679,"Ġfesta":4680,"Ġsecret":4681,"icar":4682,"Ġsembl":4683,"aritat":4684,"Ã³vil":4685,"Ġ35":4686,"ivos":4687,"Ġanat":4688,"Ġabier":4689,"Ġ2004":4690,"Ġ2014":4691,"Ġcosta":4692,"Ġtext":4693,"jat":4694,"ĠfunciÃ³":4695,"Ġcomarca":4696,"ĠÃ³rgan":4697,"ĠreferÃ¨ncia":4698,"Ã©tica":4699,"Ġfebrero":4700,"Ġmantener":4701,"Ġvolem":4702,"Ġconsi":4703,"Ġminutos":4704,"Ġretir":4705,"tero":4706,"Cada":4707,"adasc":4708,"ego":4709,"redi":4710,"IG":4711,"ĠPr":4712,"Ġalto":4713,"Ġpodran":4714,"://":4715,"Ġfo":4716,"anti":4717,"Ġprimero":4718,"Ġresposta":4719,"ĠcrÃŃ":4720,"Ġposibilidad":4721,"ĠTribunal":4722,"Ġnecesidades":4723,"Ġ(\"":4724,"Ġplataforma":4725,"ff":4726,"Ġep":4727,"Ġofereix":4728,"ket":4729,"45":4730,"Ġbeen":4731,"Ġregular":4732,"Ġpodeu":4733,"enar":4734,"Ġreferencia":4735,"Ġprevist":4736,"ĠsÃ¨rie":4737,"Ġusted":4738,"Ob":4739,"ĠDip":4740,"Ġllibres":4741,"Ġsud":4742,"etas":4743,"Ġextraordin":4744,"Ġargu":4745,"Ġutilitz":4746,"Ġnormas":4747,"sin":4748,"Ġcrisis":4749,"Ġcomien":4750,"Ġresponsabilidad":4751,"ĠGuerra":4752,"ĠLOS":4753,"ĠartÃŃculos":4754,"Ġcargo":4755,"Ġimportants":4756,"exo":4757,"erto":4758,"inf":4759,"Ġfutbol":4760,"Ġpasar":4761,"Ã¨l":4762,"Ġfirst":4763,"deix":4764,"Espanya":4765,"lle":4766,"Ġestudis":4767,"estiu":4768,"ĠCentro":4769,"Ġdefinitiva":4770,"rio":4771,"Ã©rica":4772,"ĠtendrÃ¡":4773,"Ġespais":4774,"ĠDur":4775,"ĠCarlos":4776,"Ġpresencia":4777,"ĠPere":4778,"ds":4779,"Ġmillors":4780,"Ġexam":4781,"Ġade":4782,"Ġ70":4783,"ux":4784,"ances":4785,"ĠCivil":4786,"Ġapren":4787,"Ġfundamental":4788,"Ġadul":4789,"Ġcot":4790,"olo":4791,"Ġvisual":4792,"ĠcomÃºn":4793,"Ġrebre":4794,"Ġorg":4795,"Ġdestaca":4796,"Ġtuvo":4797,"35":4798,"reas":4799,"Ġpreu":4800,"Ġfuturo":4801,"Ġtarda":4802,"Ġhizo":4803,"rent":4804,"rill":4805,"ĠparticipaciÃ³n":4806,"onio":4807,"Ġhomes":4808,"tware":4809,"nat":4810,"cha":4811,"Ġoferta":4812,"Ġmiss":4813,"ĠNew":4814,"Ġran":4815,"ajo":4816,"ely":4817,"Ġfoment":4818,"ĠOc":4819,"Ġata":4820,"tals":4821,"ĠĠĠĠ":4822,"ĠAntonio":4823,"citat":4824,"oses":4825,"ĠUr":4826,"Ġmecan":4827,"Ġpsic":4828,"tancias":4829,"Ġlong":4830,"Ġrecordar":4831,"irse":4832,"Ġinscrip":4833,"ÃŃodo":4834,"Segons":4835,"ĠdÃ³na":4836,"Ġsho":4837,"ĠdisposiciÃ³n":4838,"Ġdarrer":4839,"ĠvÃŃdeo":4840,"Ġhavien":4841,"ĠacompaÃ±":4842,"Ġrenov":4843,"Ġlleva":4844,"ĠtenÃŃa":4845,"ĠPo":4846,"Ġpueblo":4847,"Ġ2018":4848,"iÃł":4849,"estre":4850,"Ġcampo":4851,"ĠpÃºblics":4852,"ĠMinisterio":4853,"Algun":4854,"Ġmulti":4855,"Th":4856,"Ġsiguin":4857,"Ġrebut":4858,"Ġfrac":4859,"ĠMal":4860,"Ġmand":4861,"Ġpetit":4862,"este":4863,"Ġincid":4864,"Ġresponsables":4865,"siva":4866,"ild":4867,"Ã©m":4868,"ofer":4869,"gat":4870,"Av":4871,"Ġpago":4872,"ĠCiu":4873,"Ġplay":4874,"Ġapoyo":4875,"Ġtexto":4876,"ĠÃºtil":4877,"Ġdinero":4878,"Ġrig":4879,"Ġmesura":4880,"ĠCab":4881,"Ġret":4882,"Ġmejorar":4883,"grÃ©s":4884,"Ġperfil":4885,"Ġtime":4886,"Ġpuedes":4887,"Ġmostrar":4888,"ĠInd":4889,"Ġesf":4890,"Ġcontenidos":4891,"escrip":4892,"Ġaire":4893,"Ġmujer":4894,"Ġfuncionamiento":4895,"algun":4896,"Ã²ries":4897,"ĠAyuntamiento":4898,"Ġentidades":4899,"ĠenergÃŃa":4900,"ĠlÃŃder":4901,"Ġcultur":4902,"Ġreac":4903,"oro":4904,"alum":4905,"trica":4906,"hn":4907,"ĠfÃŃsica":4908,"ĠIm":4909,"ĠÃ©xito":4910,"Ġlibro":4911,"Ġthey":4912,"Ġequips":4913,"Ġpac":4914,"quia":4915,"Ġcontar":4916,"Ġbusc":4917,"educaciÃ³":4918,"Ġconces":4919,"imismo":4920,"Ġtemes":4921,"guany":4922,"Ġaleg":4923,"Ġintegra":4924,"Ġescrib":4925,"Ġprueba":4926,"Song":4927,"ĠInform":4928,"aplic":4929,"Ġsing":4930,"Ġgerm":4931,"omes":4932,"Ġjugador":4933,"Ġ2003":4934,"Ġdice":4935,"ĠPre":4936,"Ġfus":4937,"LA":4938,"ĠTel":4939,"Ġneu":4940,"ĠningÃº":4941,"Ġhombre":4942,"enciar":4943,"Ġpossibilitat":4944,"Ġfills":4945,"IP":4946,"Ġgenera":4947,"gado":4948,"tarÃł":4949,"ĠIII":4950,"Ġmencion":4951,"Ġnad":4952,"ĠMunicipal":4953,"Ġatrac":4954,"36":4955,"aug":4956,"peu":4957,"Ġocur":4958,"%.":4959,"ĠIns":4960,"Ġregistr":4961,"ĠUniÃ³n":4962,"Ġtem":4963,"ley":4964,"ĠEspaÃ±":4965,"ĠTo":4966,"Ġarch":4967,"Ja":4968,"Ġprove":4969,"ebo":4970,"ort":4971,"ĠPaÃŃs":4972,"Ġdomici":4973,"Ġreserv":4974,"ĠEste":4975,"laciÃ³":4976,"ĠBe":4977,"Ġdescans":4978,"espai":4979,"Ġobtener":4980,"Ġconocimiento":4981,"ĠFrancis":4982,"entrada":4983,"Ġcoraz":4984,"Ġseleccion":4985,"Ġpropostes":4986,"Ġdemanda":4987,"Ġmetros":4988,"ĠCer":4989,"omÃ©s":4990,"ĠAlb":4991,"osto":4992,"essin":4993,"ĠtÃ©cnicas":4994,"ĠconstrucciÃ³n":4995,"ĠEcon":4996,"Ġderro":4997,"Ġsum":4998,"Ġlectura":4999,"ĠBale":5000,"Ġsimilar":5001,"Ġinstalaciones":5002,"ĠperÃŃodo":5003,"Ġaprof":5004,"Ġagrad":5005,"Ġcompleta":5006,"anar":5007,"Ġfines":5008,"ĠAt":5009,"glesia":5010,"Ġconfian":5011,"Ãłnia":5012,"remos":5013,"Ġrit":5014,"Ġespanyola":5015,"Ġluz":5016,"hile":5017,"Ġhid":5018,"Ġcomunitat":5019,"Ġrod":5020,"ĠMay":5021,"ĠMag":5022,"Ġcuad":5023,"ĠCul":5024,"Ġprogramas":5025,"ueva":5026,"metros":5027,"ogrÃ¡":5028,"Ã¡r":5029,"ĠParlament":5030,"Us":5031,"ĠMos":5032,"imp":5033,"itaciÃ³":5034,"Ġpregunta":5035,"ĠJaume":5036,"Ġparaules":5037,"ĠPuig":5038,"Ġcadasc":5039,"Ġbec":5040,"iem":5041,"Ġparts":5042,"vel":5043,"guÃ©":5044,"Ġinver":5045,"Ġmotor":5046,"Ġantigu":5047,"Ġnaturales":5048,"IX":5049,"Ġatra":5050,"ĠDipu":5051,"ĠTV":5052,"ulaciÃ³n":5053,"Ġaccid":5054,"itÃ©":5055,"vas":5056,"van":5057,"ĠManuel":5058,"Ġexterior":5059,"Ã³c":5060,"ĠFel":5061,"licitud":5062,"ĠYork":5063,"depend":5064,"Ġopin":5065,"ĠGe":5066,"Ġlater":5067,"Ġpares":5068,"Ġdebat":5069,"Ġbol":5070,"Euro":5071,"ĠAL":5072,"amor":5073,"75":5074,"Ġcircul":5075,"rien":5076,"Ġmillora":5077,"Ġdonat":5078,"ĠGoogle":5079,"Ġesdeven":5080,"grama":5081,"ua":5082,"Ġvoltant":5083,"iran":5084,"Ġconsolid":5085,"Dis":5086,"ĠcompaÃ±ÃŃa":5087,"ĠrÃ©gimen":5088,"Ġllista":5089,"Ġvend":5090,"olÃ²gic":5091,"usa":5092,"Ãłtica":5093,"atures":5094,"ovint":5095,"Ġteva":5096,"olÃ³gico":5097,"etos":5098,"Ġmarxa":5099,"ĠmitjÃł":5100,"Ġbeb":5101,"ĠcreaciÃ³n":5102,"exper":5103,"ath":5104,"Ġdiners":5105,"ples":5106,"ker":5107,"Ġobjectiu":5108,"ĠMall":5109,"ĠAlem":5110,"Ġdistintos":5111,"Ġintentar":5112,"Ġcontras":5113,"Ġover":5114,"Ġmoviment":5115,"lles":5116,"enas":5117,"aja":5118,"ĠBr":5119,"ĠLo":5120,"Ġdisfrutar":5121,"Ġpiel":5122,"Ġbaixa":5123,"ĠprotecciÃ³":5124,"aut":5125,"Ġdirecta":5126,"Ġmobil":5127,"Ġguanyar":5128,"Ġpropuesta":5129,"Ġzonas":5130,"Ens":5131,"eses":5132,"Ġestra":5133,"riÃ³":5134,"asses":5135,"urg":5136,"Ġparla":5137,"Ġadequ":5138,"uncia":5139,"ertura":5140,"dis":5141,"Ġfoc":5142,"ĠRom":5143,"organitzaciÃ³":5144,"Ġment":5145,"idores":5146,"ĠdiseÃ±":5147,"ĠversiÃ³n":5148,"Ġparticipa":5149,"Ġaus":5150,"edores":5151,"volupar":5152,"Ġcamino":5153,"Hay":5154,"ĠPop":5155,"Ġmuestra":5156,"Ġnovel":5157,"utri":5158,"Ġcompta":5159,"Ġbloc":5160,"rel":5161,"Ġsecund":5162,"Ġcliente":5163,"Institut":5164,"age":5165,"fon":5166,"venes":5167,"ited":5168,"ĠavanÃ§":5169,"Ġges":5170,"Ġbro":5171,"Ġencar":5172,"Ġzones":5173,"Ã³digo":5174,"Inter":5175,"udi":5176,"Ġfeia":5177,"Ġendavant":5178,"Ġdipu":5179,"Ġobjectius":5180,"ĠJesÃºs":5181,"aco":5182,"Ġprincipio":5183,"arcÃŃa":5184,"Ġdemanar":5185,"ĠacciÃ³n":5186,"iciÃ³n":5187,"Ġlista":5188,"Ġdado":5189,"Ġmuerte":5190,"Ġresponsabilitat":5191,"Ġllibertat":5192,"Ġpista":5193,"Ġvolunt":5194,"Ġsortida":5195,"ĠCE":5196,"Ġcontingut":5197,"ĠmÃ©to":5198,"Ġdiferent":5199,"uit":5200,"ĠLuis":5201,"Ġdreta":5202,"estr":5203,"48":5204,"ree":5205,"rend":5206,"Ġonline":5207,"Ġcanal":5208,"Ġdisminu":5209,"Ġmateixos":5210,"Ġsuperfici":5211,"igen":5212,"Ġ&":5213,"dicos":5214,"Ã²ric":5215,"Ġhacen":5216,"Ġases":5217,"Ġcontinua":5218,"ĠPÃºbl":5219,"far":5220,"auto":5221,"ĠMic":5222,"Ġsustitu":5223,"Ã¡ndez":5224,"Ġagosto":5225,"Ġkil":5226,"Ġordin":5227,"Ġwo":5228,"Ġmodific":5229,"Ġcuid":5230,"Ġdetall":5231,"iquen":5232,"cor":5233,"uÃ±a":5234,"Ġsigue":5235,"Ab":5236,"Ġenla":5237,"Ġdiver":5238,"iana":5239,"Ġcalor":5240,"Ġalumnos":5241,"Ġconsumo":5242,"33":5243,"Ġtransfer":5244,"Ġom":5245,"Ġindica":5246,"Ġseis":5247,"acin":5248,"ĠvÃŃc":5249,"sar":5250,"Ġbra":5251,"Ġfrances":5252,"Ġcambios":5253,"istema":5254,"ĠSab":5255,"Ġ45":5256,"ĠCasa":5257,"Ġfiscal":5258,"Ġobjetivos":5259,"Ġcorreu":5260,"Ġutilitzar":5261,"ĠespaÃ±ola":5262,"Ġprevi":5263,"Ġentidad":5264,"Ġsimple":5265,"Ġnecessari":5266,"ĠOn":5267,"AssociaciÃ³":5268,"Ġcategoria":5269,"Ġimpar":5270,"Ġparcial":5271,"tp":5272,"SegÃºn":5273,"Ġrecorre":5274,"Ġlic":5275,"Ġpogut":5276,"ĠanÃ¡lisis":5277,"asta":5278,"Ġaccions":5279,"torn":5280,"Ġefici":5281,"Ġcalle":5282,"Ã¡nica":5283,"Ġenf":5284,"ĠDavid":5285,"Ġpractic":5286,"ĠAss":5287,"ĠrÃ¡p":5288,"Ġcontacte":5289,"tanya":5290,"asc":5291,"Ġ+":5292,"ĠmÃ²":5293,"ĠeconÃ³mica":5294,"Ġmore":5295,"ile":5296,"Ġmodal":5297,"Ġartis":5298,"PA":5299,"cida":5300,"Ġfres":5301,"SE":5302,"Ãºa":5303,"Ġaz":5304,"ĠRob":5305,"emble":5306,"ingo":5307,"ĠBlan":5308,"ĠÃºs":5309,"Ġvigor":5310,"entitat":5311,"Ġreforma":5312,"ismes":5313,"Ġimportancia":5314,"Ġmodifica":5315,"chez":5316,"ued":5317,"Ġparticipants":5318,"rats":5319,"wer":5320,"Ġbor":5321,"Ġdesenvolupar":5322,"Ġpressupost":5323,"Ġexac":5324,"ĠAquest":5325,"ĠEstat":5326,"ĠOri":5327,"Ġhombres":5328,"ĠcrÃ©d":5329,"Ġconsecuencia":5330,"ĠLAS":5331,"ward":5332,"Ġtemporal":5333,"ogrÃł":5334,"Ãłri":5335,"Ġmiembro":5336,"Ġbel":5337,"......":5338,"ram":5339,"Ġlliu":5340,"Ġnuestras":5341,"Ġmom":5342,"voca":5343,"altre":5344,"rito":5345,"Ġfotos":5346,"Ġimpac":5347,"ducciÃ³n":5348,"Ġrevolu":5349,"RC":5350,"Ġtomar":5351,"Ġnega":5352,"Ġruta":5353,"ĠprÃ¡ctica":5354,"Ġprecios":5355,"Ġquad":5356,"olÃ²gica":5357,"alta":5358,"Ġtes":5359,"Ã³venes":5360,"Ġrecuperar":5361,"ĠOrden":5362,"Ġsir":5363,"Ġambos":5364,"ĠediciÃ³n":5365,"Ġtranquil":5366,"ĠÃ¡rea":5367,"Ġaplicar":5368,"Ġtraduc":5369,"otes":5370,"Ġadel":5371,"aga":5372,"ĠprÃłctica":5373,"ĠenseÃ±":5374,"ĠcomenÃ§a":5375,"hip":5376,"Ġacciones":5377,"Ġcontrato":5378,"Ġplat":5379,"Ġfit":5380,"ĠDon":5381,"Ġacaba":5382,"Ġdimen":5383,"Ġredac":5384,"arrib":5385,"Ġllo":5386,"ĠIV":5387,"eixi":5388,"ĠestratÃ¨g":5389,"ĠmatÃ¨ria":5390,"glÃ¨s":5391,"Ġidi":5392,"ĠPAR":5393,"ajes":5394,"Ġdese":5395,"ĠRed":5396,"ĠLlu":5397,"Ġexplo":5398,"Ġdisponible":5399,"uye":5400,"TER":5401,"Ġarm":5402,"Ġcreu":5403,"Ġbla":5404,"habil":5405,"Ġacum":5406,"itatge":5407,"Ã³nica":5408,"Ġfets":5409,"Ġfemen":5410,"Ġformal":5411,"Ġplena":5412,"Ġsuperar":5413,"Ġball":5414,"Ġactualment":5415,"Ġinto":5416,"Ġvoluntat":5417,"ociaciÃ³n":5418,"Ġagrada":5419,"Ġcanvis":5420,"DE":5421,"ĠComissiÃ³":5422,"Ġpantalla":5423,"Ġvolen":5424,"65":5425,"amientos":5426,"aÃ±ana":5427,"99":5428,"Ġassegu":5429,"Ġother":5430,"Ġentrev":5431,"Ġacos":5432,"Ġwhen":5433,"ĠPRO":5434,"Actual":5435,"onda":5436,"illuns":5437,"Ġinvesti":5438,"diz":5439,"ĠGarcÃŃa":5440,"Hist":5441,"ĠHa":5442,"Ġlluita":5443,"cles":5444,"ĠtecnologÃŃa":5445,"Ġestilo":5446,"Ġtransporte":5447,"Ġfuncionament":5448,"\")":5449,"Ġtipos":5450,"ĠUs":5451,"ĠcolaboraciÃ³n":5452,"Ġcarta":5453,"Ġbomb":5454,"Ġllavors":5455,"ĠVa":5456,"Ġnorte":5457,"ĠposiciÃ³":5458,"Ġtwo":5459,"Ã¡ticos":5460,"Ġninguna":5461,"PT":5462,"Ã¨gim":5463,"ius":5464,"Ġvideo":5465,"Ãºlti":5466,"edat":5467,"Ġusar":5468,"ports":5469,"Ġcuya":5470,"iguel":5471,"Ġinfec":5472,"teriorment":5473,"Ġ2019":5474,"Ġencuentran":5475,"ĠcanÃ§":5476,"Ġeng":5477,"reci":5478,"ĠBal":5479,"Ġaspectes":5480,"Ġassol":5481,"Ġclau":5482,"Ãłleg":5483,"agost":5484,"Ġclasse":5485,"ibilitat":5486,"Ġcuyo":5487,"Durante":5488,"Ġtierra":5489,"ĠPedro":5490,"Ġassegur":5491,"atenciÃ³":5492,"rega":5493,"Ġlike":5494,"rere":5495,"Ġmunicipio":5496,"Ġfall":5497,"Ġdistintas":5498,"presid":5499,"Ġelimin":5500,"onz":5501,"Ġthere":5502,"Ġconec":5503,"ĠserÃŃa":5504,"Ġconsiste":5505,"ĠDoc":5506,"Ġvesti":5507,"anc":5508,"You":5509,"Ġdocument":5510,"Ġquiere":5511,"very":5512,"www":5513,"Ġredes":5514,"Ġdirectamente":5515,"Ġmunicipals":5516,"jada":5517,"ĠexperiÃ¨ncia":5518,"Ġquiero":5519,"ĠDÃ©u":5520,"Ġprendre":5521,"Ġsp":5522,"tall":5523,"pies":5524,"Ġestablecido":5525,"Ġ2002":5526,"onÃ²m":5527,"ĠDesp":5528,"Ġcristi":5529,"ĠÃ©poca":5530,"ĠVir":5531,"Ġtasca":5532,"Ġperju":5533,"Ã¨d":5534,"sible":5535,"don":5536,"Ġcomporta":5537,"ĠNO":5538,"ĠpelÃŃcula":5539,"ky":5540,"ĠAC":5541,"ellas":5542,"Ġrealizado":5543,"Ġelectoral":5544,"ĠFrancisco":5545,"Ġmateriales":5546,"viv":5547,"Ġgaranti":5548,"Ġbaja":5549,"Ġclara":5550,"ministr":5551,"Ġobstante":5552,"Ser":5553,"Ġempleo":5554,"Ġconsist":5555,"obl":5556,"Ġital":5557,"haver":5558,"zada":5559,"Ġmoments":5560,"ĠveÃ¯ns":5561,"Ġprovincia":5562,"Ġiniciar":5563,"Ġparal":5564,"Ġrespuesta":5565,"Ġcanviar":5566,"Ġobtenir":5567,"Ġvalors":5568,"ENTE":5569,"ĠindependÃ¨ncia":5570,"ĠFrances":5571,"Ġdeclara":5572,"Ġperspec":5573,"ĠallÃŃ":5574,"havia":5575,"Ġetapa":5576,"Ġenviar":5577,"Ġapun":5578,"ĠTambÃ©":5579,"Ġdiagn":5580,"tarse":5581,"Ġentorno":5582,"Ġcuri":5583,"ĠInstituto":5584,"He":5585,"ĠMen":5586,"Ġmans":5587,"Ġpaciente":5588,"usiÃ³":5589,"bal":5590,"Ġsistemes":5591,"iencias":5592,"Yo":5593,"Ġdirectament":5594,"upar":5595,"izados":5596,"Ġconsta":5597,"isos":5598,"Ġcompren":5599,"tifica":5600,"ĠProfes":5601,"Ã²nica":5602,"oda":5603,"etres":5604,"Ġllegir":5605,"Ġfen":5606,"Ġespecta":5607,"Ġseguro":5608,"iquel":5609,"ĠimportÃłncia":5610,"Ġdesemp":5611,"olÃ³gica":5612,"Ġ2001":5613,"ĠMallorca":5614,"Pel":5615,"Ġmayores":5616,"ĠHist":5617,"quin":5618,"Ġtales":5619,"oo":5620,"ĠÃĢ":5621,"Ġradio":5622,"Ġerr":5623,"ĠestÃ©":5624,"Ġjard":5625,"ĠPala":5626,"Ġpartida":5627,"Ġpots":5628,"pecial":5629,"Ġnotific":5630,"ĠPara":5631,"ning":5632,"Ġregal":5633,"mer":5634,"Ġ$":5635,"ĠHum":5636,"Ġpetits":5637,"Ġinfraes":5638,"Ġknow":5639,"Ġjove":5640,"Ġmare":5641,"Ġobstant":5642,"Ġreligios":5643,"Ġcooper":5644,"Ã§ada":5645,"Ġclients":5646,"Ġdibu":5647,"ĠpresentaciÃ³n":5648,"ĠjÃ³venes":5649,"tina":5650,"Ġpul":5651,"ĠfinanÃ§":5652,"adoras":5653,"eld":5654,"Te":5655,"ĠvÃŃa":5656,"iri":5657,"RA":5658,"Ġdorm":5659,"ĠeconÃ²mic":5660,"Ġjugadores":5661,"ĠmÃ©dico":5662,"ĠFil":5663,"cindi":5664,"Ġtaula":5665,"ĠAquesta":5666,"ĠEduc":5667,"Ġmena":5668,"alcalde":5669,"ĠUS":5670,"ĠcategorÃŃa":5671,"ÃŃmp":5672,"Ġtrabajos":5673,"Ġproducte":5674,"Ġcontacto":5675,"Ġquantitat":5676,"ĠenllÃł":5677,"%,":5678,"Ġmala":5679,"ĠpÃºbliques":5680,"--------------------------------":5681,"Ġclassific":5682,"Ġcontes":5683,"Ġprogrames":5684,"ĠtÃ©cnica":5685,"tana":5686,"Ġinstruc":5687,"har":5688,"avÃŃa":5689,"ticamente":5690,"500":5691,"ĠBor":5692,"Ġtrasl":5693,"Ġsovint":5694,"Ġpermitir":5695,"Ġaugment":5696,"Ġveritat":5697,"Ġimplica":5698,"Ġpudi":5699,"Ġquienes":5700,"Ġconsultar":5701,"Ġesfuer":5702,"ĠPSOE":5703,"Ġdarrers":5704,"guez":5705,"orth":5706,"ĠposiciÃ³n":5707,"Ġofrecer":5708,"cada":5709,"Ġniveles":5710,"05":5711,"Ġprote":5712,"del":5713,"ĠUniÃ³":5714,"Ġescrito":5715,"Ġhuman":5716,"Ġpruebas":5717,"Ġexpos":5718,"emn":5719,"entado":5720,"Ġdiferencia":5721,"Ġ*":5722,"utes":5723,"Ġvers":5724,"quisi":5725,"Ġcoci":5726,"uras":5727,"Ġtrasll":5728,"Ġbici":5729,"culos":5730,"iodo":5731,"Ġinstitucions":5732,"Ġhijos":5733,"Ġdiscurs":5734,"Ġdisponibles":5735,"Ġalmac":5736,"ĠÃºltims":5737,"Ġestamos":5738,"rael":5739,"ĠmaÃ±ana":5740,"UM":5741,"Ġincom":5742,"Ãģ":5743,"wit":5744,"Ġtinc":5745,"Aunque":5746,"ision":5747,"Ġnaturaleza":5748,"Ġrefor":5749,"ĠOficial":5750,"Ġsexual":5751,"Ġtemperatura":5752,"Ġesca":5753,"Tras":5754,"Ġhijo":5755,"ĠMil":5756,"Ġestaven":5757,"Pres":5758,"Ġpena":5759,"Ġrefiere":5760,"ĠPers":5761,"Escola":5762,"Ã²p":5763,"Ġpeso":5764,"Pre":5765,"Ġinternet":5766,"Ġcumplimiento":5767,"ĠmÃŃ":5768,"oli":5769,"Ġexter":5770,"ade":5771,"Ġempresarial":5772,"ĠSala":5773,"Ġpublicar":5774,"Ġclaro":5775,"ĠLond":5776,"ĠCO":5777,"fons":5778,"Ġgastos":5779,"Ġtreballs":5780,"Ġsolicitud":5781,"Ġmotiv":5782,"Nos":5783,"umin":5784,"reta":5785,"Ġperdre":5786,"ĠnotÃŃcia":5787,"ĠmÃºlti":5788,"Ġcog":5789,"Ġtrobem":5790,"tamen":5791,"Ġahir":5792,"Ġdarrera":5793,"08":5794,"Ġ......":5795,"isp":5796,"Ġactes":5797,"yes":5798,"34":5799,"yn":5800,"Ġalred":5801,"cina":5802,"ĠprÃ¨":5803,"Ãłlisi":5804,"Ġperjud":5805,"ĠDirectiva":5806,"hores":5807,"ĠValenciana":5808,"Ã©rd":5809,"xic":5810,"Ġmu":5811,"Ġbatal":5812,"Don":5813,"Ġconclus":5814,"Ġrequisitos":5815,"Ġreiv":5816,"Ġexclusiv":5817,"tle":5818,"Ġtaller":5819,"38":5820,"ata":5821,"ĠTrans":5822,"Ġfirm":5823,"itarios":5824,"Ġvalores":5825,"Ġasign":5826,"ebook":5827,"ĠEd":5828,"ave":5829,"Ġfonamental":5830,"ĠTerritor":5831,"Ġcondu":5832,"Ġpren":5833,"ĠpÃłg":5834,"tiÃ³":5835,"dr":5836,"ĠdeberÃ¡n":5837,"Ġvolver":5838,"Ġdispuesto":5839,"Ġideal":5840,"Ya":5841,"ĠIb":5842,"arÃŃa":5843,"Ġcens":5844,"Ġaspectos":5845,"Ġcomplic":5846,"Ġfix":5847,"Ġesos":5848,"Ġincluye":5849,"Ġacus":5850,"guem":5851,"Ġefectes":5852,"Ġmusic":5853,"Ġfinalment":5854,"Ġestablecer":5855,"Ġdenunci":5856,"Ġfinalitat":5857,"Ġsola":5858,"Ġess":5859,"Ġterritorio":5860,"Ġproto":5861,"Ġacredi":5862,"ames":5863,"Ġmit":5864,"ĠInf":5865,"ĠRib":5866,"lectiu":5867,"Ġprovoc":5868,"Ġperill":5869,"Ġpalabras":5870,"pira":5871,"Ġcierto":5872,"Ġbastante":5873,"Ġrelle":5874,"Ã©cn":5875,"Ġimporte":5876,"Ġcorreo":5877,"Ã¯da":5878,"ĠFin":5879,"gal":5880,"ĠPod":5881,"Ġdubte":5882,"frica":5883,"Ġexpediente":5884,"Ġaccedir":5885,"Ġdelic":5886,"Ġcarrers":5887,"ĠhistÃ³r":5888,"Ġtransport":5889,"Ġsubstitu":5890,"39":5891,"ĠraÃ³":5892,"Ġfinals":5893,"Ġdiscapa":5894,"agrada":5895,"ĠUE":5896,"Ġhumana":5897,"'.":5898,"Ġsupuesto":5899,"Ġseguit":5900,"ires":5901,"ose":5902,"Ġconformidad":5903,"Ġnecesita":5904,"Ġdemostr":5905,"Ġpotencial":5906,"Ġsimil":5907,"CION":5908,"Ġcav":5909,"gudes":5910,"Ġriu":5911,"Ġperiodo":5912,"Ġestudiants":5913,"Ġambiente":5914,"ĠAra":5915,"ĠMiguel":5916,"Ġamena":5917,"Ġolvid":5918,"rees":5919,"Ġmalgrat":5920,"cent":5921,"antÃŃa":5922,"ĠalgÃº":5923,"ĠDios":5924,"Ġmarcha":5925,"Ġlla":5926,"fiques":5927,"Ġestablece":5928,"Ġtenga":5929,"ĠcorazÃ³n":5930,"quid":5931,"Ġnumeros":5932,"Ġpetita":5933,"arte":5934,"Ġsenz":5935,"Ġprincipios":5936,"Ġdilluns":5937,"Ġnaci":5938,"ĠFestival":5939,"oure":5940,"Ġduda":5941,"uerto":5942,"ADO":5943,"ches":5944,"Ġlig":5945,"Ġprocesos":5946,"cara":5947,"37":5948,"ham":5949,"Ġconsiderar":5950,"Ġtenido":5951,"Ġpreveu":5952,"ĠtÃ©rminos":5953,"xico":5954,"Ġtera":5955,"Ġcircuns":5956,"ler":5957,"Ġimped":5958,"100":5959,"Ġarte":5960,"ĠcastellÃł":5961,"ĠquÃŃm":5962,"Ġactuacions":5963,"Ġtrabajar":5964,"Ġmanos":5965,"oj":5966,"Ġclase":5967,"ĠHer":5968,"ĠÃ©ste":5969,"ĠlingÃ¼":5970,"Ã¡genes":5971,"ĠGre":5972,"ink":5973,"Ġbre":5974,"Ġliteratura":5975,"ĠdÃ©":5976,"ĠeducaciÃ³n":5977,"Ġjut":5978,"ĠprÃ³ximo":5979,"Ġdocumental":5980,"ĠregiÃ³n":5981,"Ġbusca":5982,"Ġanteriores":5983,"Ġafirma":5984,"Ġmonta":5985,"Ġenlla":5986,"Ġaviat":5987,"ĠdecisiÃ³":5988,"rg":5989,"cidental":5990,"igua":5991,"Ġtrib":5992,"ĠCD":5993,"Ġexces":5994,"Ġxarxes":5995,"Ġcomunidad":5996,"Ġfuncional":5997,"mad":5998,"sia":5999,"ĠSub":6000,"Ġton":6001,"Ġcrecimiento":6002,"ĠSeguridad":6003,"ĠqÃ¼estiÃ³":6004,"ĠcontinuaciÃ³n":6005,"Ġvent":6006,"Ġenci":6007,"ĠEstats":6008,"IDAD":6009,"Ġtama":6010,"hol":6011,"Ġposa":6012,"Ġsoftware":6013,"Ġescolar":6014,"Ġciutadania":6015,"Ġjudicial":6016,"Ġhaciendo":6017,"ĠDirecciÃ³n":6018,"Ã¡nchez":6019,"Ġalt":6020,"PS":6021,".\"":6022,"ĠSalud":6023,"Ġoferir":6024,"ĠcaracterÃŃstiques":6025,"ĠrazÃ³n":6026,"Ġescrit":6027,"icis":6028,"Ġsituada":6029,"Ġtextos":6030,"Ġtemas":6031,"adell":6032,"Ġmaterials":6033,"Ġentrega":6034,"46":6035,"Ġferro":6036,"iro":6037,"Cap":6038,"Ġmitjana":6039,"ficina":6040,"Ġmicro":6041,"ĠmÃ³vil":6042,"Ġesfor":6043,"anim":6044,"ĠPopular":6045,"dor":6046,"titz":6047,"ĠDis":6048,"Ãłncies":6049,"Ġrecomend":6050,"Ã²nia":6051,"ĠrÃ¨gim":6052,"Ġtroben":6053,"ĠMiquel":6054,"Ġalhora":6055,"edifici":6056,"Ġcreixement":6057,"ĠVila":6058,"Ġtesti":6059,"Ġparlament":6060,"Ġrelacions":6061,"ox":6062,"quina":6063,"Ġimprescindi":6064,"orden":6065,"Ġequival":6066,"Ġformas":6067,"Ġotor":6068,"Ġbrit":6069,"Ġacoll":6070,"Ġdoctor":6071,"Ġdisco":6072,"Ġ300":6073,"LE":6074,"Ġmadre":6075,"estÃł":6076,"ĠgÃ¨n":6077,"enten":6078,"Ġpocs":6079,"ĠpÃ©rd":6080,"Ġimatges":6081,"UC":6082,"Ġobtin":6083,"Ġbet":6084,"ĠAndal":6085,"Ġgrado":6086,"tria":6087,"Educ":6088,"euros":6089,"Ġdid":6090,"ĠGonz":6091,"Ġestil":6092,"ticament":6093,"ĠAsociaciÃ³n":6094,"Ġajudar":6095,"anal":6096,"ĠconvocatÃ²ria":6097,"Ġcelebr":6098,"fin":6099,"Ãłnica":6100,"Ġhonor":6101,"Ġrequier":6102,"cre":6103,"olesc":6104,"Ġsegur":6105,"ĠAD":6106,"Ġ)":6107,"Ġprincipis":6108,"aplicaciÃ³":6109,"etats":6110,"Ġlider":6111,"Ġdijous":6112,"Ġros":6113,"ĠSanti":6114,"Ġapos":6115,"ĠCat":6116,"Ġwork":6117,"ĠversiÃ³":6118,"Ġconvers":6119,"78":6120,"ÃŃstico":6121,"jero":6122,"ĠRa":6123,"tical":6124,"Ġenorm":6125,"ĠelÃ©c":6126,"ung":6127,"iesta":6128,"Ġdiari":6129,"ngel":6130,"Ġ500":6131,"Ġconocido":6132,"Ã³pez":6133,"Ġarribat":6134,"ĠDO":6135,"Ġlit":6136,"Barcelona":6137,"Ġhabita":6138,"Ġ65":6139,"Ġdocumentos":6140,"ĠConvenio":6141,"ĠsessiÃ³":6142,"ĠTr":6143,"ĠCarles":6144,"Ġobert":6145,"Ġfort":6146,"urar":6147,"Ġwould":6148,"ĠmÃŃnimo":6149,"hen":6150,"Ġrecone":6151,"Ġfacul":6152,"para":6153,"Ġfuerza":6154,"Ġcontamin":6155,"Ġjuntament":6156,"ĠPrin":6157,"Ġvege":6158,"ĠMe":6159,"Ġafter":6160,"ĠÂ¡":6161,"Ġportal":6162,"Ġconnec":6163,"Ġ1999":6164,"ĠrealizaciÃ³n":6165,"ismas":6166,"yr":6167,"curs":6168,"Ġproves":6169,"ĠpublicaciÃ³n":6170,"Ġcost":6171,"Ġcorresponent":6172,"Ġrenta":6173,"ĠtodavÃŃa":6174,"Ġescal":6175,"ĠcomÃº":6176,"Ġasseny":6177,"venil":6178,"Ġmorir":6179,"ÃŃtol":6180,"Ġinvi":6181,"evilla":6182,"Ġentender":6183,"bia":6184,"Ġcompanyia":6185,"ducciÃ³":6186,"Ġdeten":6187,"AquÃŃ":6188,"ĠAutÃ³n":6189,"ociacions":6190,"ĠimÃ¡genes":6191,"ĠFranÃ§a":6192,"ĠopciÃ³n":6193,"Ġequilib":6194,"Ġtab":6195,"Ġposat":6196,"QuÃ©":6197,"Ġpatrimoni":6198,"org":6199,"Ġnegocio":6200,"lÃŃcula":6201,"ĠTa":6202,"Ġadministrativa":6203,"ĠDiv":6204,"cla":6205,"ografÃŃa":6206,"Ġpelig":6207,"Ġtengo":6208,"Ġpersonals":6209,"Ġpermiti":6210,"Ġdesapar":6211,"On":6212,"Ġacceder":6213,"orra":6214,"Ġgenerar":6215,"Ġhayan":6216,"Ġeix":6217,"ĠactuaciÃ³n":6218,"ult":6219,"Ġmel":6220,"xe":6221,"esos":6222,"TÃŃtulo":6223,"Ġdiscipl":6224,"indo":6225,"lez":6226,"esquerra":6227,"ĠVol":6228,"95":6229,"Ġtotalment":6230,"ĠCataluÃ±a":6231,"Ġexisten":6232,"Ġaprovech":6233,"Ġcorri":6234,"Ġboti":6235,"Europa":6236,"Ġpropietat":6237,"âĢĥ":6238,"Ġgrande":6239,"ĠgÃ©n":6240,"Ġlocales":6241,"Pos":6242,"ĠSuperior":6243,"ĠBas":6244,"Ġtrobada":6245,"bar":6246,"Ġprimeres":6247,"gentina":6248,"Ġfranc":6249,"ĠMari":6250,"Ġprotes":6251,"Avui":6252,"Ġestudiar":6253,"ĠMuseu":6254,"Ġmur":6255,"rassa":6256,"Ġfilm":6257,"ĠrÃŃo":6258,"uno":6259,"Ġdescri":6260,"Ġconfigu":6261,"Ġrelaciones":6262,"ĠPSC":6263,"ĠelectrÃ²nic":6264,"ĠUnits":6265,"ĠSalv":6266,"Ġmejora":6267,"Ġced":6268,"Ġhim":6269,"Ġpic":6270,"-,":6271,"Ġmenjar":6272,"Ġcarb":6273,"ĠCentral":6274,"Ġrecibir":6275,"enyament":6276,"ĠJohn":6277,"UT":6278,"Ġba":6279,"Ġlove":6280,"ĠMi":6281,"ĠJus":6282,"itatges":6283,"ĠreuniÃ³":6284,"ĠpequeÃ±o":6285,"Ġms":6286,"ĠTecn":6287,"Ġfuncions":6288,"Ġcabeza":6289,"ĠPau":6290,"Ġaplicaciones":6291,"lbum":6292,"Ġmovimiento":6293,"ĠMonts":6294,"Ġmeta":6295,"ĠSÃ¡nchez":6296,"Ġsuperficie":6297,"ĠtÃŃp":6298,"drÃł":6299,"Ãłlia":6300,"44":6301,"Ġprofund":6302,"ĠejecuciÃ³n":6303,"ĠpÃºblicos":6304,"ÃŃcies":6305,"len":6306,"rets":6307,"ĠhabÃŃan":6308,"ĠBalears":6309,"Ġwww":6310,"cons":6311,"aquÃŃ":6312,"ĠCosta":6313,"Ġambient":6314,"obili":6315,"ture":6316,"Ġtienes":6317,"eles":6318,"Ġenfermedades":6319,"Ġverano":6320,"tarÃŃa":6321,"itaris":6322,"ĠOrgan":6323,"tbol":6324,"Ġconfirm":6325,"osof":6326,"ĠDia":6327,"giny":6328,"Ġoperaciones":6329,"Ġboca":6330,"Ġthro":6331,"Sal":6332,"Ġmembre":6333,"inte":6334,"All":6335,"Ġhac":6336,"Ġconcert":6337,"Ġfinales":6338,"giques":6339,"Pued":6340,"Ġsetmanes":6341,"ĠParÃŃs":6342,"Ġpadre":6343,"Ġcalend":6344,"Ġadre":6345,"genier":6346,"zquier":6347,"Ġterritorial":6348,"Ġsignific":6349,"68":6350,"ĠSo":6351,"pren":6352,"ĠMer":6353,"Ġdam":6354,"ĠutilizaciÃ³n":6355,"trÃ¡s":6356,"ĠCamb":6357,"jecte":6358,"Ġsuelo":6359,"Ġcorrespondientes":6360,"atural":6361,"tarÃ¡":6362,"Ġexplicat":6363,"efe":6364,"Ġsegueix":6365,"Ġcomprob":6366,"Ġcompetencia":6367,"Ġmez":6368,"ĠCultural":6369,"Ġreform":6370,"Ġagra":6371,"Ġarran":6372,"31":6373,"Ġciento":6374,"aixa":6375,"Ġactualidad":6376,"Ġflex":6377,"Ġdeterminar":6378,"ulaciÃ³":6379,"Ġjue":6380,"ĠTre":6381,"Ġviaje":6382,"ĠLÃ³pez":6383,"Segu":6384,"ĠrÃłpid":6385,"Ġmantenimiento":6386,"Mol":6387,"informaciÃ³":6388,"Ġrefug":6389,"ampl":6390,"Ġmismas":6391,"ĠJap":6392,"ĠelectrÃ³nico":6393,"Ġcompens":6394,"Ġpret":6395,"Ġsalida":6396,"Ġocasiones":6397,"Ġllic":6398,"Ġmarco":6399,"Ġcircu":6400,"Ġescoll":6401,"Ġhagut":6402,"Ġrealiza":6403,"Ġdemand":6404,"ovis":6405,"set":6406,"ĠValencia":6407,"Ġindemn":6408,"ĠDer":6409,"Ġgarantir":6410,"ĠOs":6411,"errat":6412,"Ġcontrolar":6413,"Ġmental":6414,"queta":6415,"Ġline":6416,"lig":6417,"Ġasc":6418,"ĠPOR":6419,"Ġrecorregut":6420,"ginas":6421,"Ġmotivo":6422,"ĠDr":6423,"Ġconcepto":6424,"Ġencontra":6425,"Ġindepen":6426,"ĠMaj":6427,"ĠEspaÃ±ola":6428,"Ġpodia":6429,"unto":6430,"Ġgrau":6431,"interÃ¨s":6432,"QU":6433,"ĠSh":6434,"Ġassoci":6435,"Prim":6436,"Ġposibil":6437,"Ġtoc":6438,"tacle":6439,"Ġanimales":6440,"ecres":6441,"Ġamics":6442,"Ġmunicipis":6443,"Ġpros":6444,"Ġdisposa":6445,"Ġdiversi":6446,"ĠdisposiciÃ³":6447,"ember":6448,"iores":6449,"onÃ³m":6450,"Ãłss":6451,"itorial":6452,"Ġprofesor":6453,"ERC":6454,"ĠVen":6455,"Ġasi":6456,"Ġconvid":6457,"emblea":6458,"ĠSim":6459,"Ġpadres":6460,"Ã§at":6461,"Ãºtbol":6462,"urÃł":6463,"01":6464,"Ġcant":6465,"tÃŃ":6466,"Ġalim":6467,"Ġimplan":6468,"ĠtÃ¨cnica":6469,"32":6470,"ĠespÃ¨":6471,"Ġjuegos":6472,"Ġmodificar":6473,"Ġnutri":6474,"Ġ//":6475,"Ã¡fico":6476,"ĠtÃ¨cniques":6477,"Ġdesarrollar":6478,"tom":6479,"ÃŃos":6480,"ĠCongres":6481,"Ġgenerales":6482,"ĠcompromÃŃs":6483,"ovent":6484,"Ġantic":6485,"06":6486,"Ġsug":6487,"lab":6488,"Ġht":6489,"Ġpasse":6490,"Ġtenien":6491,"eran":6492,"ĠHi":6493,"tand":6494,"Ġdesper":6495,"TIC":6496,"Ġclave":6497,"ĠHar":6498,"ĠDem":6499,"tod":6500,"ĠParc":6501,"Ã³rm":6502,"ĠDirector":6503,"Ġespecie":6504,"Ġcicle":6505,"ĠsoluciÃ³n":6506,"ĠeconÃ³mico":6507,"Ġmues":6508,"Ġassist":6509,"Ġayudar":6510,"Ġpremis":6511,"Ġconstant":6512,"Son":6513,"??":6514,"Ġquina":6515,"Ġciutats":6516,"ucÃŃa":6517,"Ġlluny":6518,"Ġpremsa":6519,"Ġonly":6520,"Ġfigur":6521,"iograf":6522,"inada":6523,"55":6524,"ĠprÃłctiques":6525,"Ahora":6526,"rados":6527,"Ag":6528,"leo":6529,"Ġamplia":6530,"Ġxif":6531,"Ġfuerte":6532,"Ġreper":6533,"Ãłriament":6534,"empres":6535,"Ġviene":6536,"Ġalrededor":6537,"ĠHospital":6538,"ory":6539,"Ġactuaciones":6540,"47":6541,"Ġfondo":6542,"Ġprivada":6543,"98":6544,"Ġpagament":6545,"Ġregistro":6546,"Ġcriterios":6547,"Ġlugares":6548,"Ġbur":6549,"Ġ2020":6550,"Ġafecta":6551,"Ġteatre":6552,"Ġidentific":6553,"Ã©rez":6554,"Ġproba":6555,"jetos":6556,"Ġcoleg":6557,"Ġemerg":6558,"Ġvots":6559,"ock":6560,"ĠFundaciÃ³n":6561,"Del":6562,"07":6563,"Ġcine":6564,"Ġsilenci":6565,"quer":6566,"Ġdesap":6567,"Ġpatr":6568,"lat":6569,"ĠdiferÃ¨ncia":6570,"Ġvisto":6571,"Estos":6572,"Ġconegut":6573,"poner":6574,"Ġhumans":6575,"Ġdocuments":6576,"Ġformes":6577,"Ġinclud":6578,"Ġacto":6579,"eos":6580,"round":6581,"Ġamigos":6582,"Ġoportunidad":6583,"istrar":6584,"emia":6585,"ĠtÃ¨cnic":6586,"Ġarticle":6587,"Ġatac":6588,"ĠcontinuaciÃ³":6589,"Ġnadie":6590,"Ġciudadanos":6591,"Ġhabitantes":6592,"Ġfelici":6593,"entorn":6594,"Ġpasa":6595,"ocupaciÃ³":6596,"Ġaquelles":6597,"Ġoptim":6598,"ĠinglÃ©s":6599,"eÃ±o":6600,"Ġfras":6601,"Ġĉĉĉĉĉĉ":6602,"ĠGrupo":6603,"peon":6604,"Ġgrad":6605,"Ġpossibil":6606,"cant":6607,"Ġgrav":6608,"ĠbÃºs":6609,"Ã©tico":6610,"Ġforces":6611,"Ġveci":6612,"Ġace":6613,"Ġunder":6614,"Ġfront":6615,"Ġviatge":6616,"Ġassum":6617,"ĠdÃ©c":6618,"ĠBur":6619,"Ġdocumento":6620,"ĠcÃ¡n":6621,"ĠtamaÃ±o":6622,"ĠCiU":6623,"ĠselecciÃ³n":6624,"SS":6625,"Ġrei":6626,"ÃŃamos":6627,"witter":6628,"Ġyears":6629,"ĠcrÃŃtica":6630,"ÃŃstiques":6631,"Ġclim":6632,"origen":6633,"Ġsatisfac":6634,"Ġterres":6635,"Ġinclou":6636,"Ġsituat":6637,"vem":6638,"Ġaquellas":6639,"Ġimper":6640,"Ġatribu":6641,"ĠCa":6642,"ĠAmeric":6643,"Ġdan":6644,"Ġprevisto":6645,"Ġentendre":6646,"Ġcontrario":6647,"otar":6648,"times":6649,"ĠpromociÃ³":6650,"Ġaconseguit":6651,"ĠMod":6652,"Ã¨rica":6653,"Ġgot":6654,"pressiÃ³":6655,"ĠcampaÃ±a":6656,"atz":6657,"ĠTot":6658,"Ġerror":6659,"actuaciÃ³":6660,"ĠSalut":6661,"Ġfic":6662,"ĠpÃºblicas":6663,"EducaciÃ³":6664,"Ġcoste":6665,"Ġmonum":6666,"Ġjugadors":6667,"ĠevaluaciÃ³n":6668,"okies":6669,"Ġthem":6670,"ĠpÃłgines":6671,"till":6672,"Ġrepresentants":6673,"olÃ³gicos":6674,"cidas":6675,"Ġfestival":6676,"tava":6677,"ĠDom":6678,"Ġextran":6679,"Ġherramientas":6680,"unid":6681,"Ġrevis":6682,"Ã²rica":6683,"Ġplaces":6684,"ams":6685,"Ġpresentat":6686,"ĠCris":6687,"ĠdistribuciÃ³n":6688,"Ġestad":6689,"Ġdefec":6690,"exp":6691,"ÃŃssim":6692,"Ġhablar":6693,"Ġ38":6694,"exposiciÃ³":6695,"amar":6696,"Ġconcl":6697,"abs":6698,"ĠFar":6699,"ĠdaÃ±os":6700,"ĠCopa":6701,"veu":6702,"cios":6703,"Ã¡lo":6704,"ĠIlles":6705,"Ġpoca":6706,"itzats":6707,"Ġpobles":6708,"Ġestoy":6709,"Ġretribu":6710,"Ġprocessos":6711,"ĠestarÃ¡":6712,"ĠSud":6713,"arcal":6714,"Ġacte":6715,"ĠRaf":6716,"Ġencuentro":6717,"Ġrefle":6718,"pero":6719,"Ġfactor":6720,"Ġcoincid":6721,"Ġtens":6722,"serv":6723,"Ġgri":6724,"iano":6725,"Ġtranspar":6726,"Ġpeces":6727,"Ġrealment":6728,"Todo":6729,"Ã¨tic":6730,"ĠLocal":6731,"Ġpropios":6732,"Ġfals":6733,"Ġdescrip":6734,"aluaciÃ³":6735,"ĠmÃłxima":6736,"ĠVI":6737,"icultura":6738,"ĠdecisiÃ³n":6739,"ĠXIX":6740,"Ġfich":6741,"enciales":6742,"vieron":6743,"Ġdeixa":6744,"Ġpec":6745,"gran":6746,"aces":6747,"ĠmemÃ²ria":6748,"Ġedificio":6749,"Ã²leg":6750,"Ġcambiar":6751,"ĠdocumentaciÃ³":6752,"Ġcolum":6753,"Ġwhat":6754,"Ġconvir":6755,"Ġ36":6756,"ĠBarÃ§a":6757,"Ġdiez":6758,"Ġras":6759,"ĠPremi":6760,"grÃł":6761,"Ġanexo":6762,"ĠSevilla":6763,"Ġdescrib":6764,"ÃŃsticas":6765,"erts":6766,"onial":6767,"Âª":6768,"Letra":6769,"Ġdisposiciones":6770,"Todos":6771,"Ġactualmente":6772,"balla":6773,"Ġpropiedad":6774,"Ġpublicat":6775,"Le":6776,"09":6777,"ĠpublicaciÃ³":6778,"Ġnew":6779,"ĠrepresentaciÃ³":6780,"cit":6781,"ĠFrancesc":6782,"Ġback":6783,"Ġproduce":6784,"ĠpÃ¡ginas":6785,"estructura":6786,"Ġclima":6787,"Ġpuntu":6788,"ĠÃ³":6789,"ĠmÃŃnima":6790,"Ġculturals":6791,"DespuÃ©s":6792,"efec":6793,"Ġcompro":6794,"Ġcereb":6795,"Ġpier":6796,"Ġ32":6797,"siques":6798,"04":6799,"Ġsupone":6800,"Ġmedicament":6801,"Ġindustria":6802,"hag":6803,"Ġdro":6804,"DA":6805,"Ġentra":6806,"indic":6807,"Ġsuposa":6808,"Ãºltim":6809,"ĠTom":6810,"ĠRu":6811,"ĠAf":6812,"Ġesperar":6813,"Ġfeder":6814,"ezas":6815,"Ġjoven":6816,"udades":6817,"siu":6818,"ĠERC":6819,"Ġsorpr":6820,"crib":6821,"ĠcÃ©l":6822,"Ġdestino":6823,"Ġgob":6824,"ĠtÃº":6825,"ĠIndust":6826,"ĠtÃ©rmino":6827,"CA":6828,"Ġshe":6829,"77":6830,"Ã¨nd":6831,"eto":6832,"igual":6833,"Ã¡ticas":6834,"hist":6835,"Ġthan":6836,"ĠCUP":6837,"ween":6838,"Ġcompleto":6839,"viament":6840,"Ġexpor":6841,"udas":6842,"zamiento":6843,"Ġmeitat":6844,"Ġmetro":6845,"ĠresoluciÃ³":6846,"Ġsuperf":6847,"economia":6848,"onomÃŃa":6849,"Ġtecnologia":6850,"icepresid":6851,"Tots":6852,"ĠMur":6853,"Ġrecurso":6854,"Ġvotar":6855,"Ġmirar":6856,"Ãºnic":6857,"Ġescoles":6858,"Ġcoopera":6859,"Ġdecor":6860,"Ġ1998":6861,"Ġdiversas":6862,"ĠMartÃŃnez":6863,"ĠAixÃ²":6864,"ĠPR":6865,"ĠMu":6866,"Ġalimentos":6867,"Ġllamado":6868,"ĠmÃºltiples":6869,"Ġsoy":6870,"Ġartes":6871,"Ġactiva":6872,"ĠCrist":6873,"tibles":6874,"icaciÃ³":6875,"Ġpossibles":6876,"Ġdiuen":6877,"ĠvisiÃ³":6878,"ĠviolÃ¨ncia":6879,"Ġojos":6880,"trol":6881,"ĠduraciÃ³n":6882,"Ġdirigida":6883,"Ġconsigu":6884,"ane":6885,"Ġcircum":6886,"Ġconforme":6887,"Ġvirus":6888,"ĠpequeÃ±os":6889,"ĠItal":6890,"ĠSte":6891,"Ġmost":6892,"Ġprofun":6893,"ĠMÃ©xico":6894,"icaciÃ³n":6895,"Ġgestionar":6896,"voluciÃ³":6897,"ĠFrancia":6898,"ĠEducaciÃ³n":6899,"pin":6900,"iver":6901,"ko":6902,"administraciÃ³":6903,"ĠAntoni":6904,"Ġfra":6905,"Ġtarje":6906,"Ġencarg":6907,"Ġactitud":6908,"Ã¡ndol":6909,"Ġvuit":6910,"Ġescriure":6911,"pers":6912,"adre":6913,"ĠFon":6914,"Ġreconoc":6915,"ĠRamon":6916,"Ġcadena":6917,"ĠvalenciÃł":6918,"Ġcif":6919,"ĠelÃ¨c":6920,"................":6921,"arlo":6922,"ĠServicio":6923,"ĠSch":6924,"tamos":6925,"ĠpÃ¨r":6926,"Ġrealitzat":6927,"aller":6928,"Ġtrabajador":6929,"ĠgÃ¨nere":6930,"tadores":6931,"ĠColl":6932,"Ġvaca":6933,"entatge":6934,"ĠBel":6935,"Ġused":6936,"asa":6937,"ĠElec":6938,"Ġclasses":6939,"ĠinstalaciÃ³n":6940,"OB":6941,"ĠPalma":6942,"uos":6943,"idi":6944,"ĠlÃŃnies":6945,"ĠÃ©sta":6946,"Ġpeu":6947,"ĠdÃ¨c":6948,"ĠallÃł":6949,"ople":6950,"Ġregres":6951,"iller":6952,"Ġarticles":6953,"Ġobrir":6954,"Ġconviv":6955,"Ġmodelos":6956,"Ġpersonales":6957,"ĠmÃ¡xima":6958,"Ġtitle":6959,"ĠadministraciÃ³n":6960,"Ġlocalidad":6961,"Ġĉĉĉĉ":6962,"Ġbloque":6963,"Ġperder":6964,"ĠBol":6965,"Ġcampi":6966,"Ġnombros":6967,"Ġguar":6968,"igr":6969,"Ġconex":6970,"Ġconcepte":6971,"Ġlibros":6972,"ĠCre":6973,"Ġconeixements":6974,"ĠTR":6975,"Ġterror":6976,"Ġmatrim":6977,"Ġsigut":6978,"Ġdirecte":6979,"ĠespaÃ±oles":6980,"hing":6981,"Ġaumento":6982,"Ġnove":6983,"ĠmÃ²bil":6984,"ĠautorizaciÃ³n":6985,"Ġapari":6986,"ĠComitÃ©":6987,"Ġutiliza":6988,"Ġurg":6989,"PE":6990,"teres":6991,"66":6992,"Ġvols":6993,"ĠBro":6994,"Ġ...":6995,"Ġretorn":6996,"Ġvivir":6997,"ĠselecciÃ³":6998,"Ġflo":6999,"Ġtelef":7000,"oms":7001,"Ġsuced":7002,"Ġsemanas":7003,"Ġposibles":7004,"Ġpleg":7005,"Gra":7006,"Ġasistencia":7007,"especi":7008,"Ġwill":7009,"Ġsuma":7010,"Ġrealmente":7011,"Ġtiempos":7012,"85":7013,"Ġsuficiente":7014,"uth":7015,"Ġactuar":7016,"ĠbÃºsqu":7017,"ĠPÃ©rez":7018,"Ãºsica":7019,"Ġescala":7020,"Ġmuntanya":7021,"rÃŃguez":7022,"ĠNadal":7023,"ĠBos":7024,"omp":7025,"Ġnoti":7026,"ĠsÃ²l":7027,"tios":7028,"Ġidees":7029,"Aquests":7030,"tates":7031,"Ã©ixer":7032,"ĠPortu":7033,"Ã³stico":7034,"ĠMac":7035,"exerci":7036,"rimin":7037,"ĠLluÃŃs":7038,"Ġinicio":7039,"ĠcuestiÃ³n":7040,"Ġcoll":7041,"Ġasist":7042,"Ġeuropea":7043,"ĠlÃŃneas":7044,"Ġcases":7045,"ĠnaciÃ³":7046,"berg":7047,"Ġteniendo":7048,"ĠacadÃ¨m":7049,"Ġcinema":7050,"Ġreglament":7051,"Ġreducir":7052,"Ġacud":7053,"ĠSon":7054,"Ġreconeixement":7055,"top":7056,"ĠAN":7057,"ĠÃ¡reas":7058,"ĠFacebook":7059,"Finalment":7060,"ĠFernÃ¡ndez":7061,"Ġaltura":7062,"Ġfib":7063,"ury":7064,"Ġdig":7065,"ĠGesti":7066,"Ġexecu":7067,"ystem":7068,"Ġdemasi":7069,"Ġbanc":7070,"emÃłtica":7071,"Ġtengan":7072,"Ġtotalmente":7073,"Ġdio":7074,"Ġtrim":7075,"vell":7076,"ĠinversiÃ³n":7077,"ĠsoluciÃ³":7078,"ĠServei":7079,"lares":7080,"Ġameric":7081,"Ġtreballa":7082,"Ġrecull":7083,"Ġeliminar":7084,"Ġ33":7085,"ION":7086,"ORM":7087,"Ġcontrari":7088,"uchar":7089,"ĠAixÃŃ":7090,"Ġdimecres":7091,"Ġinmedia":7092,"ĠÃ¨xit":7093,"ulg":7094,"Ġcualquiera":7095,"arien":7096,"Ġinteressos":7097,"Ġmanip":7098,"ĠtelÃ©":7099,"Ġcomptar":7100,"49":7101,"Ġparaula":7102,"Ġbatalla":7103,"ĠgratuÃ¯":7104,"cito":7105,"ĠSantiago":7106,"Ġvie":7107,"Ã¡mara":7108,"Ġvelocidad":7109,"ĠBla":7110,"ĠRus":7111,"etr":7112,"Ġestatal":7113,"itori":7114,"ĠAus":7115,"ĠNueva":7116,"Ġgras":7117,"Ġtocar":7118,"uerdos":7119,"Ãłrea":7120,"Ġacerca":7121,"Ġtreballant":7122,"Ãºstria":7123,"Ġtratar":7124,"itzen":7125,"Ġporc":7126,"Ġapareix":7127,"Ãĳ":7128,"orÃŃa":7129,"It":7130,"Ġvolum":7131,"jament":7132,"Ġepis":7133,"Ġciudades":7134,"Ġsuch":7135,"Ġaplicable":7136,"caldes":7137,"Ġinterac":7138,"Ġmarx":7139,"Ġexperim":7140,"Ġdown":7141,"02":7142,"Ġahor":7143,"Ġinternacionales":7144,"Ġperspectiva":7145,"Ġfirma":7146,"Ġcond":7147,"Ġparticipantes":7148,"Ġvoc":7149,"Ġanteriors":7150,"Ġfum":7151,"Ġfunciona":7152,"Ã¡lez":7153,"Ġtranspor":7154,"tillo":7155,"Ġcancel":7156,"Ġrecol":7157,"ertes":7158,"Ġcatalanes":7159,"Ġclaus":7160,"ĠPER":7161,"Ġhar":7162,"OT":7163,"ĠpequeÃ±a":7164,"Ġplen":7165,"ĠprÃ²xim":7166,"Tra":7167,"Ġpuedo":7168,"avera":7169,"ĠProtec":7170,"AV":7171,"alls":7172,"isteri":7173,"bus":7174,"Ġprocedimientos":7175,"Ġvigil":7176,"ĠtÃ©cnico":7177,"establ":7178,"Ġcompa":7179,"Ġacabat":7180,"ĠtelevisiÃ³n":7181,"ĠBus":7182,"ĠrepresentaciÃ³n":7183,"Ġstar":7184,"GC":7185,"ĠMir":7186,"76":7187,"ĠNova":7188,"Ġdemostrar":7189,"Ġeines":7190,"tidos":7191,"Ġanun":7192,"ĠCiudad":7193,"Ġaquel":7194,"ĠBra":7195,"adar":7196,"Ġtari":7197,"Ġvenda":7198,"Ġfactores":7199,"ĠMedi":7200,"Hem":7201,"Ġhumanos":7202,"Mi":7203,"MP":7204,"rasil":7205,"Ġtingui":7206,"Ġ=":7207,"Ġmitad":7208,"Deb":7209,"Ġgastr":7210,"ĠexposiciÃ³n":7211,"Ġcontext":7212,"chool":7213,"ĠconseqÃ¼Ã¨ncia":7214,"pat":7215,"Ġabout":7216,"ĠTrabaj":7217,"Ġces":7218,"ĠRub":7219,"ĠMediter":7220,"ĠProvin":7221,"ocs":7222,"rias":7223,"Ġdibuix":7224,"ĠdocumentaciÃ³n":7225,"ĠLib":7226,"Ġnecesaria":7227,"Ġrevel":7228,"ĠintervenciÃ³n":7229,"mun":7230,"tint":7231,"Ġsectors":7232,"ÃŃcie":7233,"IENT":7234,"Ġespecies":7235,"Ġflor":7236,"Ġvehicles":7237,"Ġimprescindible":7238,"tenciÃ³":7239,"Ġregidor":7240,"ĠCatalÃł":7241,"Ġforta":7242,"Ġacog":7243,"Ġpartidos":7244,"clo":7245,"Asimismo":7246,"Ġchar":7247,"elf":7248,"Ġpuestos":7249,"Ġ1997":7250,"Ġagres":7251,"Ġvirtual":7252,"mor":7253,"ĠfrancÃ¨s":7254,"ĠPrograma":7255,"ĠlegislaciÃ³n":7256,"Ġbis":7257,"Ġgrave":7258,"79":7259,"km":7260,"ĠBaix":7261,"Ġpremio":7262,"Ġcontracte":7263,"Ġrepor":7264,"Ġesas":7265,"fera":7266,"asti":7267,"ĠPh":7268,"Ġget":7269,"ude":7270,"ĠVallÃ¨s":7271,"Ġ34":7272,"Ġpermetre":7273,"Co":7274,"Ġinscri":7275,"ĠcientÃŃfica":7276,"Ġmalaltia":7277,"Ġsold":7278,"ĠRodrÃŃguez":7279,"ĠAndre":7280,"imes":7281,"tain":7282,"Ġ75":7283,"Ġviat":7284,"UB":7285,"Ġagrup":7286,"ĠvictÃ²ria":7287,"guera":7288,"Ġfitx":7289,"ĠSr":7290,"MÃ©s":7291,"ĠPalau":7292,"Ġquil":7293,"Ġalcanzar":7294,"urt":7295,"lin":7296,"Ġestic":7297,"ĠpolÃŃticas":7298,"ĠArag":7299,"ubil":7300,"Ġmemoria":7301,"Ġformen":7302,"Ġrestaura":7303,"Igual":7304,"Ġtraves":7305,"ĠgÃ©nero":7306,"Ġnow":7307,"ĠAP":7308,"Ġwhere":7309,"ĠtendrÃ¡n":7310,"Ġhacerlo":7311,"Ġfij":7312,"Ġlimpi":7313,"Ġcentr":7314,"Ġtanc":7315,"zan":7316,"ĠprÃ©s":7317,"Ġinj":7318,"Ġfactura":7319,"ĠJorn":7320,"Ġbicicle":7321,"ĠniÃ±o":7322,"ody":7323,"Ġjudici":7324,"Ġadolesc":7325,"ĠagrÃŃ":7326,"Ho":7327,"omos":7328,"ÃŃr":7329,"Ġnecesarios":7330,"tidi":7331,"Ġizquier":7332,"Ġincon":7333,"Ġcarn":7334,"gica":7335,"Ġsuspen":7336,"Ġaportar":7337,"Ġsostenible":7338,"ĠLondres":7339,"Ġmac":7340,"Ġvoy":7341,"Ġexistencia":7342,"Â°":7343,"Ġprotagonista":7344,"Ġpenal":7345,"indows":7346,"ormal":7347,"Ġintereses":7348,"Ġvamos":7349,"Is":7350,"ĠcrÃ¨d":7351,"Ġcontempor":7352,"itzacions":7353,"Ġfestes":7354,"Ġsorg":7355,"ĠDepartamento":7356,"Ġmanca":7357,"ÃŃg":7358,"izaciones":7359,"ÃŃtim":7360,"Ġgusta":7361,"Ġpublicado":7362,"Ġprevio":7363,"Ġlongitud":7364,"ĠPresidente":7365,"Ġbeneficios":7366,"Hoy":7367,"ĠCir":7368,"ĠAgr":7369,"Ġtorna":7370,"ĠcÃ¡ncer":7371,"Ġajuda":7372,"obregat":7373,"Ġdistancia":7374,"Ġmascul":7375,"Ġanimal":7376,"sen":7377,"idar":7378,"Ġvoz":7379,"Ġinteressant":7380,"ĠDef":7381,"Ġinfants":7382,"Ġescul":7383,"Ġpau":7384,"ĠWorld":7385,"Ġdil":7386,"ĠaccÃ©s":7387,"Ã¡nico":7388,"enÃ§":7389,"ENCI":7390,"Ġsede":7391,"Ġadicional":7392,"Ġespeciales":7393,"Ġinformar":7394,"menys":7395,"ĠAv":7396,"itas":7397,"onada":7398,"Ġtradu":7399,"Ġsabe":7400,"Ġprocl":7401,"Ġcomplex":7402,"ĠsecciÃ³n":7403,"cus":7404,"Ġconseller":7405,"ĠDani":7406,"ografia":7407,"Ġidentificar":7408,"ÃŃv":7409,"Ġinformes":7410,"Ġcalcul":7411,"ĠPÃºblica":7412,"ĠpromociÃ³n":7413,"Ġposibilidades":7414,"Ġfranqu":7415,"Ġmanteniment":7416,"Ġcorrecta":7417,"Val":7418,"Ġmoda":7419,"ĠcÃ²m":7420,"peonato":7421,"ĠPon":7422,"Ġpred":7423,"ĠcomenzÃ³":7424,"Ġeti":7425,"iles":7426,"Ġdispone":7427,"Ġevento":7428,"Ġdimarts":7429,"camb":7430,"Ġtreure":7431,"Ġbrill":7432,"pla":7433,"Ġideas":7434,"ĠMajor":7435,"Ġllamada":7436,"dua":7437,"Ġperiodista":7438,"Ġdonen":7439,"lear":7440,"ĠTeatre":7441,"dar":7442,"ĠBern":7443,"igÃ¼es":7444,"Ġpuer":7445,"Ġdemana":7446,"Ġalternativa":7447,"Ġvostre":7448,"Ġplantilla":7449,"ĠPolÃŃtica":7450,"Ġvenir":7451,"Ġpocos":7452,"Ġmira":7453,"ADA":7454,"pone":7455,"Ġlengu":7456,"Ġcumplir":7457,"ĠrealitzaciÃ³":7458,"Ġcura":7459,"esglÃ©sia":7460,"mbol":7461,"Ġsucces":7462,"Ġautoridades":7463,"by":7464,"Ġcreat":7465,"ĠahÃŃ":7466,"Ġfomentar":7467,"Ġestudiantes":7468,"Ġcostu":7469,"ĠhistÃ²ric":7470,"Ġsolar":7471,"ayo":7472,"Col":7473,"ĠSur":7474,"Ġ150":7475,"88":7476,"EX":7477,"43":7478,"Ġconocimientos":7479,"Ġsituacions":7480,"ĠDo":7481,"Ġespanyols":7482,"ĠpÃ¡r":7483,"tuvo":7484,"nis":7485,"Ġnivells":7486,"Ġcuina":7487,"Ġinternacionals":7488,"ĠWill":7489,"Ġacer":7490,"Ġpuc":7491,"Ġdeixat":7492,"ĠValenciÃł":7493,"Ġllega":7494,"Ġlibertad":7495,"Ġimagin":7496,"Ã³sito":7497,"Ġarreu":7498,"Ġrelev":7499,"ĠGonzÃ¡lez":7500,"Ġhauran":7501,"2010":7502,"activitats":7503,"CR":7504,"Ġhttp":7505,"nal":7506,"Ġprimeras":7507,"jeros":7508,"Ġavent":7509,"ĠLeg":7510,"Ġconvoc":7511,"guien":7512,"ĠclÃłss":7513,"Ġservidor":7514,"ecido":7515,"ĠnÃºmeros":7516,"ĠAndalucÃŃa":7517,"ĠAcad":7518,"ĠGer":7519,"Ġcomunicar":7520,"ĠTÃ©cn":7521,"Ġconsent":7522,"arques":7523,"ii":7524,"ĠvehÃŃculos":7525,"Ã³rrer":7526,"ANT":7527,"fono":7528,"Ġmuch":7529,"96":7530,"ociaciones":7531,"Ġarro":7532,"ULO":7533,"Ġplanes":7534,"ĠEX":7535,"ÃŃdo":7536,"Ġprevia":7537,"Ġsuces":7538,"Ġear":7539,"Aquestes":7540,"Ġmucha":7541,"Ġmetod":7542,"Ãłmica":7543,"Ġportes":7544,"Ġestadounid":7545,"ĠanglÃ¨s":7546,"erÃ¡":7547,"Ġpolicia":7548,"ĠdistribuciÃ³":7549,"ĠfreqÃ¼":7550,"Ġday":7551,"Ġpie":7552,"Ġencima":7553,"Ġpercep":7554,"alo":7555,"Ġperci":7556,"Ġpertany":7557,"Ġhumano":7558,"Ġpintura":7559,"ĠVi":7560,"olÃ²gics":7561,"ĠLeÃ³n":7562,"Ġcostes":7563,"Ġinaug":7564,"Ġ1996":7565,"Ġvirtu":7566,"acio":7567,"nex":7568,"Ġsangre":7569,"'re":7570,"Ġtej":7571,"ils":7572,"Ġtop":7573,"Ġdemostra":7574,"Ġlab":7575,"Ġadquirir":7576,"ĠcelebraciÃ³":7577,"keting":7578,"Ġbienes":7579,"regar":7580,"ĠÃ¡lbum":7581,"ĠLlobregat":7582,"SA":7583,"Ġpreparar":7584,"Ġcru":7585,"sor":7586,"Article":7587,"cripciÃ³":7588,"Ġhel":7589,"Ġunidad":7590,"Ġcompetencias":7591,"Ġmomentos":7592,"Ġobligat":7593,"energia":7594,"Ġprocediment":7595,"erse":7596,"ionar":7597,"ĠCub":7598,"ĠeconomÃŃa":7599,"Ã²giques":7600,"Ġfores":7601,"Ġagents":7602,"Ġmade":7603,"Ġgarantizar":7604,"SÃ³n":7605,"apren":7606,"Ġrural":7607,"Ġcriteris":7608,"Ġprincipalmente":7609,"ĠComunitat":7610,"Ġtub":7611,"________":7612,"Ġpersonatges":7613,"ĠSta":7614,"rida":7615,"orias":7616,"Ġsort":7617,"Ġpriva":7618,"eixin":7619,"Ġsalir":7620,"ĠsesiÃ³n":7621,"ogar":7622,"2011":7623,"Ġpropis":7624,"Ġafron":7625,"Ġĉĉĉ":7626,"Ġtruc":7627,"icion":7628,"ader":7629,"ĠespecÃŃfica":7630,"Ãłnic":7631,"ĠDiputaciÃ³":7632,"ĠTen":7633,"uma":7634,"Ġ1990":7635,"Ġvull":7636,"urien":7637,"Ġretro":7638,"Ġtoma":7639,"ardia":7640,"ĠautÃ³n":7641,"Ġriesgos":7642,"ĠpretÃ©n":7643,"Ġfacilita":7644,"ĠCastilla":7645,"2007":7646,"Ġsoluciones":7647,"ĠfÃ³rm":7648,"enca":7649,"Ġdieta":7650,"mbits":7651,"oco":7652,"Ġplaneta":7653,"ĠcÃ©lulas":7654,"ĠVill":7655,"Ġradi":7656,"Ġunidades":7657,"Ġsegura":7658,"Ġtasques":7659,"ĠSER":7660,"%)":7661,"Ġ1995":7662,"Ġbones":7663,"Ġsatisf":7664,"Ġllarga":7665,"Ġintegral":7666,"Ġconcret":7667,"mentat":7668,"iversitats":7669,"ĠtÃ¨cnics":7670,"Ã¶":7671,"ĠcomerÃ§":7672,"03":7673,"ĠSen":7674,"ulta":7675,"experiÃ¨ncia":7676,"Os":7677,"ĠPin":7678,"ives":7679,"Ġsot":7680,"issions":7681,"ĠAR":7682,"Ġmissatge":7683,"ĠPan":7684,"Ġcomunes":7685,"ĠComerci":7686,"Ġmm":7687,"ĠBri":7688,"Ġalco":7689,"Ġafirm":7690,"Ġganes":7691,"Ġpossibilitats":7692,"Ġtermes":7693,"aso":7694,"Ġpassant":7695,"Ġ400":7696,"Ġcompanys":7697,"Ġpien":7698,"Fins":7699,"Ġisla":7700,"ĠsÃŃnt":7701,"met":7702,"ĠRoma":7703,"ute":7704,"Ġalcalde":7705,"atar":7706,"Ġfrag":7707,"quis":7708,"iner":7709,"ole":7710,"Ġheu":7711,"Ġthrough":7712,"Ġgenerals":7713,"Ġtoca":7714,"Ġsituaciones":7715,"ova":7716,"ĠSecre":7717,"Ġfonts":7718,"Estas":7719,"Ġobservar":7720,"Ġarreg":7721,"ĠmodificaciÃ³n":7722,"42":7723,"Ġmesa":7724,"ienda":7725,"OP":7726,"Ġampliar":7727,"istros":7728,"ĠFam":7729,"Ġfarmac":7730,"ĠPos":7731,"Ġquedat":7732,"Ġtractar":7733,"pita":7734,"Ġbasada":7735,"Ġfont":7736,"Ġaguas":7737,"Ġproduir":7738,"Ġbiblioteca":7739,"Ġcookies":7740,"ĠPri":7741,"zca":7742,"ĠvehÃŃculo":7743,"rab":7744,"Ġjuris":7745,"Ġperjuicio":7746,"ĠGener":7747,"ediciÃ³":7748,"ellÃ³":7749,"vaciÃ³":7750,"Ġestablir":7751,"Ġganar":7752,"Ġtenint":7753,"ĠSalvador":7754,"aby":7755,"ICA":7756,"ÃŃculas":7757,"Ġvesp":7758,"ĠfinanÃ§ament":7759,"Ġingresos":7760,"ACIÃĵN":7761,"ĠprÃ¡cticas":7762,"Ġinvol":7763,"Ġnomen":7764,"Ġpropias":7765,"Ġmoral":7766,"Ġsocis":7767,"home":7768,"plement":7769,"ierto":7770,"Ġcotxe":7771,"Ġposicion":7772,"Ġtrobat":7773,"ĠFernando":7774,"ĠtradiciÃ³":7775,"Ġinstituciones":7776,"Ġmotius":7777,"ĠÃ³rgano":7778,"ĠMel":7779,"Ġrehabil":7780,"pera":7781,"idel":7782,"Ġrecoman":7783,"Fue":7784,"essor":7785,"ices":7786,"osas":7787,"ĠSup":7788,"Ġcomand":7789,"Ġbetween":7790,"Ġhomen":7791,"AdministraciÃ³":7792,"Ġcondicion":7793,"ĠnÃº":7794,"Ġvostra":7795,"Ġexpec":7796,"ĠTorre":7797,"Ãĥ":7798,"Ġlli":7799,"Ġdecisions":7800,"Ġenem":7801,"ĠllegÃ³":7802,"Ġeres":7803,"rÃłcies":7804,"Ġestaban":7805,"sit":7806,"Ch":7807,"Ġlegisla":7808,"PC":7809,"ulation":7810,"Ġanivers":7811,"ÃŃstics":7812,"urat":7813,"ĠUnited":7814,"Ġadv":7815,"rÃ©":7816,"ĠComp":7817,"Ġacostu":7818,"erman":7819,"ĠtelÃ¨":7820,"Ġliquid":7821,"Ġfamilias":7822,"ĠmÃ¨to":7823,"Ġassign":7824,"Ġunitat":7825,"Ã¨poca":7826,"Ġdefinir":7827,"EST":7828,"Ġsalvo":7829,"Ġentrevista":7830,"ĠSistema":7831,"ĠintervenciÃ³":7832,"tienen":7833,"Ã¡nd":7834,"avui":7835,"ĠevoluciÃ³n":7836,"ĠPRES":7837,"Ãłtics":7838,"Ġage":7839,"Ġresolver":7840,"Ġnaturals":7841,"ardo":7842,"Ġhipot":7843,"Ġprivi":7844,"ĠBon":7845,"Ġdiferenci":7846,"Ġblanc":7847,"Ġger":7848,"ĠNe":7849,"ords":7850,"ĠEntre":7851,"ĠocasiÃ³n":7852,"mateix":7853,"ĠdemocrÃłcia":7854,"Ġrival":7855,"tori":7856,"Ġrey":7857,"tatges":7858,"oft":7859,"Ġsaben":7860,"Ġ48":7861,"ĠpÃ©rdida":7862,"Ġdiferente":7863,"yos":7864,"ĠGl":7865,"Ġalguno":7866,"Ġorganizaciones":7867,"Ġnecesarias":7868,"Ġrelacionados":7869,"ordre":7870,"Ġvino":7871,"ĠNeg":7872,"atzem":7873,"ĠEstudi":7874,"riz":7875,"Ġreduir":7876,"Ġpublicidad":7877,"Ġesfuerzo":7878,"Ġimpacto":7879,"Ġtecnologies":7880,"Ġadministracions":7881,"Ġcarga":7882,"Ġhouse":7883,"Ġorganitza":7884,"Ġgrab":7885,"ĠcÃ³digo":7886,"Â²":7887,"Ġparc":7888,"Ġinn":7889,"ĠpresiÃ³n":7890,"guessin":7891,"ĠbÃºsqueda":7892,"Ġexpress":7893,"Ġvital":7894,"endido":7895,"Ġcity":7896,"Ġinspec":7897,"untos":7898,"ĠsÃ³c":7899,"ĠtecnologÃŃas":7900,"Ġplaza":7901,"aval":7902,"Ġevi":7903,"edes":7904,"ĠtelevisiÃ³":7905,"Ġaddi":7906,"Ġvaren":7907,"Ã¨ndum":7908,"ĠjurÃŃdica":7909,"ĠColeg":7910,"ĠbaÃ±":7911,"Ġadelante":7912,"Ġocupa":7913,"izadas":7914,"NomÃ©s":7915,"Ġresum":7916,"amble":7917,"questa":7918,"Ġator":7919,"Ġdedicada":7920,"Ġsenzill":7921,"Ġabsoluta":7922,"Ġcombus":7923,"Tan":7924,"Ġconvier":7925,"Ġaigua":7926,"Ġenten":7927,"ĠReus":7928,"viÃ³":7929,"Ġrepublic":7930,"Ġconsegu":7931,"Ġanimals":7932,"Ġculpa":7933,"Ġpresents":7934,"Muc":7935,"Ġchan":7936,"Ġtallers":7937,"rique":7938,"Ġorganitzat":7939,"Ġlife":7940,"edra":7941,"ĠestÃ©n":7942,"Ġdirectora":7943,"Sobre":7944,"Ġdomicili":7945,"ĠcondiciÃ³n":7946,"hum":7947,"Ġjuvenil":7948,"ĠMartÃŃ":7949,"Ġgira":7950,"iliar":7951,"ĠNatural":7952,"ĠÃłmbits":7953,"Ġcoloc":7954,"otser":7955,"ĠcrÃ©dito":7956,"Mad":7957,"tegia":7958,"Ġnormes":7959,"Ġintent":7960,"ĠPablo":7961,"Ġrecur":7962,"Ġverm":7963,"ĠperiÃ³":7964,"Ġdictamen":7965,"ĠBat":7966,"Fa":7967,"ney":7968,"Ġproducir":7969,"Ġsenyor":7970,"ĠServicios":7971,"ĠUsu":7972,"Ãºnica":7973,"ĠSar":7974,"rana":7975,"Ġmirada":7976,"Ġintens":7977,"Ġnacionales":7978,"ĠconfianÃ§a":7979,"erte":7980,"ĠclÃ¡s":7981,"Inform":7982,"ĠEr":7983,"ĠhaguÃ©s":7984,"ĠMÃºsica":7985,"Esqu":7986,"ĠÃ¡r":7987,"ĠFacul":7988,"Ġplantas":7989,"Ġactos":7990,"GT":7991,"UD":7992,"uf":7993,"Ġefectiva":7994,"Ġreca":7995,"acon":7996,"IVA":7997,"ders":7998,"Ġexcl":7999,"Ġfug":8000,"Ġopciones":8001,"Ġreconocimiento":8002,"Ġinterm":8003,"brica":8004,"OD":8005,"yrics":8006,"sol":8007,"aterra":8008,"Ġayudas":8009,"tÃ³n":8010,"Ġterceros":8011,"ervi":8012,"Ġelegir":8013,"Ġfilosof":8014,"Ġrock":8015,"teras":8016,"72":8017,"ĠEuropeo":8018,"ambiental":8019,"ĠRafa":8020,"Ġtrip":8021,"ĠautÃ²n":8022,"Mar":8023,"ĠÃ³rganos":8024,"Ġmane":8025,"Ġpone":8026,"independ":8027,"Ġsiete":8028,"ĠMc":8029,"Ġaspecto":8030,"Ġcorre":8031,"Ġbons":8032,"nera":8033,"Ġassenyal":8034,"Ġprevista":8035,"ĠSociedad":8036,"ALES":8037,"Ġlyrics":8038,"Sus":8039,"ĠallÃ¡":8040,"Ã²rum":8041,"Ġaer":8042,"ĠSabadell":8043,"interior":8044,"Ġcomerciales":8045,"omun":8046,"Ġestigui":8047,"Ġpell":8048,"abel":8049,"arch":8050,"Ġfamiliars":8051,"Ġhabitatges":8052,"Ã¨dia":8053,"ĠFederaciÃ³":8054,"Ġpoes":8055,"iernes":8056,"58":8057,"Ġexperiment":8058,"ĠBiblioteca":8059,"Ġfeta":8060,"Ġ1992":8061,"Ġproporciona":8062,"Ġpreced":8063,"Ġadver":8064,"Ġorganitzacions":8065,"ĠfÃºtbol":8066,"ned":8067,"Ġrell":8068,"Ġfinalmente":8069,"viar":8070,"PTY":8071,"ĠsecciÃ³":8072,"Ġlucha":8073,"Ġevery":8074,"ĠjurÃŃdic":8075,"EMPTY":8076,"Ġpreus":8077,"Ġdra":8078,"ECT":8079,"ĠPort":8080,"Ġcolores":8081,"Ġbell":8082,"ĠÃłrees":8083,"ilo":8084,"Ġblanco":8085,"ĠFesta":8086,"Ġdeia":8087,"ĠreducciÃ³n":8088,"Ġpermeten":8089,"ansa":8090,"Ġeducativa":8091,"abilidad":8092,"Ġusos":8093,"udes":8094,"ĠWar":8095,"Ġtransi":8096,"aturas":8097,"Ġincluyendo":8098,"ĠÃ¨poca":8099,"QuÃ¨":8100,"Ġfren":8101,"iÃ¨ncies":8102,"Ġvivienda":8103,"acab":8104,"Ġturisme":8105,"ĠNord":8106,"Ġcapaz":8107,"execu":8108,"Ġeina":8109,"ST":8110,"ĠAmerican":8111,"Ġcompromiso":8112,"Vol":8113,"Ġcompliment":8114,"orci":8115,"Ġatur":8116,"Ġfuente":8117,"Ġcontribuir":8118,"ĠAle":8119,"Ġabandon":8120,"Ġvalorar":8121,"dÃł":8122,"encials":8123,"ĠcompetÃ¨ncies":8124,"Ġcrim":8125,"Ġseues":8126,"Ġcm":8127,"Ġinteresante":8128,"ĠCiutad":8129,"Mal":8130,"como":8131,"Ġdirigir":8132,"EG":8133,"Ġpresentes":8134,"Ġorganismo":8135,"Ġpend":8136,"Ã¨mia":8137,"Ġformato":8138,"Ġ1994":8139,"Ġestableix":8140,"ĠChar":8141,"ĠPlata":8142,"Ġhagin":8143,"Ġproporcionar":8144,"Ġapreci":8145,"ique":8146,"Ġthen":8147,"Ġpermiten":8148,"Ġvolta":8149,"SO":8150,"ĠFlor":8151,"cut":8152,"Ġcircunstancias":8153,"ĠThis":8154,"Ġocupar":8155,"avi":8156,"Ġrendimiento":8157,"Ġlar":8158,"ebre":8159,"Ġdefensar":8160,"Ġbl":8161,"Ġaparece":8162,"icÃŃa":8163,"Ġnete":8164,"Ġadjun":8165,"ĠJur":8166,"Ġhici":8167,"Ġentitat":8168,"Ġnecessita":8169,"Ġgreu":8170,"ixes":8171,"ĠpresÃ³":8172,"Ġescrip":8173,"Ġsuele":8174,"Ġescuela":8175,"Ġcomptes":8176,"Ġway":8177,"ĠprovÃŃn":8178,"Ġsuje":8179,"oler":8180,"ĠopciÃ³":8181,"MA":8182,"ĠTerrassa":8183,"Ġambas":8184,"Ġdens":8185,"quÃ©":8186,"ĠXavier":8187,"ĠprÃ³xim":8188,"ĠCla":8189,"Ġaudiovis":8190,"ĠEU":8191,"Ġalguien":8192,"Ġocul":8193,"Ġ39":8194,"Ġalmacen":8195,"Ġrecons":8196,"edas":8197,"ĠLabor":8198,"Ġsee":8199,"ĠDÃŃa":8200,"Ġprovocar":8201,"Ġnavegador":8202,"rades":8203,"ĠBa":8204,"mag":8205,"Ġdamunt":8206,"Ġinau":8207,"Ins":8208,"drÃ¡":8209,"ĠChina":8210,"Ġ37":8211,"Hab":8212,"Ġqueden":8213,"Gu":8214,"Ġmanif":8215,"untament":8216,"SÃŃ":8217,"Ġenseny":8218,"Ġhechos":8219,"Ġofre":8220,"Ġadjud":8221,"yecto":8222,"Ġrode":8223,"Ġtret":8224,"Ġarque":8225,"ĠsuperfÃŃcie":8226,"empor":8227,"ished":8228,"Ġpreguntes":8229,"Ġmake":8230,"Hospital":8231,"Ġjap":8232,"Ġpertin":8233,"bi":8234,"ĠEmpres":8235,"ĠWindows":8236,"Ġespacios":8237,"Ã²sit":8238,"Ġformada":8239,"Ġign":8240,"Ġcaf":8241,"kes":8242,"ĠSt":8243,"Ġdichos":8244,"eah":8245,"Ġdemasiado":8246,"Ġamar":8247,"IST":8248,"Ġcompletar":8249,"entada":8250,"Ġhigh":8251,"Ġpublica":8252,"Ġdomini":8253,"Ġexisteix":8254,"ĠSil":8255,"leza":8256,"Ġconveni":8257,"ĠmÃ©todo":8258,"Ġllig":8259,"ĠON":8260,"Ġdonant":8261,"EU":8262,"ids":8263,"Ġnoticias":8264,"2012":8265,"ĠTreball":8266,"Ġaero":8267,"Ġsabem":8268,"Ġfotografies":8269,"Ġpalabra":8270,"ĠPrimera":8271,"ĠJavier":8272,"Ġherramienta":8273,"Ġmadera":8274,"ĠGas":8275,"ĠprevenciÃ³n":8276,"Ġestablecidos":8277,"actualitat":8278,"ranca":8279,"Ãłb":8280,"ĠAlemania":8281,"gÃ¼es":8282,"ĠPi":8283,"ĠArgentina":8284,"Ġcobertura":8285,"Ġpiscina":8286,"fron":8287,"ĠreferÃ¨ndum":8288,"ĠSet":8289,"Ġdescobrir":8290,"ĠllanÃ§":8291,"ĠÃ¡n":8292,"ĠdeclaraciÃ³n":8293,"ĠprogramaciÃ³":8294,"Ġquart":8295,"aixÃ²":8296,"itors":8297,"Ġbeca":8298,"Ġtinguin":8299,"Ġpanor":8300,"Ġtancar":8301,"Ã©ndose":8302,"exercici":8303,"Ġsessions":8304,"Ġresoldre":8305,"Ġvila":8306,"ĠEspany":8307,"ĠpÃ¡rraf":8308,"Ġcreo":8309,"Ġaper":8310,"ĠSus":8311,"Ġafavor":8312,"Ġprestig":8313,"Ġcoche":8314,"ĠinvestigaciÃ³":8315,"Ġlograr":8316,"ĠResolu":8317,"Ġq":8318,"IZ":8319,"Ġsecre":8320,"Ġful":8321,"ĠSecret":8322,"Ġinaugu":8323,"Ġpatro":8324,"ĠÃģngel":8325,"enÃ§a":8326,"Ġcambi":8327,"Ġfuentes":8328,"Ġinfrac":8329,"anova":8330,"menes":8331,"encar":8332,"1999":8333,"ĠMes":8334,"elabor":8335,"eÃ±":8336,"Ġguitar":8337,"Ġmany":8338,"Ãºltima":8339,"ĠPel":8340,"ĠServeis":8341,"ene":8342,"Ġinfl":8343,"Ġarbit":8344,"41":8345,"ĠFab":8346,"olÃ³gicas":8347,"Ġpoli":8348,"Ġquasi":8349,"usto":8350,"uestro":8351,"ean":8352,"Ġduring":8353,"Ġpeople":8354,"Ġestric":8355,"issa":8356,"Ġcerc":8357,"Ġplans":8358,"Ġvigente":8359,"2003":8360,"Ġpedra":8361,"ross":8362,"Ġrelativa":8363,"odes":8364,"Ġdipl":8365,"Ġeducatiu":8366,"arcelon":8367,"Ġcomplir":8368,"oportun":8369,"ĠDecret":8370,"97":8371,"Ġtampoco":8372,"Ġenvol":8373,"Ġquieres":8374,"Ġdestru":8375,"Ġpassada":8376,"Ġprotocol":8377,"Ġlog":8378,"Ġvuelta":8379,"ĠAcuerdo":8380,"Ġgens":8381,"Ġporcenta":8382,"Ġoberta":8383,"Ġregistre":8384,"Ġcould":8385,"anca":8386,"ÃŃns":8387,"jant":8388,"tructures":8389,"Ã³metros":8390,"MÃ¡s":8391,"ĠEmpresa":8392,"ami":8393,"Ġmediev":8394,"Ġdeja":8395,"ĠVan":8396,"uelo":8397,"inado":8398,"adap":8399,"the":8400,"Ġjocs":8401,"Ġsolicitar":8402,"ĠsÃŃntomas":8403,"CC":8404,"Ġmedicina":8405,"ĠPatrim":8406,"2006":8407,"sal":8408,"Ġcocina":8409,"ĠGab":8410,"coles":8411,"ĠrevisiÃ³n":8412,"ĠâĢ¢":8413,"Ġulls":8414,"ĠCongrÃ©s":8415,"uelas":8416,"Ġnoms":8417,"tiner":8418,"Ġinstitucional":8419,"ĠcapaÃ§":8420,"Ġafegir":8421,"92":8422,"teria":8423,"Ġpretende":8424,"Ġrefugi":8425,"Ġbueno":8426,"Ã¯ts":8427,"enari":8428,"trucciÃ³n":8429,"usta":8430,"elas":8431,"Ġreflec":8432,"'ll":8433,"Ġvolumen":8434,"Ġfrancesa":8435,"ĠpolÃŃtico":8436,"ĠreclamaciÃ³n":8437,"Ã¨xit":8438,"Ġdespeses":8439,"ĠmÃ©dicos":8440,"ĠCongreso":8441,"hough":8442,"Jos":8443,"ĠcÃ¡l":8444,"terap":8445,"ĠDu":8446,"ĠTwitter":8447,"regat":8448,"Ġvolia":8449,"Ġtorre":8450,"Ġprevistos":8451,"Ġayer":8452,"irem":8453,"Ġpositiva":8454,"Ġformula":8455,"ĠvisiÃ³n":8456,"Ġsever":8457,"rial":8458,"Ġprofessors":8459,"Ġestuvo":8460,"Ġcated":8461,"glaterra":8462,"ĠIglesia":8463,"Ġmenores":8464,"laga":8465,"ĠhabrÃ¡":8466,"Ben":8467,"Ġarti":8468,"ĠRel":8469,"Ġabsor":8470,"ĠEST":8471,"Ġexposi":8472,"ĠSÃŃ":8473,"Ġtareas":8474,"Ġjubil":8475,"ĠnecessÃłria":8476,"ĠFre":8477,"cÃ³":8478,"Ġajuntament":8479,"âĢĻ,":8480,"Ġrecorda":8481,"Ġexclusiva":8482,"Ġdign":8483,"ĠEdi":8484,"get":8485,"Ġsingular":8486,"Ãłcia":8487,"Ġfrecuencia":8488,"Ġintercamb":8489,"Ġfacili":8490,"Ġautors":8491,"Ġdebemos":8492,"Ġconocida":8493,"Ġactuals":8494,"ĠPrincip":8495,"Ġmitja":8496,"aprenentatge":8497,"Ġespecific":8498,"gueu":8499,"ĠFa":8500,"Ġmodels":8501,"Ġopini":8502,"fas":8503,"ĠÃ³p":8504,"Ġcolors":8505,"Ġtrastor":8506,"ienen":8507,"ĠregiÃ³":8508,"Ġves":8509,"Fran":8510,"Ġaporta":8511,"Ġclases":8512,"isional":8513,"Ġtown":8514,"uega":8515,"Ġemiti":8516,"ĠReino":8517,"Ġvacaciones":8518,"ĠdistÃłncia":8519,"Ġef":8520,"ĠPARA":8521,"orial":8522,"Ġescritor":8523,"ĠEscuela":8524,"ĠintenciÃ³":8525,"Ġcamps":8526,"Ġabord":8527,"Ġfaran":8528,"itzades":8529,"ĠPir":8530,"ĠSerra":8531,"Ġenter":8532,"93":8533,"acom":8534,"tides":8535,"Ġexpertos":8536,"ĠPresident":8537,"Ġescrita":8538,"ĠcÃ³m":8539,"tisme":8540,"ieran":8541,"Ġsencillo":8542,"ĠCaixa":8543,"Ġrepresentantes":8544,"Ġretall":8545,"Ġseguiment":8546,"Ġsecretari":8547,"Ġmensual":8548,"ĠCin":8549,"Ġabund":8550,"Ġcondem":8551,"ĠÃºnicamente":8552,"ĠQuan":8553,"ĊĊĠĊ":8554,"Ġbit":8555,"ĠopiniÃ³n":8556,"Art":8557,"Ġdispar":8558,"Ġenorme":8559,"ĠLlor":8560,"Ġaprendre":8561,"Ġpetites":8562,"Ġcostos":8563,"ĠCruz":8564,"guis":8565,"odas":8566,"Ġocho":8567,"Ġsalv":8568,"mpl":8569,"Ġclic":8570,"otor":8571,"ĠOrg":8572,"ĠSem":8573,"Ġllama":8574,"Ġmateixes":8575,"Ġfondos":8576,"Ġaux":8577,"tells":8578,"Ġprecep":8579,"direc":8580,"dan":8581,"Ġincluyen":8582,"Ġvoler":8583,"iosa":8584,"Ġadoptar":8585,"Organ":8586,"ĠConf":8587,"Ebre":8588,"rÃłcia":8589,"Ã²c":8590,"56":8591,"!!!":8592,"Ġdestacat":8593,"Ġperdut":8594,"Ġuniversal":8595,"Ġinvers":8596,"Ġbasa":8597,"Ġacumul":8598,"ribuy":8599,"ĠMontserrat":8600,"lio":8601,"Ġconflicte":8602,"ĠPortugal":8603,"ĠNov":8604,"Ġinvestiga":8605,"ĠcomenÃ§at":8606,"Ġseries":8607,"Ã¡logo":8608,"ÃŃcules":8609,"Ġextrem":8610,"omÃŃa":8611,"Ġnervi":8612,"Ġvigent":8613,"ĠGranada":8614,"Ġobserva":8615,"ĠdiÃłleg":8616,"2002":8617,"Ġadquisi":8618,"Ġpresentado":8619,"Ãļ":8620,"Ġpresenten":8621,"Ġnever":8622,"ĠdiagnÃ³stico":8623,"Ġteix":8624,"tadors":8625,"Ġexced":8626,"Ġgust":8627,"ĠÃºnic":8628,"ĠrecuperaciÃ³":8629,"Ġllengu":8630,"ĠpequeÃ±as":8631,"Ġdirecto":8632,"ĠdifusiÃ³":8633,"ĠGeor":8634,"Ġmanual":8635,"Ġdesit":8636,"ĠatenciÃ³":8637,"Ġdescomp":8638,"ĠclÃŃnica":8639,"Ġvolgut":8640,"Ġxer":8641,"Ġrelacionats":8642,"Ġejer":8643,"Ġcuarto":8644,"Ġdificultats":8645,"ĠfinanciaciÃ³n":8646,"Ġpresupuesto":8647,"Ġocasions":8648,"Ġseguint":8649,"Cre":8650,"Ġbil":8651,"Ġpujar":8652,"Ġpareja":8653,"ĠpÃ¨rdua":8654,"vestigaciÃ³":8655,"posar":8656,"Ġproxim":8657,"Ġif":8658,"Ã©rcito":8659,"ĠtÃ©cnicos":8660,"tua":8661,"ĠTerra":8662,"ĠprÃ²pies":8663,"lectius":8664,"cimientos":8665,"xiu":8666,"Ġcursa":8667,"Ġasum":8668,"ĠGR":8669,"ilidad":8670,"uerda":8671,"AG":8672,"ĠEmp":8673,"ariamente":8674,"Ġregional":8675,"lecciÃ³":8676,"Ġminer":8677,"Ġ1993":8678,"real":8679,"Ġaumentar":8680,"Ġplantes":8681,"Ġconserva":8682,"yer":8683,"Ġvint":8684,"Ġhabla":8685,"Ġcorrup":8686,"anzas":8687,"ĠcÃłn":8688,"Ġmapa":8689,"nia":8690,"ĠLat":8691,"Ġvisitants":8692,"Ġaprender":8693,"esca":8694,"Ġconcurso":8695,"ĠMÃ¡":8696,"Ġcuentas":8697,"Ġpacients":8698,"lars":8699,"ĠorganitzaciÃ³":8700,"teixen":8701,"Ġ#":8702,"Ġqueremos":8703,"ij":8704,"work":8705,"gers":8706,"dizaje":8707,"Ġvicepresid":8708,"Real":8709,"Ġsiguen":8710,"Ġrema":8711,"At":8712,"ĠgeneraciÃ³n":8713,"mento":8714,"Ġrequiere":8715,"tÃ©":8716,"Ġaceite":8717,"ĠFira":8718,"Ġmaterias":8719,"Ġconcreto":8720,"Ġrestric":8721,"ĠAM":8722,"Ġprevent":8723,"trico":8724,"Ġempleados":8725,"Ġrazones":8726,"Ġwebs":8727,"Ap":8728,"Ġvide":8729,"Ġ46":8730,"Ġempi":8731,"Ġcontiene":8732,"Ġhiper":8733,"ogra":8734,"Ġincapa":8735,"ĠBrasil":8736,"isten":8737,"ĠMedicina":8738,"Ġsay":8739,"Ġadecuada":8740,"fore":8741,"oventut":8742,"Ġpuerta":8743,"Ġhubiera":8744,"Ġpitj":8745,"ĠTex":8746,"Ġresultar":8747,"Ġlarg":8748,"try":8749,"empreses":8750,"ĠvÃŃdeos":8751,"rog":8752,"Ġmeus":8753,"Ġnoc":8754,"ĠFo":8755,"Ġtec":8756,"Ġopcions":8757,"ĠAmÃ©rica":8758,"ĠPlaÃ§a":8759,"Ġportu":8760,"stÃłncies":8761,"Ã§al":8762,"inat":8763,"Ġposteriormente":8764,"Ġdestinat":8765,"Ġevent":8766,"Ġestrang":8767,"Ġtanta":8768,"Ġguer":8769,"Ġvirtud":8770,"Ġbibl":8771,"tesis":8772,"2009":8773,"Ġport":8774,"Ġsocio":8775,"Ġdecisiones":8776,"Ġmobilitat":8777,"ĠqÃ¼estions":8778,"Ġutilizando":8779,"tesa":8780,"ĠWh":8781,"Ġ44":8782,"Ġprocess":8783,"illos":8784,"ĠFinal":8785,"edio":8786,"inten":8787,"ĠreuniÃ³n":8788,"Ġhabitants":8789,"ĠestarÃł":8790,"Ġafegit":8791,"Ġartista":8792,"Ġelecciones":8793,"ĠSeb":8794,"Ġantiguo":8795,"Ġparella":8796,"igital":8797,"Ġ55":8798,"Ġcomprome":8799,"Ġregula":8800,"Ġdurada":8801,"arrollo":8802,"Ġconvocatoria":8803,"EMA":8804,"espera":8805,"Man":8806,"Ġprol":8807,"ampi":8808,"Ġaproximadamente":8809,"ajuntament":8810,"ostÃ¨":8811,"ĠCiutat":8812,"Ġcomarques":8813,"Ġofrecen":8814,"ĠTambiÃ©n":8815,"Ġsimplemente":8816,"ĠAutÃ³noma":8817,"trucciÃ³":8818,"Ġ<":8819,"ĠtelÃ©fono":8820,"TM":8821,"ĠVilla":8822,"Ġpropuestas":8823,"Ġvulnera":8824,"Ġcausas":8825,"ĠFelip":8826,"isl":8827,"plicar":8828,"Ġpotencia":8829,"Ġautores":8830,"Ġpremios":8831,"Ġadecuado":8832,"Ġbeg":8833,"Ġteniu":8834,"Ġvalid":8835,"ĠdeberÃŃa":8836,"Ġaprovat":8837,"Ġrecin":8838,"Ġincluir":8839,"Ġllar":8840,"ĠFigu":8841,"Ġpuesta":8842,"gias":8843,"eso":8844,"Ġlengua":8845,"Ġterreny":8846,"Ġpercib":8847,"Ãłstic":8848,"ature":8849,"ĠDirecciÃ³":8850,"ĠsÃ¡b":8851,"Ġsopor":8852,"ft":8853,"associaciÃ³":8854,"Ġquar":8855,"Ġparticipat":8856,"Ġgui":8857,"Ġassegurar":8858,"Ġompl":8859,"ĠprestaciÃ³n":8860,"ĠVe":8861,"vir":8862,"Ġobjecte":8863,"Ġpropers":8864,"rÃ²":8865,"Ġordenador":8866,"Ġworld":8867,"wa":8868,"Ġsolucions":8869,"ĠeconÃ²mics":8870,"ĠacadÃ©m":8871,"Ġenguany":8872,"ught":8873,"Ġconm":8874,"73":8875,"Ġbru":8876,"Ġteat":8877,"86":8878,"ĠNic":8879,"Ġconnex":8880,"Ġobligaciones":8881,"nar":8882,"ogrÃłfic":8883,"Ġsitios":8884,"ĠgeneraciÃ³":8885,"olÃ²giques":8886,"Ġpatrocin":8887,"ĠmantÃ©":8888,"ĠcomissiÃ³":8889,"Ġnoctur":8890,"Ġutilizado":8891,"ĠnecessÃłries":8892,"Ġconfigur":8893,"ĠCuando":8894,"gus":8895,"Ã¨rcit":8896,"ĠBl":8897,"Ġ1991":8898,"Wh":8899,"apor":8900,"och":8901,"Form":8902,"gip":8903,"Ġsectores":8904,"dent":8905,"Ġbio":8906,"TS":8907,"Ã²nic":8908,"Ġnarra":8909,"ĠÃºltimas":8910,"ĠinterÃ¨s":8911,"2008":8912,"Ġcicl":8913,"ĠAz":8914,"MS":8915,"ĠhumÃł":8916,"Ġvita":8917,"Ġcomercials":8918,"Ġventas":8919,"Ġaclar":8920,"Ġvariedad":8921,"Ġadministr":8922,"Madrid":8923,"Ãºrg":8924,"Ġpopulation":8925,"ĠDeleg":8926,"iving":8927,"pan":8928,"Ġdue":8929,"Ġseguimiento":8930,"ĠnÃ©ixer":8931,"Ġestrategia":8932,"Ġhig":8933,"ĠpodÃŃa":8934,"Ġinvestigadores":8935,"ĠYou":8936,"Ġdominio":8937,"aa":8938,"ĠutilitzaciÃ³":8939,"rimir":8940,"Reg":8941,"ĠaprobaciÃ³n":8942,"Ġsoporte":8943,"Ġoro":8944,"idora":8945,"Ġcuidado":8946,"dria":8947,"Ġefecte":8948,"ĠllengÃ¼es":8949,"Ġoff":8950,"Ġconfianza":8951,"ĠRosa":8952,"ĠJusticia":8953,"Ġales":8954,"ACIÃĵ":8955,"Ġcerta":8956,"Ġrealitza":8957,"Ġdiario":8958,"Ġgraves":8959,"teced":8960,"ĠdÃ©cada":8961,"dues":8962,"Ġpronto":8963,"alumnat":8964,"ĠlÃŃmite":8965,"ĠharÃ¡":8966,"Enti":8967,"blos":8968,"Ġsumar":8969,"ony":8970,"Ġritme":8971,"ĠCatalans":8972,"Ġiglesia":8973,"omia":8974,"ĠindÃºstria":8975,"Ġelles":8976,"Ġcopi":8977,"tudes":8978,"ĠFont":8979,"ĠmodificaciÃ³":8980,"ĠdÃ³":8981,"Ġcomunitats":8982,"xi":8983,"ĠAir":8984,"Ġsituado":8985,"Ġcreado":8986,"ĠJer":8987,"log":8988,"assa":8989,"ufici":8990,"Ġprecisament":8991,"Ġrecha":8992,"Ġfound":8993,"Ġdinam":8994,"BA":8995,"mbre":8996,"ĠFue":8997,"Ġpermanent":8998,"habitatge":8999,"Ġcomida":9000,"ĠNi":9001,"ĠJust":9002,"ÃŃfiques":9003,"quem":9004,"otos":9005,"Ã¯tat":9006,"ciona":9007,"Ġdedicat":9008,"Ġdecidit":9009,"Ġcurt":9010,"Ġoficina":9011,"Ġdando":9012,"ĠelaboraciÃ³n":9013,"Ġincorporar":9014,"Ġfotografia":9015,"emÃłtiques":9016,"Ġpobre":9017,"Ġdev":9018,"tif":9019,"Ġtorno":9020,"riques":9021,"ĠArm":9022,"Ġpodrien":9023,"osten":9024,"taris":9025,"Ġmiles":9026,"ĠAS":9027,"Ġnenes":9028,"Ġpotenciar":9029,"Ġsopar":9030,"Ġfinalidad":9031,"Ġprovoca":9032,"Ġ?":9033,"Actualment":9034,"Ġpiezas":9035,"Ġjornades":9036,"Ġtrimestre":9037,"Ġresidus":9038,"Ġviernes":9039,"Ġempresari":9040,"ĠÃłmpl":9041,"ĠNorte":9042,"Ġprovisional":9043,"ĠoperaciÃ³n":9044,"Direc":9045,"Ãłvem":9046,"Ġdot":9047,"ĠkilÃ³metros":9048,"Ġcomponentes":9049,"Ġthese":9050,"ediat":9051,"ĠcompeticiÃ³":9052,"mol":9053,"ĠPened":9054,"Ġrecollida":9055,"74":9056,"Ġcalles":9057,"Ġinteresado":9058,"hem":9059,"idal":9060,"Ġconcur":9061,"ĠcanÃ§ons":9062,"hu":9063,"Ġcombina":9064,"dice":9065,"Ġdesemb":9066,"Ġdesn":9067,"ĠMedio":9068,"Ġleer":9069,"ensenyament":9070,"ficit":9071,"Ġcritic":9072,"Ġpronunci":9073,"Sab":9074,"Ġmoderna":9075,"Ġdiag":9076,"ĠAlbert":9077,"Ġpesc":9078,"ĠpressiÃ³":9079,"PerquÃ¨":9080,"ĠconexiÃ³n":9081,"ĠasociaciÃ³n":9082,"especial":9083,"Ġcomercio":9084,"Ġreunir":9085,"Ġsuelen":9086,"Ġprensa":9087,"Ġabon":9088,"Ġtrajec":9089,"Ġapare":9090,"ĠChris":9091,"Ġadaptar":9092,"Ġalmenys":9093,"Ġavis":9094,"ĠacciÃ³":9095,"Ġmediter":9096,"Ġgos":9097,"Ġpropera":9098,"uss":9099,"Ġparcel":9100,"amblea":9101,"Ġderecha":9102,"Ġvostres":9103,"ĠDepor":9104,"Ġsocios":9105,"ĊĠĊ":9106,"Ġcorresponents":9107,"ĠTerritorial":9108,"Ġshow":9109,"Ġedificios":9110,"Ġcompetente":9111,"ĠprÃ¨via":9112,"Ġexhib":9113,"Ġprincipalment":9114,"arr":9115,"ĠIsrael":9116,"Ġdedicar":9117,"Ġwell":9118,"Ġabierto":9119,"Ġreprodu":9120,"tol":9121,"ĠSam":9122,"Ġ42":9123,"ĠjustÃŃcia":9124,"Ġfamiliares":9125,"Ġdesf":9126,"Gracias":9127,"Ġclasific":9128,"ĠMuseo":9129,"Ġcorred":9130,"Ġvictoria":9131,"Ġlet":9132,"sitat":9133,"ĠCU":9134,"ĠDesprÃ©s":9135,"71":9136,"terna":9137,"64":9138,"Ġvisites":9139,"Ġsorte":9140,"ĠtelÃ¨fon":9141,"genda":9142,"ĠLin":9143,"Ġsucce":9144,"Ġprimavera":9145,"ĠAgu":9146,"Ġevident":9147,"].":9148,"Ġcris":9149,"Ġdeporte":9150,"estil":9151,"Ġnucli":9152,"Ġciclo":9153,"eller":9154,"rani":9155,"Ġembara":9156,"Tal":9157,"ĠGr":9158,"Ġtercers":9159,"Ġmotivos":9160,"ĠCÃ¡":9161,"Ġdesarrollado":9162,"Ġcoinci":9163,"Ġsiga":9164,"ulm":9165,"iform":9166,"dal":9167,"politan":9168,"Ġpresupues":9169,"ny":9170,"Ġnumb":9171,"Ã²metres":9172,"cie":9173,"Ġcolectivo":9174,"ĠItalia":9175,"Ġestadounidense":9176,"ĠBuen":9177,"Ġveter":9178,"ĠocasiÃ³":9179,"ĠNou":9180,"Ġrus":9181,"elecomun":9182,"ĠAlm":9183,"Ġgeg":9184,"inari":9185,"estable":9186,"Oc":9187,"cera":9188,"ims":9189,"Ġindependentista":9190,"Ġcomentaris":9191,"Ġhos":9192,"Ġescola":9193,"Ġprocede":9194,"anna":9195,"Ġpedag":9196,"2000":9197,"Ġplatja":9198,"Ġfrase":9199,"ĠPenedÃ¨s":9200,"ivas":9201,"Ġfuego":9202,"Ġartistes":9203,"Ġsit":9204,"Ġfases":9205,"ined":9206,"1992":9207,"Era":9208,"tino":9209,"uan":9210,"ĠGuill":9211,"Ah":9212,"ficos":9213,"ĠmÃ©todos":9214,"Ġquiz":9215,"Ġcomenz":9216,"CEE":9217,"Ġpublicada":9218,"Ġpresidenta":9219,"Ġnecessaris":9220,"zz":9221,"ĠPs":9222,"We":9223,"Ġanem":9224,"quip":9225,"ÃŃb":9226,"Ġpromoure":9227,"entan":9228,"ĠPartit":9229,"Ġcaure":9230,"itarias":9231,"Can":9232,"cripciÃ³n":9233,"Ġassociacions":9234,"Ġmales":9235,"Ġreivindic":9236,"Ġincremento":9237,"Ġmoviments":9238,"ray":9239,"Tu":9240,"Ġvilla":9241,"unty":9242,"Ġ1980":9243,"ierta":9244,"ĠAll":9245,"ridos":9246,"ĠpolÃŃticos":9247,"Ġronda":9248,"Ġfusta":9249,"Ġcandidatura":9250,"Ġmilers":9251,"Ġaprofitar":9252,"arÃłs":9253,"Ġdetectar":9254,"Ġvess":9255,"Ġregistra":9256,"ĠZar":9257,"94":9258,"ĠÃ²r":9259,"Ġacu":9260,"Ġpeix":9261,"Ġsocialista":9262,"Ġthree":9263,"Ġsomos":9264,"Ġpur":9265,"ENER":9266,"Ġaspir":9267,"ursos":9268,"ĠdaÃ±o":9269,"riÃł":9270,"Ġaloj":9271,"gram":9272,"Ġmenors":9273,"Ġtindran":9274,"ĠPersonal":9275,"Ġdeter":9276,"Ġmarcas":9277,"Ġmaes":9278,"Ġsurt":9279,"Ġvelocitat":9280,"oder":9281,"ĠJoaqu":9282,"Ġhu":9283,"Ġhere":9284,"Ġmercados":9285,"Ġincluidos":9286,"ĠDol":9287,"outh":9288,"Ġrecollir":9289,"Ġcome":9290,"ĠfrancÃ©s":9291,"Descrip":9292,"ulares":9293,"Ġmam":9294,"Ġtut":9295,"ĠsueÃ±o":9296,"Ġfri":9297,"Ġ00":9298,"Ġbecame":9299,"Ġcontratos":9300,"Ġmensaje":9301,"Ġeventos":9302,"Ġimpulsar":9303,"ĠÃłn":9304,"Ġpermanente":9305,"Ġmedicamentos":9306,"Ġautoridad":9307,"ĠcompetÃ¨ncia":9308,"siv":9309,"Ġoh":9310,"Ġets":9311,"Ġknown":9312,"ages":9313,"Ġdispositivos":9314,"Ġrecomana":9315,"Ġviviendas":9316,"ĠmÃ³d":9317,"Ġhaga":9318,"Ġassolir":9319,"Ġcod":9320,"Ġorganitzar":9321,"Ġedificis":9322,"Ġsorpresa":9323,"Ġcomentar":9324,"Ġoptar":9325,"Cor":9326,"Ġsimilares":9327,"Ġpreguntas":9328,"ogrÃ¡fica":9329,"tismo":9330,"Ġdistric":9331,"iÃ³s":9332,"lectual":9333,"existÃ¨ncia":9334,"omina":9335,"Ġassistir":9336,"Ġpuntual":9337,"teros":9338,"Ġaprovar":9339,"Ġpatir":9340,"Ġfull":9341,"Ġfollow":9342,"Ġmantin":9343,"ĠreducciÃ³":9344,"Ġintelig":9345,"Ġilus":9346,"Ġescena":9347,"ken":9348,"So":9349,"rop":9350,"TV":9351,"Ġpesca":9352,"mig":9353,"Ġtratamientos":9354,"ĠWilli":9355,"mal":9356,"licitar":9357,"Ġib":9358,"itÃ¨":9359,"ĠconseqÃ¼Ã¨ncies":9360,"istribu":9361,"Ġcomunidades":9362,"sec":9363,"Ġconcerts":9364,"ĠprevenciÃ³":9365,"ÃŃda":9366,"\"),":9367,"adra":9368,"ĠCard":9369,"ĠgarantÃŃa":9370,"Ġgarante":9371,"Ġcontempl":9372,"Ġfrontera":9373,"Ġverd":9374,"Ġrepetir":9375,"Ġtirar":9376,"ĠNorm":9377,"ĠPremio":9378,"ĠSeguretat":9379,"ĠHotel":9380,"ĠreflexiÃ³":9381,"ĠdeclaraciÃ³":9382,"ĠXVIII":9383,"ARI":9384,"Ġcodi":9385,"Ġizquierda":9386,"kin":9387,"Ġincrem":9388,"ĠalimentaciÃ³n":9389,"ĠIr":9390,"audi":9391,"Alt":9392,"Ġepisod":9393,"ĠReial":9394,"Ġsubjec":9395,"Ġbeing":9396,"Ġrelacionadas":9397,"Ġdosis":9398,"Ġcolla":9399,"ĠBell":9400,"Encara":9401,"idamente":9402,"Ġaun":9403,"Ġrelacionades":9404,"Ġdiscrimin":9405,"ĠpÃ¡rrafo":9406,"Ġpose":9407,"Ġvespre":9408,"ĠSL":9409,"anÃŃa":9410,"oger":9411,"Ġcall":9412,"ADOS":9413,"Ġmix":9414,"ĠPartido":9415,"imentaciÃ³":9416,"Ġincluding":9417,"Ġexpan":9418,"ĠSA":9419,"avaluaciÃ³":9420,"acer":9421,"Ġbron":9422,"ĠestaciÃ³n":9423,"Ġsolamente":9424,"ĠXar":9425,"Ġletra":9426,"Ġbandera":9427,"eco":9428,"Ġplu":9429,"Ġitiner":9430,"ĠCN":9431,"Ġfiesta":9432,"Ġmarcador":9433,"Ġemocional":9434,"Ġpreserv":9435,"amento":9436,"ology":9437,"Ġobjetos":9438,"But":9439,"ĠlegislaciÃ³":9440,"Ġcantidades":9441,"Ġmatr":9442,"Ġaprobado":9443,"ĠJan":9444,"ĠAten":9445,"Ġnegre":9446,"Ġfuerzas":9447,"terÃŃa":9448,"Ã²pia":9449,"Ġinser":9450,"Ġsuerte":9451,"Ġnombres":9452,"Ġneed":9453,"enya":9454,"ĠFu":9455,"ĠiP":9456,"ombra":9457,"segura":9458,"cop":9459,"Ġgobern":9460,"Porque":9461,"Ġpoeta":9462,"ĠCity":9463,"Ġcorona":9464,"ĠCorpor":9465,"presiÃ³n":9466,"Ġwant":9467,"tizaciÃ³n":9468,"ĠRafael":9469,"ĠtrÃ¡fico":9470,"ĠFl":9471,"Ġporcentaje":9472,"riendo":9473,"ĠCampi":9474,"Ġamigo":9475,"Ġlector":9476,"tÃº":9477,"Ġjurisdic":9478,"Ġidioma":9479,"BC":9480,"Esc":9481,"Ġvehicle":9482,"tingut":9483,"ologies":9484,"GR":9485,"Ġnen":9486,"Ġvosaltres":9487,"ĠDa":9488,"ĠÂ·":9489,"Ġacuerdos":9490,"Ġimmedia":9491,"ĠcondiciÃ³":9492,"91":9493,"ĠXVI":9494,"Ġsabor":9495,"ĠactuaciÃ³":9496,"quinas":9497,"ĠPuj":9498,"Ġhorm":9499,"Esper":9500,"Ã¡mica":9501,"Ġmatric":9502,"Ġdedica":9503,"Ġmue":9504,"Ãłster":9505,"Ġportaveu":9506,"ajuda":9507,"ĠRad":9508,"Af":9509,"isions":9510,"ĠprovÃŃncia":9511,"labora":9512,"abilitat":9513,"lega":9514,"vÃ©":9515,"arribada":9516,"Ġpopulars":9517,"rell":9518,"Ġpav":9519,"Dos":9520,"Ġllegado":9521,"âĢ¦]":9522,"Ġcuidad":9523,"Ġatre":9524,"Ġgradu":9525,"Ġparell":9526,"ĠrÃ¡pido":9527,"Ġph":9528,"ĠEspecial":9529,"ĠeconÃ²miques":9530,"Ġcontrad":9531,"eresa":9532,"ĠdÃ¨":9533,"abora":9534,"VA":9535,"euro":9536,"Ġdarrere":9537,"ieren":9538,"Ġsumin":9539,"Ġoportunitat":9540,"tab":9541,"quetes":9542,"ĠDerecho":9543,"Ġmarcar":9544,"ĠCel":9545,"ĠCastellÃ³":9546,"Ġvecinos":9547,"ident":9548,"oferta":9549,"geno":9550,"ĠfaÃ§":9551,"ĠInvestig":9552,"Ġmaneres":9553,"Ġllenguatge":9554,"Ġaprendizaje":9555,"Ġrecent":9556,"Ġsenyal":9557,"ĠRegistro":9558,"ĠSocietat":9559,"Ġelemento":9560,"Ġcertificado":9561,"ating":9562,"ĠtenÃŃan":9563,"61":9564,"rosoft":9565,"ĠSebasti":9566,"Ġbarre":9567,"Ġagentes":9568,"Ġrenova":9569,"etrÃł":9570,"quitectura":9571,"Ġexpecta":9572,"Ġsimplement":9573,"uran":9574,"Pa":9575,"Ol":9576,"ager":9577,"ĠRÃł":9578,"Ġproperes":9579,"Ġfant":9580,"ĠclasificaciÃ³n":9581,"Ġrecorrido":9582,"ĠexperiÃ¨ncies":9583,"icen":9584,"Ġespecialista":9585,"***":9586,"ĠhÃ¡b":9587,"Cas":9588,"Ġfruit":9589,"Ġespecials":9590,"Dem":9591,"Ãºria":9592,"Ġuniversitat":9593,"Ġbeneficis":9594,"ĠhistÃ²rica":9595,"iestas":9596,"ĠSeÃ±":9597,"estan":9598,"Ġvacances":9599,"istan":9600,"Ġaficion":9601,"Ġown":9602,"Ġlarga":9603,"ĠImp":9604,"ients":9605,"ratge":9606,"Ġmalalties":9607,"Ġbastant":9608,"Ġbuenas":9609,"atoria":9610,"Ġanteriormente":9611,"ily":9612,"post":9613,"Ġgel":9614,"ĠmanifestaciÃ³":9615,"Ġ600":9616,"Ġcasas":9617,"Ãłrdia":9618,"Ġcorresponde":9619,"ecÃŃa":9620,"Ġfactors":9621,"Ġestren":9622,"Ġpreguntar":9623,"Ġdesaf":9624,"Ġdepartamento":9625,"ards":9626,"Ġfeel":9627,"Ġlin":9628,"Ġdiversitat":9629,"tistes":9630,"Ġcomentarios":9631,"pida":9632,"ried":9633,"Ġtarjeta":9634,"gÃ¼":9635,"diques":9636,"52":9637,"ĠciÃ¨ncia":9638,"Ġsurg":9639,"Ġmultitud":9640,"Ġenlace":9641,"ule":9642,"Ġirreg":9643,"Ġarquitectura":9644,"Ġestima":9645,"Ġconeguda":9646,"Ġair":9647,"ĠelecciÃ³n":9648,"87":9649,"Ġpaisatge":9650,"Ġcoher":9651,"Ġnegro":9652,"ĠAgencia":9653,"Ġcomenta":9654,"Ġcanciones":9655,"ĠDN":9656,"Ġpeligros":9657,"Ġdeterminada":9658,"Ġcompletamente":9659,"Ġwhile":9660,"lvar":9661,"Ġprevenir":9662,"Ġafectar":9663,"Ġactuales":9664,"Ġname":9665,"Ġsant":9666,"Ġestal":9667,"Ġhaurien":9668,"ĠIgual":9669,"Ġmarques":9670,"rano":9671,"53":9672,"Ġ1989":9673,"Aqu":9674,"Ġparar":9675,"Ġfav":9676,"ĠeconÃ³micos":9677,"Ġpersonatge":9678,"Ã¤":9679,"Ġconstituye":9680,"ĠSep":9681,"ĠAna":9682,"Ã³mez":9683,"Ġcomunica":9684,"ĠAug":9685,"other":9686,"Ġrequisits":9687,"ĠPD":9688,"Ġimplem":9689,"Ġquo":9690,"Ġcrid":9691,"mail":9692,"Ġespectacular":9693,"Ġblanca":9694,"Ġindirec":9695,"CD":9696,"Ġprofessorat":9697,"inta":9698,"Ġeficacia":9699,"iat":9700,"dors":9701,"ĠRev":9702,"Ġvoleu":9703,"Ġestablecimiento":9704,"Ġconvertit":9705,"Ġorganismos":9706,"Ġpudo":9707,"ĠcanÃ§Ã³":9708,"Ġrecibido":9709,"Ġparad":9710,"icidad":9711,"Ġfisc":9712,"Ġmida":9713,"Ġingre":9714,"Ġpodido":9715,"Ġcomienza":9716,"berto":9717,"Ãłnsit":9718,"oth":9719,"Ġsm":9720,"Oh":9721,"ĠpodrÃŃan":9722,"Ġsegles":9723,"Ġdeterior":9724,"ĠprÃłcticament":9725,"Ġaccidente":9726,"Ġenca":9727,"Ġexistentes":9728,"ĠrealizÃ³":9729,"aries":9730,"Ġcinqu":9731,"rica":9732,"89":9733,"bes":9734,"Ġroba":9735,"Ġintenta":9736,"Ġuse":9737,"ford":9738,"Ġtribut":9739,"legal":9740,"Ġpati":9741,"ĠconcesiÃ³n":9742,"Estudi":9743,"Ġanomenat":9744,"ĠpodrÃ¡s":9745,"AE":9746,"esfor":9747,"Ġajuntaments":9748,"Ġempezar":9749,"Ġdichas":9750,"Ġbac":9751,"Ġtum":9752,"Ġperteneci":9753,"Ġcans":9754,"wever":9755,"Ġantigua":9756,"escol":9757,"ĠRaj":9758,"enlla":9759,"Ġapropi":9760,"Ġfalle":9761,"Ġordre":9762,"67":9763,"Ġnoticia":9764,"Ġsang":9765,"ĠregulaciÃ³n":9766,"encs":9767,"Ġ120":9768,"tena":9769,"ĠTurisme":9770,"ERO":9771,"plan":9772,"ĠPÃºblicas":9773,"54":9774,"arÃ³":9775,"ness":9776,"ĠAlex":9777,"62":9778,"Ġarea":9779,"Ġox":9780,"Ġlleis":9781,"ĠManresa":9782,"izan":9783,"Ġgestion":9784,"59":9785,"ĠsentÃ¨ncia":9786,"anÃłlisi":9787,"Ġtestimon":9788,"ĠCalif":9789,"ĠMinisteri":9790,"ĠartÃŃstica":9791,"ĠColegio":9792,"Ġconvenio":9793,"ĠFC":9794,"urada":9795,"eng":9796,"Ġviuen":9797,"Ġapunta":9798,"elim":9799,"Ġespiri":9800,"ÃŃnsula":9801,"Ġlleug":9802,"osta":9803,"Ġquants":9804,"Ġdeclarar":9805,"ĠParlamento":9806,"ĠStates":9807,"ecas":9808,"igna":9809,"onÃ¨s":9810,"taments":9811,"Ġrealizadas":9812,"itzant":9813,"Ġneuro":9814,"ĠurbÃł":9815,"Ġflam":9816,"tigo":9817,"Ġcompres":9818,"Ġminim":9819,"Ġfur":9820,"antic":9821,"ensi":9822,"Ġgama":9823,"Ġllegada":9824,"ART":9825,"Ġutilizan":9826,"ĠfÃŃsico":9827,"Ġprobable":9828,"Ġterreno":9829,"Ġproposa":9830,"PV":9831,"63":9832,"Ġexcepcional":9833,"Ġradical":9834,"Ġquins":9835,"tegra":9836,"Ġadministrativo":9837,"pel":9838,"ĠcategorÃŃas":9839,"Ġtienda":9840,"Ġventajas":9841,"51":9842,"Ġpasos":9843,"Ġrepeti":9844,"ĠAdministraciones":9845,"acho":9846,"lusiÃ³":9847,"Ġdomicilio":9848,"Ġassistents":9849,"ĠinstituciÃ³":9850,"Ġpoques":9851,"oh":9852,"Ġ43":9853,"Ġconstituy":9854,"icitat":9855,"ĠinversiÃ³":9856,"ugÃŃa":9857,"Hasta":9858,"Ġescoltar":9859,"Ãłnd":9860,"mi":9861,"Ġads":9862,"Ġempren":9863,"Ġpuertas":9864,"ritu":9865,"Ġpresa":9866,"ĠComarcal":9867,"Ġbefore":9868,"Puede":9869,"Ġanteced":9870,"olf":9871,"Ġconoce":9872,"Ġtreballen":9873,"Ġmiedo":9874,"Ġplas":9875,"ĠNavarra":9876,"lacant":9877,"Ġdomingo":9878,"Ġsystem":9879,"entas":9880,"Ġextin":9881,"evoluciÃ³":9882,"Ġassegura":9883,"AJ":9884,"Ġoral":9885,"2005":9886,"ĠHol":9887,"todo":9888,"Ġfia":9889,"Ġprivat":9890,"orda":9891,"accep":9892,"Ġagafar":9893,"ĠPlaza":9894,"Ġlejos":9895,"Ġidentitat":9896,"onesa":9897,"ĠtÃŃtulos":9898,"agoza":9899,"Cl":9900,"Ġcuestiones":9901,"Ġvies":9902,"gs":9903,"Ġinstrumentos":9904,"Ã¨ries":9905,"Ġquir":9906,"ĠexplotaciÃ³n":9907,"Pla":9908,"empla":9909,"dom":9910,"Ġnumerosos":9911,"Ġreparti":9912,"Ġrenunci":9913,"Ġmantiene":9914,"Ġconsens":9915,"ĠIC":9916,"Ġpersonajes":9917,"Ġmetal":9918,"ÃŃsticos":9919,"Ġmente":9920,"Ġmaquin":9921,"lent":9922,"Uno":9923,"CÃ³mo":9924,"Ġcadascun":9925,"ĠDeci":9926,"ĠMill":9927,"laborar":9928,"84":9929,"Ġinspir":9930,"Ġcreada":9931,"Ġcorreg":9932,"ĠMarina":9933,"canvi":9934,"ĠtrÃłm":9935,"Ġnatura":9936,"rist":9937,"Ġproducido":9938,"emat":9939,"Ġrestes":9940,"Ġagradable":9941,"ĠobligaciÃ³n":9942,"quie":9943,"ixement":9944,"ĠMossos":9945,"ĠJud":9946,"ĠespÃ¨cies":9947,"Ġdiagnos":9948,"Ġplaya":9949,"Ġafrontar":9950,"Ġdut":9951,"ĠSc":9952,"zados":9953,"Ġpatrimonio":9954,"PR":9955,"ĠTIC":9956,"ĠAlta":9957,"Ġdisposar":9958,"Ġalcance":9959,"Ġeficaz":9960,"Ġcorte":9961,"Ġyear":9962,"ĠconservaciÃ³n":9963,"Ġestructur":9964,"Ġcaigu":9965,"trans":9966,"Ġremun":9967,"apartat":9968,"ĠconsciÃ¨ncia":9969,"ĠĠĠĠĠĠĠĠ":9970,"Ġbicicleta":9971,"estaciÃ³":9972,"Ġcapit":9973,"iero":9974,"ĠconvirtiÃ³":9975,"Ġnaturalesa":9976,"riel":9977,"Ġvall":9978,"egas":9979,"Ġturismo":9980,"truy":9981,"57":9982,"Ġminut":9983,"ĠGro":9984,"Ġnotable":9985,"indi":9986,"Ġjefe":9987,"Ã¯des":9988,"Ġpisos":9989,"ĠexposiciÃ³":9990,"ĠpasÃ³":9991,"ĠEv":9992,"Ġparlant":9993,"ĠdÃ³lares":9994,"Ġlu":9995,"Ġminor":9996,"ĠDemoc":9997,"Ġdesesti":9998,"Ġtasa":9999,"Ġprodueix":10000,"ĠintegraciÃ³n":10001,"Ġprofesores":10002,"Ġverita":10003,"Ġactor":10004,"Ġsorpren":10005,"Ġagaf":10006,"timo":10007,"Ġarchivos":10008,"ĠJim":10009,"oz":10010,"Ġsat":10011,"enos":10012,"ĠEnerg":10013,"eth":10014,"Ġpropag":10015,"adura":10016,"ÃĴ":10017,"Ġfavorable":10018,"ĠEngl":10019,"ĠsÃ¡bado":10020,"eten":10021,"Ġ[âĢ¦]":10022,"ote":10023,"Ġdisf":10024,"Ġraons":10025,"ear":10026,"Ġoficiales":10027,"ĠPark":10028,"ĠcelebraciÃ³n":10029,"Ġposee":10030,"ĠSof":10031,"hold":10032,"ĠjurÃŃdico":10033,"Ġpassen":10034,"Ġquines":10035,"cionado":10036,"Ġparque":10037,"avan":10038,"ĠRey":10039,"ĠClÃŃn":10040,"Ġlloguer":10041,"IER":10042,"ĠTorres":10043,"Ġcardi":10044,"hout":10045,"GrÃłcies":10046,"ĠFederaciÃ³n":10047,"Ġgasto":10048,"Ġexcelente":10049,"Ġtrabajando":10050,"Ġactivo":10051,"tosa":10052,"\").":10053,"Ġofertas":10054,"ĠBanco":10055,"Sec":10056,"Ġdetermina":10057,"Ġincluido":10058,"ety":10059,"Ġpion":10060,"Ġuniversitats":10061,"tratÃ¨g":10062,"Ġteus":10063,"ĠAlfons":10064,"69":10065,"yas":10066,"PL":10067,"ason":10068,"EsglÃ©sia":10069,"ulada":10070,"Ġcenten":10071,"ologÃŃas":10072,"fal":10073,"ĠPC":10074,"ĠinscripciÃ³n":10075,"velop":10076,"Ġcandidat":10077,"esde":10078,"Ġcalendari":10079,"iness":10080,"ugat":10081,"Ġlaborals":10082,"pic":10083,"Ġenrere":10084,"instal":10085,"Ġexclusivamente":10086,"ĠcÃ¡":10087,"ĠRen":10088,"Ġfeu":10089,"Ġelaborar":10090,"ĠHern":10091,"Ġlliures":10092,"Ġrepresentar":10093,"Ġigu":10094,"ĠContra":10095,"Ġbarra":10096,"ĠLliga":10097,"Ġsuficient":10098,"Ġcorto":10099,"Ġhier":10100,"Ġplazas":10101,"Ã¨cia":10102,"Ġalcohol":10103,"MO":10104,"Ġapenas":10105,"Ġalma":10106,"Ġsubvencions":10107,"Ġbany":10108,"dÃ³s":10109,"ĠPaÃ¯sos":10110,"Ġconsisteix":10111,"def":10112,"ĠtrajectÃ²ria":10113,"Ġiba":10114,"ems":10115,"ĠRoca":10116,"Ġdesitj":10117,"agrad":10118,"Ġrealizada":10119,"Ġiniciatives":10120,"mentar":10121,"ĠProvincial":10122,"ĠrÃ¡pida":10123,"Ġpedido":10124,"rando":10125,"Ġaniversari":10126,"Ġmedieval":10127,"Ġhall":10128,"Ġpresentan":10129,"Ġbarrio":10130,"Ġdescu":10131,"ĠreconÃ¨ixer":10132,"enses":10133,"Ġreferent":10134,"Ġderrota":10135,"Ġcomentari":10136,"Ori":10137,"torio":10138,"Ġpermeti":10139,"Internet":10140,"Ġterap":10141,"Ġaround":10142,"Ġarreglo":10143,"ĠnotÃŃcies":10144,"informe":10145,"Ġdeterminados":10146,"Ġdiferencias":10147,"arco":10148,"ĠinnovaciÃ³n":10149,"Ġencontramos":10150,"Ġacords":10151,"Ġdormir":10152,"ling":10153,"item":10154,"ombre":10155,"Ġprec":10156,"ĠTrabajo":10157,"Ġconjuntament":10158,"ĠlÃŃqu":10159,"ĠrecuperaciÃ³n":10160,"Ġconjunta":10161,"Ġritmo":10162,"Ġescribir":10163,"Ġplataform":10164,"ĠvaloraciÃ³n":10165,"oras":10166,"Ġintroduc":10167,"hagi":10168,"ĠcompaÃ±eros":10169,"ferencia":10170,"ĠexpresiÃ³n":10171,"Ġ64":10172,"ĠfÃ³rmula":10173,"Ġnegocios":10174,"Ġmanifest":10175,"Ġsitua":10176,"ĠRoc":10177,"jan":10178,"ferent":10179,"Ġrelacionada":10180,"tish":10181,"ĠCuba":10182,"Ġmete":10183,"ĠNor":10184,"Ġalumno":10185,"ĠPaul":10186,"Ġresistencia":10187,"Ġaleshores":10188,"hid":10189,"atorios":10190,"Ġcomportamiento":10191,"Ġpueblos":10192,"dex":10193,"itÃłries":10194,"ĠEdu":10195,"Ġeuropeu":10196,"undo":10197,"Ġcampos":10198,"Ġtier":10199,"Ġveus":10200,"Ġelegido":10201,"ĠCompany":10202,"Ġsensibil":10203,"cend":10204,"Ġsame":10205,"Ġlicencia":10206,"ĠGÃ³mez":10207,"voluciÃ³n":10208,"Econ":10209,"ĠcrÃ©ditos":10210,"Ġinvas":10211,"Ġentien":10212,"Ġimporta":10213,"rillo":10214,"Ġcauses":10215,"tiles":10216,"etÃŃn":10217,"comun":10218,"Ġ250":10219,"Ġorganiza":10220,"erÃ§":10221,"Ġfeix":10222,"Ġcurios":10223,"ĠVia":10224,"andro":10225,"ĠRobert":10226,"obres":10227,"Ġmenudo":10228,"Ġreti":10229,"ĠGa":10230,"Ġsou":10231,"ĠpelÃŃculas":10232,"oposiciÃ³":10233,"ĠJorge":10234,"quez":10235,"Ġ41":10236,"ĠAjuntament":10237,"drome":10238,"Ġpracticar":10239,"ĠvÃŃctimes":10240,"Historia":10241,"Ġconsecuencias":10242,"ĠCada":10243,"ĠelectrÃ²nica":10244,"Ġdelante":10245,"Mon":10246,"Ġanava":10247,"Ġdalt":10248,"burg":10249,"Ġembl":10250,"Ġpublicitat":10251,"jal":10252,"Ġconceptos":10253,"ĠArt":10254,"Ġpoblacions":10255,"Ġabrir":10256,"Ġsacri":10257,"ÃŃfico":10258,"ĠTol":10259,"Ġdebut":10260,"llar":10261,"Ġreproduc":10262,"Ġboth":10263,"Ġintelec":10264,"Ġdetalles":10265,"Ġveig":10266,"Ġdudas":10267,"Ġpresentada":10268,"Ġpacte":10269,"ĠlÃŃmites":10270,"Ġinex":10271,"ĠgrÃ¡":10272,"Ġrealizan":10273,"ĠsensaciÃ³":10274,"ĠtransformaciÃ³":10275,"Ġsalvar":10276,"jats":10277,"ĠvostÃ¨":10278,"uevo":10279,"Ġress":10280,"Ã³logo":10281,"ĠHen":10282,"ded":10283,"ked":10284,"ĠconcentraciÃ³":10285,"Ġ;":10286,"ĠUnido":10287,"mm":10288,"ĠcompaÃ±ÃŃas":10289,"emple":10290,"ĠHab":10291,"ips":10292,"ĠdemÃł":10293,"tiendo":10294,"odel":10295,"Ġsuperviv":10296,"Ġtraslad":10297,"ĠSU":10298,"Ġpunta":10299,"mica":10300,"Ġpitjor":10301,"Ġbuenos":10302,"Ġvaix":10303,"orables":10304,"Ġconsumidor":10305,"Ġpesetas":10306,"Ġhogar":10307,"Ġamplio":10308,"eus":10309,"ĠcÃ¡mara":10310,"ĠcontrataciÃ³n":10311,"eli":10312,"Ġfred":10313,"ACIONES":10314,"Ġposteriorment":10315,"ĠPic":10316,"itores":10317,"Ġesdeveniments":10318,"Sub":10319,"Ġextrac":10320,"Ġdispu":10321,"ved":10322,"ĠpermetrÃł":10323,"americana":10324,"NO":10325,"Ġvaga":10326,"assistÃ¨ncia":10327,"Ġestrella":10328,"Ġplegat":10329,"ĠAustral":10330,"Agr":10331,"Ġvar":10332,"ÃŃc":10333,"Ġafectados":10334,"ticip":10335,"Ġsugger":10336,"venciÃ³":10337,"Ġigualtat":10338,"Ġroda":10339,"ariciÃ³":10340,"ĠenseÃ±anza":10341,"ĠNational":10342,"ĠMem":10343,"Ġparada":10344,"Estudis":10345,"Ġseguida":10346,"Ġdada":10347,"Ġestabliments":10348,"Pers":10349,"ĠBu":10350,"ĠConstituciÃ³n":10351,"Ġaud":10352,"ĠUR":10353,"Ġfacin":10354,"Ġindividuals":10355,"ĠhistÃ³rico":10356,"Ġtradicionals":10357,"Ġgarantiz":10358,"treet":10359,"ĠProduc":10360,"ĠpresentÃ³":10361,"Mientras":10362,"Ni":10363,"Ġcolumna":10364,"AA":10365,"ĠlÃ²g":10366,"Ġaugmentar":10367,"Ġlac":10368,"egar":10369,"iografÃŃa":10370,"Ġinci":10371,"Ġcomunicaciones":10372,"venciÃ³n":10373,"ĠKing":10374,"ĠturÃŃstica":10375,"Ġartistas":10376,"Ġmajors":10377,"Ġoficials":10378,"Ġdecret":10379,"ĠCoordin":10380,"Ġido":10381,"elaboraciÃ³":10382,"ĠComunidades":10383,"pass":10384,"ĠSuprem":10385,"Ġdebajo":10386,"Ġavalu":10387,"Ġurbana":10388,"ĠVilaf":10389,"Ġoccidental":10390,"ĠprimÃłria":10391,"ĠMartin":10392,"ĠOR":10393,"Ġconsideren":10394,"EstÃ¡":10395,"Consider":10396,"ĠChile":10397,"Lle":10398,"Ġcompe":10399,"ĠTri":10400,"Ġquieren":10401,"Ġmusulm":10402,"Malgrat":10403,"Ġabandonar":10404,"ĠDaniel":10405,"Ã©ns":10406,"ĠconservaciÃ³":10407,"ĠCiÃ¨ncies":10408,"quesa":10409,"equilib":10410,"Ġindependentistes":10411,"ĠMÃ¨":10412,"endas":10413,"Ġclarament":10414,"ĠquiÃ©n":10415,"Ġinfluencia":10416,"Ġlaborales":10417,"Ġpatrimonial":10418,"arm":10419,"Ġfidel":10420,"ĠAragÃ³n":10421,"Ġhija":10422,"Ġmarge":10423,"ceres":10424,"VE":10425,"Ġlegales":10426,"Ġrecop":10427,"Ġautoma":10428,"ĠRES":10429,"ÃĪ":10430,"ĠvÃ¡l":10431,"Ġbarris":10432,"Ġverde":10433,"Ġ1988":10434,"tian":10435,"Ġinsufici":10436,"Ġindicar":10437,"thing":10438,"ĠBil":10439,"Ġsacar":10440,"ĠGen":10441,"Ġinquie":10442,"Ġgratuita":10443,"echa":10444,"Ġimpro":10445,"endi":10446,"ĠCorn":10447,"ĠcontÃ©":10448,"Ġserveix":10449,"ĠTras":10450,"Ġrespectivamente":10451,"ĠEsp":10452,"ĠRegne":10453,"ĠMicrosoft":10454,"bert":10455,"Ġestiguin":10456,"anci":10457,"pidamente":10458,"lis":10459,"Ġabra":10460,"ecos":10461,"Ġcoun":10462,"Ġnet":10463,"ĠDesarrollo":10464,"ĠAndreu":10465,"ĠMarta":10466,"ather":10467,"Ġ1986":10468,"Ġrespeto":10469,"ĠapariciÃ³n":10470,"Ġproven":10471,"ĠUniversity":10472,"ĠdÃ¨cada":10473,"Ġconfid":10474,"edera":10475,"Ġelector":10476,"Ġestats":10477,"Ġwon":10478,"ĠaplicaciÃ³":10479,"Ġdevelop":10480,"Ġasesor":10481,"trada":10482,"impacte":10483,"Ġseguros":10484,"upaciÃ³":10485,"Ġfinca":10486,"Ġministre":10487,"Ġcatalan":10488,"Ġactivos":10489,"ĠCanal":10490,"Ġeuropeus":10491,"esport":10492,"envolup":10493,"ĠrecibiÃ³":10494,"2013":10495,"Ġcomod":10496,"IDA":10497,"Ġidentidad":10498,"Ġfilla":10499,"Ġquedan":10500,"Ġlook":10501,"Ãºcar":10502,"ĠmatrÃŃcula":10503,"Ġdemanat":10504,"izÃ³":10505,"Ġinfraestructura":10506,"Ġcrida":10507,"eig":10508,"Ġpuerto":10509,"Ġimpossible":10510,"ĠPrat":10511,"Ġapertura":10512,"Ġaisl":10513,"Ġnegra":10514,"ady":10515,"anomen":10516,"Ġmap":10517,"ĠinnovaciÃ³":10518,"iÃ²":10519,"Ġamic":10520,"Ġcruz":10521,"Ġxifra":10522,"âĢĻ.":10523,"ĠfabricaciÃ³n":10524,"Ġrestaurant":10525,"gada":10526,"Ġquant":10527,"lÃŃn":10528,"Ġconstitucional":10529,"erar":10530,"Ġedific":10531,"Ġrun":10532,"Ġprestaciones":10533,"Ġestrec":10534,"ĠMÃ¡laga":10535,"vila":10536,"ĠMÃ¡s":10537,"Ġmalament":10538,"Ġpercen":10539,"Ġciencia":10540,"alf":10541,"Ġcarne":10542,"Ġcontexto":10543,"Ġconvertido":10544,"2004":10545,"ĠFun":10546,"Ġdial":10547,"Ġcalled":10548,"ĠlÃŃmit":10549,"Ġfeien":10550,"AgÃ¨ncia":10551,"Ġprestar":10552,"Ġarre":10553,"ĠGENER":10554,"ĠcaldrÃł":10555,"agar":10556,"Ġ1970":10557,"ĠAudi":10558,"tring":10559,"ficas":10560,"ĠlingÃ¼ÃŃstica":10561,"Ġeducatius":10562,"Ġconcreta":10563,"Ġdebate":10564,"Ġdirigido":10565,"ĠatrÃ¡s":10566,"Ġjuicio":10567,"Ġalquil":10568,"Ġdirigit":10569,"Ġlluitar":10570,"Ġmoto":10571,"wood":10572,"Pues":10573,"Ġdinar":10574,"Ġrespondre":10575,"Ġanticip":10576,"Ġnumber":10577,"extre":10578,"EB":10579,"Ġcapaces":10580,"Ġtake":10581,"Ġmovimientos":10582,"Ġsindical":10583,"Ġubicado":10584,"Ġinteg":10585,"Ġcategories":10586,"ibre":10587,"Ġapuesta":10588,"Gran":10589,"adalona":10590,"itada":10591,"Ġmodificaciones":10592,"itoria":10593,"ÃŃritu":10594,"Ġautoritats":10595,"Ġpreviamente":10596,"ĠTal":10597,"deixen":10598,"Ġaplicables":10599,"Ġnumerosas":10600,"ĠtrÃ¡m":10601,"Ġretirada":10602,"ĠmenÃº":10603,"Ġnovetats":10604,"ĠNorth":10605,"inst":10606,"Ġrepresentant":10607,"Ġdiscre":10608,"xo":10609,"dÃŃa":10610,"ĠUrban":10611,"izando":10612,"Ã³nico":10613,"ĠÃºnicament":10614,"Ġconstante":10615,"ĠMatarÃ³":10616,"ÃŃz":10617,"Ġpropietaris":10618,"82":10619,"Ġgaranteix":10620,"Ġhacerse":10621,"Ã³lica":10622,"Ma":10623,"Ġconducta":10624,"Ġcomenzar":10625,"Ġedat":10626,"Ġdeterminado":10627,"Ġsimb":10628,"Ġ1987":10629,"Ġsolicitudes":10630,"Ġvuelve":10631,"Ġvivo":10632,"Ġcelebrada":10633,"idera":10634,"Ġdetalls":10635,"ĠcolecciÃ³n":10636,"Ġdiscu":10637,"Ġhard":10638,"ustria":10639,"Ġestablecidas":10640,"POR":10641,"Cat":10642,"Ġposada":10643,"ĠcooperaciÃ³":10644,"Ġcompletament":10645,"Ġneteja":10646,"Ġforen":10647,"ĠXarxa":10648,"Ġleche":10649,"tinu":10650,"elva":10651,"Ġcircular":10652,"amin":10653,"onestir":10654,"Ġrevolucion":10655,"ĠZaragoza":10656,"Ġmarketing":10657,"ĠtrÃłnsit":10658,"Ġaplicacions":10659,"Ġlev":10660,"ĠclassificaciÃ³":10661,"Ġexcur":10662,"CON":10663,"Ġindependiente":10664,"Ġdespesa":10665,"Ġunitats":10666,"usias":10667,"Ġmera":10668,"Ġnasc":10669,"Ġconce":10670,"ĠeducaciÃ³":10671,"ĠcooperaciÃ³n":10672,"expressiÃ³":10673,"zi":10674,"ĠinscripciÃ³":10675,"Ġefectuar":10676,"orre":10677,"Ġenfer":10678,"Ġexamen":10679,"ĠvaloraciÃ³":10680,"ĠMetro":10681,"arma":10682,"Ġenfron":10683,"Ġleyes":10684,"Ġappe":10685,"ele":10686,"orro":10687,"ovas":10688,"83":10689,"ences":10690,"independent":10691,"Ġdispositivo":10692,"Ġparticipen":10693,"teu":10694,"SI":10695,"letes":10696,"Ġasociaciones":10697,"rendre":10698,"oportunitat":10699,"Ġsecond":10700,"Ġretirar":10701,"ĠcaracterÃŃstica":10702,"ĠIsabel":10703,"Ġgroup":10704,"ĠValls":10705,"ĠCooper":10706,"Ġpilota":10707,"aster":10708,"Ġvisible":10709,"ĠXXI":10710,"Ġsalva":10711,"ĠquilÃ²metres":10712,"Ġcomplet":10713,"Ġcement":10714,"Ġforman":10715,"Ġrepte":10716,"81":10717,"ĠÃī":10718,"tici":10719,"incorpor":10720,"ĠLuc":10721,"Ġingenier":10722,"ĠpeÃ§a":10723,"ĠcientÃŃficos":10724,"geta":10725,"ĠgrÃłfic":10726,"ĠÃºltimes":10727,"Ġproclam":10728,"ÃŃlia":10729,"ĠOf":10730,"prom":10731,"Ġali":10732,"alguns":10733,"ueba":10734,"Ġpartid":10735,"Ġnacionals":10736,"HA":10737,"lel":10738,"inclo":10739,"ilia":10740,"quilla":10741,"ĠindemnizaciÃ³n":10742,"ĠSchool":10743,"ocas":10744,"pordÃł":10745,"titzaciÃ³":10746,"Ġhistori":10747,"ĠinterpretaciÃ³n":10748,"Ġmestres":10749,"ulla":10750,"ĠelectrÃ³nica":10751,"0000":10752,"Ġconsiderado":10753,"'ve":10754,"istat":10755,"Ca":10756,"Ġsaid":10757,"irÃ¡n":10758,"ĠcÃłl":10759,"timas":10760,"ester":10761,"ĠTan":10762,"Ġtreballat":10763,"eixo":10764,"Ġindependencia":10765,"Ãºncia":10766,"Ġparro":10767,"Ġintegrada":10768,"ĠavanÃ§ar":10769,"Hos":10770,"ĠeconÃ³micas":10771,"Ġpropiedades":10772,"Ġcoal":10773,"Ġhidro":10774,"Ġsonido":10775,"ĠPuerto":10776,"fort":10777,"tory":10778,"ĠAnna":10779,"inario":10780,"Ġprogramari":10781,"Ġpasando":10782,"Ġefectivo":10783,"Ġ..":10784,"Ġinsul":10785,"Ġacred":10786,"ĠesforÃ§":10787,"Ġrigor":10788,"TC":10789,"ĠDigital":10790,"Ġvulgui":10791,"Ġviolencia":10792,"ĠgratuÃ¯ta":10793,"Ġcielo":10794,"ĠllevÃ³":10795,"ous":10796,"Ġusuari":10797,"ĠMurcia":10798,"Ġtornat":10799,"ĠautÃ¨n":10800,"quista":10801,"hael":10802,"rÃ¡s":10803,"Ġmigdia":10804,"Ġtriar":10805,"Ġconcentra":10806,"Ġlenguaje":10807,"Ġbenestar":10808,"ĠestÃ¡s":10809,"Ġexperiencias":10810,"Ġviajes":10811,"Ġcorrent":10812,"Ġdanys":10813,"puerto":10814,"ĠBlack":10815,"venida":10816,"ĠcapÃŃtulo":10817,"Ġstand":10818,"Assemblea":10819,"Ġeditorial":10820,"Ġmonitor":10821,"ĠTro":10822,"Ġregidors":10823,"ĠMov":10824,"oga":10825,"Ġcamins":10826,"LO":10827,"ĠPlataforma":10828,"jerÃŃa":10829,"Ãłg":10830,"Ġassegurat":10831,"Ġcongres":10832,"Ġgolpe":10833,"Ġdenuncia":10834,"efecte":10835,"Ġaconse":10836,"yan":10837,"ĠDeb":10838,"ĠpermÃ¨s":10839,"Ã²rics":10840,"Ġconseguido":10841,"ĠGil":10842,"Ġadher":10843,"Ġcomienzo":10844,"resp":10845,"Ġperform":10846,"Ġfantas":10847,"Ed":10848,"Ġdificultades":10849,"Ġfuncionar":10850,"ĠParque":10851,"Ġtreballador":10852,"Ġcadascuna":10853,"Ġopen":10854,"Ġuntil":10855,"ĠespectÃ¡":10856,"Ġconductor":10857,"right":10858,"Ġarchivo":10859,"Ġcommem":10860,"Ġtarea":10861,"ĠpreparaciÃ³n":10862,"Ver":10863,"ĠOlÃŃmp":10864,"Ġcabe":10865,"ĠautonÃ²m":10866,"Ġparticulares":10867,"cord":10868,"Ġbosc":10869,"usos":10870,"Ġpid":10871,"trop":10872,"ĠInvestigaciÃ³n":10873,"Ġreptes":10874,"Ġincrementar":10875,"Ġcertificat":10876,"ariat":10877,"ĠComerÃ§":10878,"Ġfour":10879,"ĠconnexiÃ³":10880,"ĠFerrer":10881,"Ġerrores":10882,"Ġvideoj":10883,"Ġocurre":10884,"Ġreiter":10885,"ĠTu":10886,"Ġcim":10887,"Actualmente":10888,"Ġjunta":10889,"Ġequiv":10890,"olina":10891,"Ġvariables":10892,"Ġlliurament":10893,"Ġ!":10894,"Ġcampe":10895,"Ġolvidar":10896,"Ġllevan":10897,"irar":10898,"ald":10899,"havien":10900,"izon":10901,"Ġmensajes":10902,"Ġcomprovar":10903,"esdeven":10904,"Ġuniform":10905,"ĠintenciÃ³n":10906,"Ġsuperiores":10907,"Ġvariable":10908,"Ġmarav":10909,"ĠtransmisiÃ³n":10910,"Ġtotalidad":10911,"Ġaparecen":10912,"ĠRio":10913,"magatzem":10914,"Ġexercir":10915,"Ġreivind":10916,"Ġtribunal":10917,"ĠcÃłrrecs":10918,"Ġcausar":10919,"ĠInformaciÃ³n":10920,"Ġexplor":10921,"ĠVilanova":10922,"Catal":10923,"Ġstill":10924,"Ġright":10925,"Ġguanyat":10926,"Ġporten":10927,"Ġformado":10928,"Ġsentencia":10929,"ĠLor":10930,"ĠCondi":10931,"?.":10932,"Ġjam":10933,"Ġculturales":10934,"Ġprivado":10935,"Ġgoverns":10936,"Ġdient":10937,"hop":10938,"Ġresist":10939,"Ġemprend":10940,"Ġlliga":10941,"DD":10942,"ĠAdemÃ¡s":10943,"fice":10944,"Ġpoesia":10945,"antas":10946,"Ġdesigual":10947,"ĠSp":10948,"ĠEns":10949,"ARIO":10950,"Ġmorts":10951,"ĠdifÃŃci":10952,"Ġfarem":10953,"ĠÃģlvar":10954,"Ġresiduos":10955,"ĠCAR":10956,"Ġrein":10957,"Ġmanifies":10958,"mentos":10959,"ÃŃsimo":10960,"tificaciÃ³n":10961,"Ġoriental":10962,"Ġpref":10963,"Ġvet":10964,"Ġsales":10965,"Ġbotiga":10966,"Ġprofunda":10967,"ĠseÃ±or":10968,"Ġinvoluc":10969,"Ġdesarrolla":10970,"ĠRich":10971,"Ġcampa":10972,"ulat":10973,"Ġprevistas":10974,"Ġduro":10975,"ied":10976,"ĠCiencias":10977,"Ge":10978,"Ġexpon":10979,"Ġvisitantes":10980,"Ġguia":10981,"uga":10982,"Ġubicada":10983,"ĠTeresa":10984,"Ġ1985":10985,"Ġtradicionales":10986,"undir":10987,"ĠDin":10988,"ĠSierra":10989,"ĠpeticiÃ³n":10990,"ument":10991,"Ġdeclaracions":10992,"Ġpiedra":10993,"Ġperfecta":10994,"Ġrecicl":10995,"Ġlunes":10996,"ĠRajoy":10997,"Ġasegurar":10998,"istres":10999,"Ġtancat":11000,"Ġcompara":11001,"Ġlegislatura":11002,"Ġportat":11003,"ĠLan":11004,"posa":11005,"import":11006,"Ġmexic":11007,"Ġadministratiu":11008,"ĠAtl":11009,"Ġsegurament":11010,"ĠConselleria":11011,"zando":11012,"Ġdiscapacidad":11013,"ĠÃ²p":11014,"Ġaposta":11015,"lÃŃcules":11016,"Ġpersonaje":11017,"Ġhead":11018,"Ġimpedir":11019,"Ġtutor":11020,"esforÃ§":11021,"ĠCala":11022,"ĠaÃ©":11023,"Ã¯s":11024,"ĠdÃ³nde":11025,"Ġquotidi":11026,"ebra":11027,"Ġcaminar":11028,"hone":11029,"Ġexperts":11030,"Ġbeneficio":11031,"ĠenvÃŃo":11032,"ying":11033,"Ġmasa":11034,"Ġpredic":11035,"ĠDar":11036,"Ġprocedentes":11037,"ĠOficina":11038,"Ġincent":11039,"cionat":11040,"Ġhorario":11041,"Ġincorpora":11042,"Ġoportunidades":11043,"Ġpedir":11044,"Ġtorneo":11045,"ĠvÃŃctima":11046,"Ġafirmar":11047,"ĠSO":11048,"Ġlimpieza":11049,"roid":11050,"Ġke":11051,"Ġescenario":11052,"essorament":11053,"obs":11054,"ĠcircumstÃłncies":11055,"Ġrebel":11056,"Ġcomprobar":11057,"onso":11058,"ĠprÃ³xima":11059,"Ġlema":11060,"Ġenlaces":11061,"ĠJurÃŃ":11062,"ĠCerv":11063,"Ġtest":11064,"Ġllevado":11065,"ĠVicente":11066,"ĠespaÃ±olas":11067,"Ġsubvenciones":11068,"Ġpaz":11069,"Ġformular":11070,"ĠDefensa":11071,"tegias":11072,"terapia":11073,"Ġnacimiento":11074,"Ã©ticos":11075,"Ġcierta":11076,"Ġpobres":11077,"tag":11078,"Apro":11079,"Ġparticulars":11080,"Ġsalari":11081,"Ġsupera":11082,"ĠVas":11083,"Ġesposa":11084,"ĠaÃ±adir":11085,"oca":11086,"Ġconvierte":11087,"Comp":11088,"Ġthose":11089,"Ġacudir":11090,"investigaciÃ³":11091,"Ġdul":11092,"Ġsimult":11093,"timos":11094,"eÃ±a":11095,"dura":11096,"Ġconfes":11097,"ogrÃłfica":11098,"ĠExtre":11099,"Ġprivilegi":11100,"Ġpositiu":11101,"ĠCL":11102,"ĠVilafranca":11103,"trÃ³":11104,"ĠprestaciÃ³":11105,"Ġpies":11106,"zadas":11107,"Dic":11108,"ĠComm":11109,"ĠActual":11110,"ĠSouth":11111,"doba":11112,"Ġdubtes":11113,"Ġcops":11114,"Ġconfirmar":11115,"Ġutilizados":11116,"Ġvalencians":11117,"Ġhermano":11118,"Ġtants":11119,"licituds":11120,"Ġaliments":11121,"Ġmain":11122,"Ġpolici":11123,"Ġtiendas":11124,"volta":11125,"tativa":11126,"Ã¨u":11127,"Ġfamily":11128,"Ġmortal":11129,"ander":11130,"ÃŃss":11131,"ĠIndepend":11132,"rÃłs":11133,"Ã¯ll":11134,"Ġcompuesto":11135,"Ġfinanciera":11136,"ĠbÃłsics":11137,"postes":11138,"ĠespecÃŃficas":11139,"ĠSindic":11140,"ĠRamÃ³n":11141,"Ġprovid":11142,"Ġdip":11143,"Ġhon":11144,"Ġperc":11145,"anten":11146,"ornia":11147,"eck":11148,"icul":11149,"ĠtraducciÃ³":11150,"Ġdeuda":11151,"entals":11152,"Ġsupuestos":11153,"Ġdescanso":11154,"Ġclo":11155,"Ġausencia":11156,"Ġexistir":11157,"Ġpanorama":11158,"Ġbiblio":11159,"bat":11160,"amo":11161,"Ġaval":11162,"RAN":11163,"aya":11164,"ĠAires":11165,"Ġgreus":11166,"Ġteatro":11167,"antÃŃas":11168,"ajas":11169,"ĠcÃ¨l":11170,"quets":11171,"Ġtindre":11172,"ĠBadalona":11173,"Ġnegativa":11174,"Ġanunciar":11175,"Ġvins":11176,"Ġrecibe":11177,"AF":11178,"Ġ49":11179,"Abans":11180,"ĠcrÃ©ixer":11181,"Ġcreixent":11182,"ĠHor":11183,"Ġpintor":11184,"Ġfemenina":11185,"Ġdeterminadas":11186,"Ġfemin":11187,"Ġobliga":11188,"Ãłpia":11189,"Ġ47":11190,"escenari":11191,"Ġesencial":11192,"ĠJames":11193,"Ġcelebrat":11194,"Ġpont":11195,"Ġbaixar":11196,"Ġasegura":11197,"haus":11198,"Ġsirve":11199,"ĠTierra":11200,"amen":11201,"Ġcerebro":11202,"Ġresidencia":11203,"aprovaciÃ³":11204,"tricos":11205,"Ã¡is":11206,"ĠRepublic":11207,"olla":11208,"Ġacompanyat":11209,"ĠpeticiÃ³":11210,"istit":11211,"deu":11212,"VD":11213,"ĠFerran":11214,"tructuras":11215,"Ġmezcla":11216,"Ġsolidaritat":11217,"Ã¨cnica":11218,"omer":11219,"quera":11220,"Â®":11221,"espons":11222,"obertura":11223,"Ġvarietat":11224,"Ġpeligro":11225,"ĠPromo":11226,"Ġmercanc":11227,"Ġaspecte":11228,"ĠRuiz":11229,"%),":11230,"fers":11231,"Ġbasado":11232,"ĠShe":11233,"Ġconceptes":11234,"Potser":11235,"Ġdivulg":11236,"ird":11237,"Ã±ez":11238,"ĠidentificaciÃ³n":11239,"Ġdesea":11240,"ĠcÃłm":11241,"ĠAlemanya":11242,"Ġracional":11243,"ĠRoy":11244,"ĠIP":11245,"ERA":11246,"ague":11247,"ĠConsorci":11248,"Ġigualdad":11249,"Ġgeneralmente":11250,"ĠCugat":11251,"anterior":11252,"ĠespecÃŃficos":11253,"SÃ³lo":11254,"SC":11255,"urn":11256,"isteix":11257,"ĠLic":11258,"Ġadvers":11259,"Ġtriom":11260,"Ġconfec":11261,"Ġbreu":11262,"ĠpermitirÃ¡":11263,"Ġsencilla":11264,"sibilitat":11265,"Ġearly":11266,"Ġreunions":11267,"END":11268,"Ll":11269,"Ġretras":11270,"Ġdefici":11271,"Ġbelleza":11272,"Ġinterpretar":11273,"Ġmandat":11274,"Ġdegut":11275,"Ġtaxa":11276,"Ġintern":11277,"ĠautonÃ³m":11278,"Ġdesenvolupat":11279,"allo":11280,"orio":11281,"Ġjunts":11282,"atoris":11283,"ĠAsamblea":11284,"Ġincumpl":11285,"Ġreconegut":11286,"Ġarriben":11287,"Ġvalenciana":11288,"uten":11289,"ways":11290,"ĠGerm":11291,"Ġabsol":11292,"atch":11293,"Ġlogo":11294,"Ġinfin":11295,"Ġrat":11296,"ĠfaÃ§ana":11297,"rils":11298,"Ġvisitas":11299,"engua":11300,"Ġteoria":11301,"Ġconservar":11302,"Ġplana":11303,"Aten":11304,"EF":11305,"Ãºp":11306,"Ġvoluntad":11307,"Ġpensament":11308,"Ġinflam":11309,"Ġforn":11310,"Ġretra":11311,"ĠPle":11312,"Ġcitado":11313,"ĠEuropeu":11314,"ĠFiscal":11315,"ĠopiniÃ³":11316,"Ġcuadro":11317,"Ġgratis":11318,"ĠThom":11319,"Ġ52":11320,"Ġcontempla":11321,"ĠmÃ¡quinas":11322,"Ġmares":11323,"ube":11324,"Ġarmas":11325,"rÃłnia":11326,"ĠdetrÃ¡s":11327,"Ġcopia":11328,"http":11329,"ĠMass":11330,"ĠDoncs":11331,"Ġpleno":11332,"Ġregistrar":11333,"cient":11334,"Ġcorriente":11335,"aquell":11336,"ginyeria":11337,"ĠWest":11338,"grad":11339,"Ġvendre":11340,"300":11341,"envolupament":11342,"istemas":11343,"Ġfla":11344,"uce":11345,"ĠÃłmplia":11346,"Ġcum":11347,"ĠrestauraciÃ³":11348,"ĠIngenier":11349,"ĠIndia":11350,"Ġveuen":11351,"ĠLiga":11352,"Ġreglas":11353,"Ġchild":11354,"oman":11355,"ayos":11356,"ĠrÃ¡pidamente":11357,"Ġazul":11358,"ĠprogramaciÃ³n":11359,"ĠRÃłdio":11360,"riu":11361,"Ġcontradic":11362,"rÃ³n":11363,"ferÃ¨ncia":11364,"adia":11365,"ĠaigÃ¼es":11366,"Ġsolucionar":11367,"Ġmister":11368,"erres":11369,"ĠconferÃ¨ncia":11370,"hivern":11371,"etar":11372,"taba":11373,"Ãłrem":11374,"ĠCarmen":11375,"800":11376,"ĠconvivÃ¨ncia":11377,"Ġpaga":11378,"alth":11379,"execuciÃ³":11380,"ĠDiego":11381,"chas":11382,"ĠAlgun":11383,"Ġconsumidores":11384,"Ġsuspend":11385,"Ġnecessiten":11386,"Ġhumor":11387,"otjament":11388,"ĠDen":11389,"Ġsegundos":11390,"Ġseleccionar":11391,"Ġignor":11392,"Cam":11393,"ENCIA":11394,"alÃ§ada":11395,"Ġcree":11396,"Ġinteresados":11397,"Ġreempla":11398,"fre":11399,"yl":11400,"questra":11401,"Ġdram":11402,"esiÃ³n":11403,"Ġderivados":11404,"Ġexistents":11405,"Ġ85":11406,"ĠrealizarÃ¡":11407,"Ġcamin":11408,"Ġfundador":11409,"Ġbreve":11410,"Ġentrenador":11411,"Ġfechas":11412,"ĠdesempeÃ±":11413,"opin":11414,"ĠvÃŃas":11415,"Ġtierras":11416,"Ġconverteix":11417,"Ġnovela":11418,"ĠlÃŃmits":11419,"Ġabierta":11420,"Ġfinalitzar":11421,"Ġmuseu":11422,"ĠlÃ³g":11423,"Han":11424,"Ġabre":11425,"ĠtradiciÃ³n":11426,"Ġ800":11427,"ĠRei":11428,"ciente":11429,"ĠdesplaÃ§":11430,"ĠCic":11431,"Als":11432,"Ġprofundi":11433,"ÃŃsica":11434,"ĠAstu":11435,"Ġgim":11436,"Ġencan":11437,"Ġ1984":11438,"Ġterritoris":11439,"ĠÃłmbit":11440,"ĠcomisiÃ³n":11441,"ĠdifusiÃ³n":11442,"Ġataque":11443,"olÃŃ":11444,"Ġbarcelon":11445,"ĠenllaÃ§os":11446,"Ġcontribuy":11447,"onna":11448,"ĠGestiÃ³n":11449,"Ġhousehold":11450,"Ġbord":11451,"Ġreales":11452,"ĠextensiÃ³n":11453,"Ay":11454,"vies":11455,"Ġaway":11456,"Ġcentra":11457,"Estatut":11458,"heim":11459,"Ġansi":11460,"ĠCanarias":11461,"ICION":11462,"arcar":11463,"?,":11464,"dieron":11465,"ĠnÃºcle":11466,"Ġtriun":11467,"Ġelevada":11468,"ĠFormaciÃ³n":11469,"ĠGeorge":11470,"ĠagrÃŃcola":11471,"Ġactri":11472,"ĠadaptaciÃ³n":11473,"ĠHaci":11474,"ĠseÃ±ala":11475,"Ġang":11476,"ĠConstituciÃ³":11477,"ĠCampeonato":11478,"ĠmÃ³viles":11479,"ĠLi":11480,"ĠprÃ³ximos":11481,"amed":11482,"Ġdocent":11483,"Ġinvent":11484,"Ġ95":11485,"ĠFe":11486,"Ġema":11487,"ĠIndi":11488,"ICO":11489,"Ġhicieron":11490,"1998":11491,"Ġhojas":11492,"elos":11493,"ualitat":11494,"Ġagainst":11495,"Ġconstar":11496,"Ġcaps":11497,"Ġstr":11498,"ĠllicÃ¨ncia":11499,"Espa":11500,"ĠFoment":11501,"Desc":11502,"Sant":11503,"Ġtrobareu":11504,"endemÃł":11505,"Ġestablert":11506,"Grup":11507,"Ã¡nea":11508,"Ġtendencia":11509,"ugu":11510,"ĠCAS":11511,"Ġcro":11512,"aste":11513,"!!!!":11514,"ĠInfantil":11515,"ĠbÃ¡sicos":11516,"hauria":11517,"Ġdeseo":11518,"Ġverte":11519,"erdo":11520,"Ġfiestas":11521,"ĠbÃ©ns":11522,"landa":11523,"Ġmeteor":11524,"ĠMare":11525,"Doncs":11526,"ĠquedÃ³":11527,"Ġsobres":11528,"ĠApple":11529,"Ġmestre":11530,"ĠMundo":11531,"Ġdelim":11532,"Ġcolon":11533,"Ġpuls":11534,"Ġprotagonistes":11535,"ĠtendÃ¨ncia":11536,"ĠInnov":11537,"Ġsiguiendo":11538,"vista":11539,"tadura":11540,"Ġfira":11541,"Ġjusto":11542,"Ġproductor":11543,"Ġperdido":11544,"ĠÃ©stos":11545,"Ġprotegir":11546,"aden":11547,"Ġprima":11548,"erage":11549,"Ãºr":11550,"antiga":11551,"Ġmissatges":11552,"Ġfederal":11553,"Ġlanzamiento":11554,"ARA":11555,"ĠXVII":11556,"ĠadquisiciÃ³n":11557,"Ġ1960":11558,"leta":11559,"ĠprÃ¡cticamente":11560,"Hola":11561,"edic":11562,"Ġconsol":11563,"Ġdiri":11564,"ĠPujol":11565,"Ġtoler":11566,"Ġapla":11567,"Ġcreure":11568,"Ġdespleg":11569,"Ġpeor":11570,"ĠVin":11571,"Ġvulguin":11572,"Ġexpresa":11573,"Ġceb":11574,"piraciÃ³n":11575,"Ġadultos":11576,"erador":11577,"Ġdeute":11578,"Ġcama":11579,"itants":11580,"ĠenllaÃ§":11581,"Ġprobablement":11582,"ĠUsuario":11583,"Ġropa":11584,"tano":11585,"Ġconsiderada":11586,"Ġconsejos":11587,"Algunos":11588,"San":11589,"ĠoposiciÃ³n":11590,"Ġimposible":11591,"discipl":11592,"Ġperfectament":11593,"cau":11594,"Ã©nez":11595,"Ġdenunciar":11596,"ĠMenorca":11597,"CL":11598,"Ġsociedades":11599,"ĠCro":11600,"ĠestratÃ©g":11601,"evi":11602,"madura":11603,"Ġciutadana":11604,"Ġsustancias":11605,"echos":11606,"tanyes":11607,"ĠDurant":11608,"Ġveiem":11609,"Ġterm":11610,"Ġkg":11611,"ĠtÃŃtols":11612,"Ġxoc":11613,"ĠOrgÃ¡nica":11614,"Ã³rdoba":11615,"ĠHam":11616,"Ġrellev":11617,"mart":11618,"Ġdisciplina":11619,"Ġmedalla":11620,"Ġrequereix":11621,"Ġejercicios":11622,"Ġestiu":11623,"omÃ©":11624,"ĠCR":11625,"Ġcotxes":11626,"Ġnecesitan":11627,"vira":11628,"rÃ¨s":11629,"Ġtabl":11630,"tables":11631,"ventud":11632,"Ġcristal":11633,"tn":11634,"ĠdiferÃ¨ncies":11635,"Ġstate":11636,"Ġlegi":11637,"ĠAngel":11638,"itado":11639,"ĠcontractaciÃ³":11640,"ĠSI":11641,"rÃŃcul":11642,"Ġlimitar":11643,"Ġanalizar":11644,"ĠcuÃ¡n":11645,"Ġespectacle":11646,"Ġtransvers":11647,"Ġrut":11648,"Ġdiplom":11649,"Ġexemples":11650,"oest":11651,"ĠDic":11652,"Anton":11653,"ĠToni":11654,"Ġconsistori":11655,"ĠMedia":11656,"Ġentrades":11657,"Ġconsiderat":11658,"Ġdiputats":11659,"Ġpodrem":11660,"Ġrum":11661,"Ġpeus":11662,"ĠSanto":11663,"ESO":11664,"Ġlead":11665,"Ġutilitzat":11666,"ĠGrau":11667,"Ġrelativo":11668,"ulari":11669,"Ġeuropeo":11670,"Ġsacerdo":11671,"Ġcompu":11672,"Ġsituar":11673,"Ġconflictes":11674,"Ġassass":11675,"ĠSeny":11676,"Ġsesiones":11677,"ĠMarch":11678,"ĠtramitaciÃ³n":11679,"2001":11680,"quÃŃa":11681,"ilio":11682,"ĠhacÃŃa":11683,"tillas":11684,"Ġoblid":11685,"Ġmatar":11686,"ĠdefiniciÃ³n":11687,"Ġculmin":11688,"marca":11689,"Ġventaja":11690,"Ġabajo":11691,"ĠEconomÃŃa":11692,"Ġfunda":11693,"ĠfÃŃsic":11694,"ĠEnrique":11695,"Ġreciente":11696,"ÃŃna":11697,"Ġeuropeos":11698,"Ġproximitat":11699,"Ġmando":11700,"Ġnovedades":11701,"Ġexplos":11702,"hotel":11703,"Ġestrellas":11704,"ĠsensaciÃ³n":11705,"ĠgermÃł":11706,"Ġafectats":11707,"Ġbaby":11708,"ĠCristo":11709,"ĠEnti":11710,"Ġrenda":11711,"Ġmunicipios":11712,"emen":11713,"Totes":11714,"Ġanuales":11715,"Ġgols":11716,"oss":11717,"Ã¯n":11718,"ĠlÃº":11719,"ĠcomposiciÃ³n":11720,"Ġliving":11721,"ulars":11722,"ienes":11723,"Ġagain":11724,"Sol":11725,"racia":11726,"Ġ51":11727,"ĠJack":11728,"ĠZap":11729,"GA":11730,"Ġmass":11731,"ining":11732,"entales":11733,"ĠImper":11734,"Ġaparecer":11735,"ciales":11736,"Ġpersegu":11737,"ridge":11738,"Ġobjectes":11739,"Ġandal":11740,"Ġcompleix":11741,"xiller":11742,"Ġinvestigador":11743,"Ġgam":11744,"ĠespecÃŃfico":11745,"Ġafecten":11746,"ĠcÃłncer":11747,"ĠEE":11748,"Ġidentifica":11749,"Ġrespira":11750,"Ġtron":11751,"Ġpermita":11752,"ĠCanad":11753,"Ġaproximadament":11754,"hal":11755,"Ġrar":11756,"Ġhalla":11757,"AMENT":11758,"Ġcompetir":11759,"emÃ¡tica":11760,"Ġvalora":11761,"oblig":11762,"GE":11763,"yectoria":11764,"ossa":11765,"ĠJulio":11766,"Ġlateral":11767,"Ã¯m":11768,"Ġdecideix":11769,"Ġhol":11770,"Ġbuscando":11771,"Ġsals":11772,"ĠJustÃŃcia":11773,"Ġdeixant":11774,"ĠArts":11775,"Ġmezcl":11776,"ĠEduca":11777,"Som":11778,"ateral":11779,"ĠStar":11780,"Ġcubrir":11781,"ĠWas":11782,"Ġarr":11783,"ĠSag":11784,"Ġcaball":11785,"Ġmusicals":11786,"itÃ³":11787,"Ġrestos":11788,"Ġelectri":11789,"Ġ>":11790,"ĠmÃ¨tode":11791,"Ġmercats":11792,"Ġenfoc":11793,"Ġentreg":11794,"ĠClar":11795,"Ġprecisa":11796,"Ġneur":11797,"Ġwar":11798,"Ġcercan":11799,"Ġreten":11800,"ĠfenÃ³m":11801,"ĠFr":11802,"Otra":11803,"ĠGalicia":11804,"Ġmargen":11805,"Ãłtiques":11806,"VI":11807,"ĠcrÃ¨dits":11808,"igrants":11809,"lege":11810,"ĠresistÃ¨ncia":11811,"Ġcierre":11812,"Ġgood":11813,"ĠinstituciÃ³n":11814,"Ġoficinas":11815,"ĠespÃ¨cie":11816,"Ġcoron":11817,"Pas":11818,"Ġpudiera":11819,"echn":11820,"ĠgratuÃ¯t":11821,"tocol":11822,"Ġapareixen":11823,"ĠAlberto":11824,"Ġcomunicat":11825,"tificaciÃ³":11826,"Ġsignat":11827,"Ġdisponer":11828,"ĠesforÃ§os":11829,"Ġnon":11830,"ĠCurs":11831,"Ġcomportament":11832,"Ġindisp":11833,"Ġaudiovisual":11834,"maz":11835,"Ġacceptar":11836,"Ġnuclear":11837,"ĠbaÃ±o":11838,"Ġingreso":11839,"ope":11840,"Ġale":11841,"Ġcinemat":11842,"Ã²graf":11843,"enllaÃ§":11844,"ĠproduÃ¯t":11845,"Ġutilitzant":11846,"win":11847,"ĠEstatuto":11848,"Ġbarro":11849,"ĠestarÃ¡n":11850,"yd":11851,"Ġcomunicacions":11852,"ĠArtes":11853,"Ġcohes":11854,"Ġmenj":11855,"Ġactiu":11856,"culares":11857,"Ġpocas":11858,"estal":11859,"Ġresponder":11860,"IENTO":11861,"Ġvuelo":11862,"ĠSha":11863,"Ġaltas":11864,"ĠReglament":11865,"Ġnueve":11866,"Ġcompromisos":11867,"Ġinmediatamente":11868,"Ġpercentatge":11869,"Ġregla":11870,"ful":11871,"Ġestrategias":11872,"usk":11873,"Ġimpon":11874,"ĠBay":11875,"Ġsexo":11876,"ĠEj":11877,"Ã¡stico":11878,"ĠCI":11879,"entren":11880,"Ġesdevin":11881,"Ġrendiment":11882,"Ġllat":11883,"ĠRip":11884,"onable":11885,"ĠSosten":11886,"400":11887,"ĠquÃŃmica":11888,"Ġsaludable":11889,"Ġrecientemente":11890,"Ġdecreto":11891,"Ġespecifica":11892,"âĨ":11893,"Ġcuota":11894,"Ġcifra":11895,"riqu":11896,"riure":11897,"baix":11898,"Ġesportiva":11899,"Ġapuestas":11900,"ĠcompeticiÃ³n":11901,"taron":11902,"CN":11903,"atÃ³":11904,"ĠrÃłpidament":11905,"Ġmatrimonio":11906,"Ġcuentan":11907,"Ġreuniones":11908,"tits":11909,"ĠComercio":11910,"ĠbÃł":11911,"Ġarx":11912,"Ġfinancieros":11913,"Ġsancion":11914,"Ġlegals":11915,"ission":11916,"ĠSegons":11917,"ĠColomb":11918,"Ġguardar":11919,"ĠBritish":11920,"Ġmoneda":11921,"ĠConcurs":11922,"obal":11923,"tiga":11924,"Util":11925,"ĠcientÃŃfico":11926,"For":11927,"Ã¯na":11928,"Ġaixec":11929,"ĠHacienda":11930,"Ġabog":11931,"Ġinvestigadors":11932,"now":11933,"Ġlenta":11934,"ĠCreu":11935,"itges":11936,"Ġrepresentante":11937,"ĠGrÃłcia":11938,"Ġliberal":11939,"ĠHuman":11940,"Ġorganitzada":11941,"Ġferm":11942,"Ġgovernment":11943,"Ġincloent":11944,"ĠKar":11945,"ĠdejÃ³":11946,"ĠInternational":11947,"Ġrepresent":11948,"Ġapartados":11949,"ĠazÃºcar":11950,"bon":11951,"ĠREG":11952,"Ġmuri":11953,"Ġalber":11954,"Ġplace":11955,"Ġplantejar":11956,"ĠXina":11957,"Ġofereixen":11958,"Ġexcepte":11959,"ĠFal":11960,"ĠSent":11961,"ĠcoordinaciÃ³n":11962,"rmac":11963,"nova":11964,"Ġdiaris":11965,"Ġespero":11966,"Ġhubo":11967,"ĠresidÃ¨ncia":11968,"Ġcontund":11969,"tigi":11970,"Ã¡ticamente":11971,"ĠTres":11972,"Ġatender":11973,"ĠproveÃ¯":11974,"Ġjurat":11975,"ĠCad":11976,"Ġconfidencial":11977,"Ġutilitza":11978,"Todas":11979,"ĠSolid":11980,"visiÃ³n":11981,"Ġlocalitat":11982,"Ġ1982":11983,"ĠcÃłrrega":11984,"espectacle":11985,"Ġproteger":11986,"ĠValle":11987,"Ġoportunitats":11988,"ĠmisiÃ³n":11989,"Ġescapar":11990,"uix":11991,"Ġrecentment":11992,"ĠOli":11993,"ĠEconÃ³m":11994,"ĠhabrÃŃa":11995,"Ġferrovi":11996,"Ġessent":11997,"Ġaventura":11998,"Ġcau":11999,"ĠcombinaciÃ³n":12000,"rimiento":12001,"opciÃ³":12002,"ĠPerÃº":12003,"Ġcongel":12004,"Ġcombustible":12005,"-.":12006,"Ġtargeta":12007,"ĠBuenos":12008,"Ġrecap":12009,"ived":12010,"Ġpecul":12011,"Ġdoctr":12012,"Ġdansa":12013,"wards":12014,"ĠYo":12015,"Ġintensa":12016,"Ġcontractes":12017,"Ġactors":12018,"Ġ1983":12019,"Ġdejado":12020,"jera":12021,"Ġprecisamente":12022,"ondre":12023,"ĠCated":12024,"ĠDra":12025,"Ġespiritual":12026,"Ġtancament":12027,"ĠConsul":12028,"ĠLou":12029,"Ġversiones":12030,"ĠFigueres":12031,"EMAIL":12032,"ĠCalifornia":12033,"Ġhermanos":12034,"incre":12035,"ucha":12036,"Ġsale":12037,"mana":12038,"Ġingressos":12039,"bis":12040,"Ġlamenta":12041,"Ġretallades":12042,"Ġpuso":12043,"ĠBre":12044,"Ġposen":12045,"Ġriscos":12046,"assign":12047,"ĠGENERAL":12048,"Ġdates":12049,"ĠFeb":12050,"Ġpromover":12051,"ĠPhil":12052,"ĠTots":12053,"ĠControl":12054,"ĠQuin":12055,"hospital":12056,"Ġrealizados":12057,"ĠDIS":12058,"ĠrÃłdio":12059,"Ġcontactar":12060,"Ġhow":12061,"Ġdepende":12062,"Ġgermans":12063,"ĠalemÃ¡n":12064,"Ġdisput":12065,"ĠNet":12066,"Ġllet":12067,"ĠprÃ¨viament":12068,"gans":12069,"ecerca":12070,"ĠdecidiÃ³":12071,"Ġantics":12072,"Trans":12073,"Ġcomplejo":12074,"Ġentend":12075,"Ġ2021":12076,"Otro":12077,"Ġfaig":12078,"Ġclubs":12079,"ĠaceptaciÃ³n":12080,"ecimiento":12081,"ÃŃmica":12082,"Ġpales":12083,"Ġpasseig":12084,"ĠinclÃ²s":12085,"Ġexpedi":12086,"Ġusa":12087,"Ġpropon":12088,"Ġrecogida":12089,"Ġmostren":12090,"ĠLO":12091,"wh":12092,"ĠcontinuÃ¯tat":12093,"Ġcartas":12094,"banisme":12095,"ĠautÃ©n":12096,"ificada":12097,"cing":12098,"ĠJean":12099,"ĠcelebrarÃł":12100,"ĠConstitucional":12101,"Ġpower":12102,"ĠDocum":12103,"Ġ1978":12104,"Ġentregar":12105,"vesti":12106,"Ġcrema":12107,"Ġpodien":12108,"ardi":12109,"ĠTurismo":12110,"quÃ©s":12111,"Ġencontrado":12112,"Ġprocur":12113,"ĠVirgen":12114,"ĠWilliam":12115,"ĠsubvenciÃ³":12116,"Ġganado":12117,"EstÃł":12118,"ĠCarme":12119,"Ġparecer":12120,"ĠAlonso":12121,"Ġtrabaja":12122,"ĠciutadÃł":12123,"Ġnight":12124,"Ġsiento":12125,"Ġciertos":12126,"ribuye":12127,"ĠJapÃ³n":12128,"tein":12129,"Ġbran":12130,"Tiene":12131,"Ġderiva":12132,"Ġestablecen":12133,"Ġsag":12134,"ĠteorÃŃa":12135,"Ġnear":12136,"elecciÃ³":12137,"Ġaparc":12138,"âĢĺ":12139,"ĠTes":12140,"Ġsocialistes":12141,"ĠperiÃ²":12142,"quial":12143,"tuals":12144,"Ġhomolog":12145,"Ġpobresa":12146,"ĠAutor":12147,"Ġartificial":12148,"Ġtercero":12149,"Hor":12150,"Ġprepara":12151,"Ġprome":12152,"Ġseveral":12153,"ĠPRE":12154,"Ġpreparat":12155,"Ġarts":12156,"hington":12157,"Ġrur":12158,"Ġcanta":12159,"Ġapl":12160,"ÃŃssima":12161,"allas":12162,"reras":12163,"explo":12164,"demont":12165,"ĠrevisiÃ³":12166,"ĠPatron":12167,"ĠbÃ¡sica":12168,"Ġexigir":12169,"tistas":12170,"ĠconsideraciÃ³n":12171,"Ġfinanciero":12172,"Ġexercici":12173,"ĠrÃłpida":12174,"Ġespanyoles":12175,"independentisme":12176,"ĠFrank":12177,"Ġinmun":12178,"ĠcoordinaciÃ³":12179,"Ġregidora":12180,"Ġencap":12181,"Ġ54":12182,"2015":12183,"ÃŃctor":12184,"ĠdarÃ¡":12185,"ĠSom":12186,"Ġfigures":12187,"grÃ¡":12188,"part":12189,"EP":12190,"ĠÎ":12191,"Ġ1979":12192,"Ġnoies":12193,"Ġquel":12194,"Ġorgul":12195,"ĠCAT":12196,"Ġsortit":12197,"Ġconclo":12198,"Ġasociados":12199,"actes":12200,"ĠganÃ³":12201,"Ġregiones":12202,"Ġmodalidad":12203,"Ġescuchar":12204,"Ġintelectual":12205,"quines":12206,"Ġproducen":12207,"Ġmultim":12208,"Ġobtenido":12209,"ĠCasal":12210,"Ġsemblant":12211,"Ġinstrucciones":12212,"Ġapre":12213,"ged":12214,"ĠinterpretaciÃ³":12215,"ĠcaÃŃda":12216,"Eso":12217,"Ġprobablemente":12218,"Ġadministraciones":12219,"Antes":12220,"mentada":12221,"Respec":12222,"Ġpermiso":12223,"udar":12224,"off":12225,"Ġinversiones":12226,"Ġexclusivament":12227,"ĠPolicia":12228,"tÃ©s":12229,"Inf":12230,"Ã¨tics":12231,"Ġestona":12232,"Ġdesapare":12233,"ĠMayor":12234,"Ġintu":12235,"Ġeficiencia":12236,"ĠSanidad":12237,"Ġpressupostos":12238,"tidas":12239,"ĠMonte":12240,"Ġdedicado":12241,"Ġpodreu":12242,"Ġdescubrir":12243,"Ġdeterminats":12244,"Ġexpresamente":12245,"ng":12246,"Ġsabemos":12247,"Ġenfo":12248,"Ġelectro":12249,"Ġcitada":12250,"roc":12251,"Ġpulm":12252,"Ġasunto":12253,"Ġviva":12254,"Ġbasat":12255,"Ġvocal":12256,"Ġprotesta":12257,"key":12258,"urch":12259,"cionamiento":12260,"Ġfis":12261,"Ġdicen":12262,"ĠWal":12263,"Ġrib":12264,"Ġjueves":12265,"Ġdescend":12266,"ĠCampionat":12267,"artista":12268,"Ã¡nicos":12269,"ĠOpen":12270,"Ġsanitario":12271,"tone":12272,"Go":12273,"Ġstud":12274,"orat":12275,"Ġvib":12276,"jecu":12277,"ĠrecepciÃ³n":12278,"Ġinstrumento":12279,"ĠexcepciÃ³n":12280,"espany":12281,"ĠRadio":12282,"ĠsÃŃmbol":12283,"Ġafili":12284,"Ġdemostrat":12285,"Ġpiano":12286,"ĠWil":12287,"Ġjustificar":12288,"ĠMA":12289,"expl":12290,"Ġfundamentales":12291,"uo":12292,"augment":12293,"Ġconvertirse":12294,"xillerat":12295,"Ġcron":12296,"Ġpelo":12297,"ĠCristina":12298,"Ġcable":12299,"Ġplus":12300,"eva":12301,"ĠMÃ©s":12302,"Ġposant":12303,"ĠIndustrial":12304,"ĠOrganizaciÃ³n":12305,"ĠFeliu":12306,"ding":12307,"Ġfamosa":12308,"antos":12309,"Ġmodificada":12310,"Ġdarreres":12311,"Ġnombroses":12312,"Ġsuscep":12313,"\";":12314,"Est":12315,"Ġejercer":12316,"Ġvender":12317,"Ġanalitzar":12318,"Ġperjudici":12319,"Ġdemostrado":12320,"Ġnormalmente":12321,"ĠTorn":12322,"Ġnombrosos":12323,"ĠintegraciÃ³":12324,"Ġteixit":12325,"ĠconcessiÃ³":12326,"Ġmecanismes":12327,"Ġromana":12328,"ĠWe":12329,"Ġreina":12330,"ians":12331,"Ġvertical":12332,"ĠMul":12333,"ĠcrÃ¨dit":12334,"ĠconcentraciÃ³n":12335,"rios":12336,"iales":12337,"ĠBis":12338,"lash":12339,"ĠPac":12340,"ĠFuer":12341,"ivel":12342,"Ġoeste":12343,"Ġuniversidad":12344,"Ġreligiosa":12345,"cript":12346,"uca":12347,"Ġcumple":12348,"Ġtabla":12349,"determin":12350,"Ġsanitaria":12351,"Ġgusto":12352,"pus":12353,"ensable":12354,"ONA":12355,"rata":12356,"Ġemail":12357,"ĠimplantaciÃ³n":12358,"Ġjustifica":12359,"aps":12360,"ĠguÃŃa":12361,"apl":12362,"Ġdenomina":12363,"Ġrespostes":12364,"Ġconsells":12365,"Ġrecomp":12366,"Ġgris":12367,"Ġwit":12368,"ĠDÃŃaz":12369,"Ġportada":12370,"Ġmarcat":12371,"ĠTrib":12372,"HistÃ²ria":12373,"abe":12374,"ĠfÃ¡rmac":12375,"Ġaconte":12376,"ĠcuantÃŃa":12377,"Li":12378,"FA":12379,"Ġinvierno":12380,"eroport":12381,"Primer":12382,"Ġ\"\"":12383,"%).":12384,"Davant":12385,"Ġterminar":12386,"Ġvell":12387,"Ġresuel":12388,"Tanmateix":12389,"Ġprivades":12390,"Ã²f":12391,"Ġsiglos":12392,"ĠSw":12393,"Ġadults":12394,"ĠCÃ³rdoba":12395,"ĠAsturias":12396,"teques":12397,"Ġenergia":12398,"Ġcanviat":12399,"ociÃ³":12400,"gem":12401,"Ġinterf":12402,"Hace":12403,"Ġalcaldes":12404,"Ġosc":12405,"Ġmuestran":12406,"600":12407,"Ġaportacions":12408,"enfron":12409,"phy":12410,"xar":12411,"ĠmÃ¡quina":12412,"Ġexcepto":12413,"lectiva":12414,"Ġreals":12415,"Ġreto":12416,"Ġgiron":12417,"ĠDoctor":12418,"Ġ99":12419,"ĠResoluciÃ³n":12420,"Ġtrencar":12421,"ĠComo":12422,"press":12423,"Ã²stic":12424,"Ġdiscos":12425,"Ur":12426,"ĠTelev":12427,"ĠResid":12428,"Ġlegitim":12429,"ville":12430,"adreÃ§a":12431,"Ġinstruments":12432,"Ġsince":12433,"Ġ62":12434,"Ġllegit":12435,"Ġpacient":12436,"Ġmecanismos":12437,"tesi":12438,"ĠGenerales":12439,"cy":12440,"mbres":12441,"Ġdificultat":12442,"incl":12443,"Ġty":12444,"ĠCampus":12445,"Ta":12446,"ĠcontÃŃn":12447,"ĠMAR":12448,"Ġrapid":12449,"Ġcentury":12450,"arda":12451,"ollers":12452,"Alguns":12453,"ĠquirÃºrg":12454,"glesias":12455,"Ġconstituir":12456,"ĠCarn":12457,"Ġtaules":12458,"Finalmente":12459,"Ġpublicit":12460,"Ġtuvieron":12461,"Sense":12462,"Ġconsiderable":12463,"isseny":12464,"Ġhabitatge":12465,"ĠSm":12466,"ĠCient":12467,"ĠMichael":12468,"Ġcoordinador":12469,"iÃ©ndose":12470,"aliment":12471,"opiniÃ³":12472,"ĠfÃ¡cilmente":12473,"dicas":12474,"Ã²lica":12475,"When":12476,"Ġrevisar":12477,"ĠelÃ©ctrica":12478,"Ġigualmente":12479,"Ġquedado":12480,"Ġhuel":12481,"Ġ1936":12482,"Ġfenomen":12483,"Ġdestinada":12484,"Ġunir":12485,"ĠaÃ±ade":12486,"Ġsemif":12487,"Ġrestring":12488,"Ġfonamentals":12489,"ĠBart":12490,"Ġintim":12491,"Ġtrenta":12492,"ertos":12493,"PON":12494,"hort":12495,"ĠItÃłlia":12496,"aves":12497,"Tamp":12498,"inscripciÃ³":12499,"Ġgana":12500,"Ġincons":12501,"Ġentusias":12502,"unas":12503,"ĠDal":12504,"ĠPortal":12505,"Ġocasion":12506,"Ġcorporal":12507,"Ġvistas":12508,"oche":12509,"Ġwater":12510,"Ġperfecto":12511,"ĠCop":12512,"ĠpolicÃŃa":12513,"ĠTour":12514,"edors":12515,"rits":12516,"Ġcomba":12517,"Ġnaixement":12518,"Ġdiscus":12519,"Ġganas":12520,"ĠRecerca":12521,"Ġenamor":12522,"Ġreconocido":12523,"ĠArch":12524,"Ġeven":12525,"ĠFranco":12526,"obreix":12527,"Ġsanitarios":12528,"Ġpolicial":12529,"Ġretor":12530,"Ġpura":12531,"urgo":12532,"Ġargent":12533,"ĠestratÃ¨gia":12534,"Ġcantar":12535,"Ġaumenta":12536,"Ġ56":12537,"ĠRÃŃo":12538,"Ter":12539,"Ġproposar":12540,"Ġintroducir":12541,"zcan":12542,"ĊĠĊĊĠĊ":12543,"tadora":12544,"gueren":12545,"Ġahorro":12546,"IES":12547,"irm":12548,"Ġlesiones":12549,"adero":12550,"viera":12551,"Ġhabitaciones":12552,"Ġmereix":12553,"rÃ¡neo":12554,"Ġcari":12555,"ĠdÃ¨cades":12556,"Economia":12557,"Ġdiab":12558,"ificado":12559,"eraciÃ³n":12560,"omba":12561,"ities":12562,"Ġprolong":12563,"Ġconflicto":12564,"Ġrojo":12565,"ĠPerman":12566,"Ġpenso":12567,"Ġrespectivament":12568,"ĠcomposiciÃ³":12569,"Ġplural":12570,"Ġproductores":12571,"sius":12572,"ME":12573,"ĠbÃłsiques":12574,"ĠPatrimoni":12575,"estima":12576,"ben":12577,"Ġadjudic":12578,"Ġflores":12579,"rilla":12580,"haurÃł":12581,"Ġalmacenamiento":12582,"olls":12583,"ĠCOR":12584,"respons":12585,"Ġlevant":12586,"Ġcore":12587,"ĠAuto":12588,"ĠCounty":12589,"Ġtransformar":12590,"imm":12591,"Ã²sits":12592,"Ġafric":12593,"Ġeach":12594,"astre":12595,"Ãłstica":12596,"uk":12597,"Ġcommun":12598,"Ġformulari":12599,"Ġrealizando":12600,"cr":12601,"exÃ¨rcit":12602,"aquells":12603,"ĠcirculaciÃ³n":12604,"Ġdocents":12605,"Ġplano":12606,"ĠconfiguraciÃ³n":12607,"dole":12608,"Ġamunt":12609,"upera":12610,"Ġpotenci":12611,"ĠProtecciÃ³":12612,"Ã²niques":12613,"Ãłrrega":12614,"Ġcartell":12615,"2014":12616,"Ġlibres":12617,"Ġvistes":12618,"Ġaudiencia":12619,"arribar":12620,"Ð°":12621,"Ġvoluntaris":12622,"Ġobtingut":12623,"Ġsed":12624,"alda":12625,"undido":12626,"Ġespecialistas":12627,"alumne":12628,"Ġviento":12629,"tenta":12630,"ĠDES":12631,"MI":12632,"ĠLiber":12633,"Ġhorizon":12634,"vinguda":12635,"Ġgarantia":12636,"ĠGarcia":12637,"Ġste":12638,"ĠsÃŃmb":12639,"ĠIg":12640,"Ġinteressants":12641,"Ġdestaquen":12642,"ĠGabriel":12643,"Ġequivalente":12644,"Ġmunicipales":12645,"Ġfibra":12646,"ĠVII":12647,"Ġdictadura":12648,"Ġdetalle":12649,"Ġsignificativa":12650,"adm":12651,"abast":12652,"ezca":12653,"ĠCerd":12654,"bs":12655,"ĠSegona":12656,"Ġnorth":12657,"Ġestructuras":12658,"Ġpreval":12659,"allÃ²":12660,"Ġparelles":12661,"Ġviscut":12662,"Ġesquerra":12663,"Ġalquiler":12664,"bÃºs":12665,"Ġpluja":12666,"Ġensayo":12667,"lustra":12668,"Ġotorg":12669,"Ġdiscapacitat":12670,"ĠXIII":12671,"Ġcomuna":12672,"Ġmarxar":12673,"ĠestratÃ¨gies":12674,"Ġcaja":12675,"ĠespÃŃritu":12676,"Ġdesconoci":12677,"eramente":12678,"bao":12679,"Ġsupervis":12680,"ĠprevÃ©":12681,"ĠUnit":12682,"ĠsÃ³l":12683,"ĠED":12684,"Ġspeci":12685,"bro":12686,"ĠSecretarÃŃa":12687,"Ġxiqu":12688,"Ġnar":12689,"ugo":12690,"opol":12691,"ĠAmbient":12692,"ĠRiver":12693,"ĠAustralia":12694,"Ġpase":12695,"ĠejÃ©rcito":12696,"FORM":12697,"Ġcanales":12698,"Ġindividuales":12699,"emerg":12700,"Ġexpuls":12701,"Ġsufrir":12702,"Ġriquesa":12703,"Ġfilosofia":12704,"PI":12705,"Ġantiga":12706,"ĠPero":12707,"oces":12708,"Ġhoteles":12709,"Ġpodremos":12710,"Ġxifres":12711,"Ġanunciat":12712,"Ġvive":12713,"Ġetique":12714,"Ġfutura":12715,"Ġyeah":12716,"aconseguir":12717,"ĠdonarÃł":12718,"adolid":12719,"Ġparlen":12720,"Ġalbum":12721,"Ġrecopil":12722,"uck":12723,"ĠHis":12724,"tation":12725,"Ġadicionales":12726,"Ġtantes":12727,"Ġ53":12728,"ORES":12729,"Ġsubministra":12730,"ĠconvenÃ§":12731,"atero":12732,"Plan":12733,"Ġentiende":12734,"Ġaverage":12735,"Alacant":12736,"ĠsuspensiÃ³n":12737,"avall":12738,"COO":12739,"Ġvora":12740,"Ġnotes":12741,"ĠDan":12742,"ĠDesenvolupament":12743,"GU":12744,"iament":12745,"zgo":12746,"Ġinclosos":12747,"ĠEnric":12748,"MIN":12749,"Ġdestacan":12750,"alguna":12751,"cula":12752,"habitants":12753,"Ġerrors":12754,"ulaciones":12755,"vat":12756,"ĠQuÃ¨":12757,"Ġcompositor":12758,"Ġresidents":12759,"Ġtros":12760,"Ġrepresenten":12761,"Ġorganizado":12762,"Ġheart":12763,"Ġreclamar":12764,"Mentre":12765,"acos":12766,"zÃ³n":12767,"Ġamo":12768,"Ġtranscur":12769,"Ġcomprender":12770,"ĠAndrÃ©s":12771,"ĠAutÃ²n":12772,"Ġsegueixen":12773,"Serv":12774,"CAP":12775,"Vaig":12776,"amanca":12777,"ĠdivisiÃ³n":12778,"Ġgrec":12779,"merc":12780,"Ġsotm":12781,"Ġconciencia":12782,"Ġperfectamente":12783,"Ġacel":12784,"Ġconsigue":12785,"Ġseguido":12786,"rant":12787,"ĠestÃ¡ndar":12788,"ĠElectr":12789,"ĠpoguÃ©s":12790,"fit":12791,"Ġord":12792,"Ġcavall":12793,"llet":12794,"Ġcomponents":12795,"Ġsuger":12796,"Ġciertas":12797,"anger":12798,"ĠurbanÃŃstica":12799,"temp":12800,"buj":12801,"Ã³rico":12802,"Ġjuntos":12803,"ĠGuÃłrdia":12804,"PF":12805,"Ġjusticia":12806,"Ġnor":12807,"Ġobtuvo":12808,"Ġcoches":12809,"Ġletras":12810,"ĠPsic":12811,"Ġcampus":12812,"Ġperque":12813,"ariz":12814,"Ġtribun":12815,"Ġimpuestos":12816,"ĠempezÃ³":12817,"verg":12818,"Ġfeliz":12819,"Ġfuncionarios":12820,"Ġprovincial":12821,"raft":12822,"ĠdiseÃ±ado":12823,"Ġrecomienda":12824,"Emp":12825,"Ġalong":12826,"ordi":12827,"ases":12828,".Â»":12829,"Ġsocietats":12830,"tanta":12831,"Ġecos":12832,"Ġconcretament":12833,"ĠJornada":12834,"Ġdiputat":12835,"carril":12836,"Ġclaramente":12837,"Ġrecomenda":12838,"Ġfuertes":12839,"Ġdius":12840,"versiÃ³n":12841,"Ġrot":12842,"Ġpasta":12843,"Ġonce":12844,"ieve":12845,"Ġestancia":12846,"Ġirre":12847,"ampions":12848,"ĠfÃ²rum":12849,"ĠHistoria":12850,"Esquerra":12851,"Buen":12852,"Ġvoto":12853,"Ã²legs":12854,"ĠEspanyola":12855,"ĠmÃ©dica":12856,"Ġdimensions":12857,"Ġdescarregar":12858,"ĠSeu":12859,"ĠTi":12860,"Ġmid":12861,"ĠAndorra":12862,"Ġrealitzen":12863,"Ġpujada":12864,"Ġpublicacions":12865,"Ġmuestras":12866,"ĠemisiÃ³n":12867,"Ġurbano":12868,"Ġmostrat":12869,"crito":12870,"ĠdemocrÃłtica":12871,"Ġinteresantes":12872,"Ġrece":12873,"Ġreflexionar":12874,"Public":12875,"Ġesfuerzos":12876,"tamb":12877,"ĠInglaterra":12878,"igues":12879,".)":12880,"Ġincer":12881,"Ġlaboratorio":12882,"cording":12883,"Ã¡g":12884,"tent":12885,"Ġdoce":12886,"Ġajuts":12887,"ĠcurrÃŃcul":12888,"ĠcientÃŃfics":12889,"ulado":12890,"Ġpensat":12891,"ĠcapaÃ§os":12892,"ners":12893,"ĠGod":12894,"Ġquelcom":12895,"icante":12896,"ĠCuer":12897,"tuales":12898,"Ġproporcional":12899,"Ġteves":12900,"Ġalemany":12901,"BL":12902,"ĠWashington":12903,"ĠdinÃłmica":12904,"ĠobtenciÃ³n":12905,"Ġcogni":12906,"tratÃ¨gia":12907,"Ġpotent":12908,"ificaciones":12909,"enguany":12910,"uges":12911,"viure":12912,"Ġantel":12913,"Ġpendent":12914,"ĠMitj":12915,"Ġpudiendo":12916,"Ġsencill":12917,"Ġuniversidades":12918,"ĠCONS":12919,"Ġcriterio":12920,"Ġentrenamiento":12921,"Ġeducativo":12922,"ĠTeatro":12923,"Ġbecause":12924,"Ġcobrir":12925,"Ġcomprend":12926,"Ġparlat":12927,"ĠcapÃŃtol":12928,"Ġsecu":12929,"Ġcho":12930,"ĠacadÃ¨mic":12931,"ĠGel":12932,"ncia":12933,"iografia":12934,"istic":12935,"Ġconvencional":12936,"There":12937,"Ġleft":12938,"Ġdrama":12939,"Ġmall":12940,"ĠDivisiÃ³n":12941,"ĠvolviÃ³":12942,"ĠcirugÃŃa":12943,"CAT":12944,"Ġrelaj":12945,"roga":12946,"ĠPap":12947,"Ġintento":12948,"crit":12949,"ĠComunicaciÃ³":12950,"ĠtransformaciÃ³n":12951,"Ġpropietari":12952,"Ġpreciso":12953,"Ġmetge":12954,"panyes":12955,"Ġexisteixen":12956,"ille":12957,"ĠRegional":12958,"Ġ1981":12959,"Ġentreten":12960,"ector":12961,"Ġescap":12962,"Ġescolars":12963,"Ġdensidad":12964,"ĠfotografÃŃas":12965,"ĠanÃłlisi":12966,"ĠÃłrea":12967,"guardia":12968,"acciÃ³n":12969,"ĠNos":12970,"Ġtrate":12971,"ĠCambra":12972,"Ġengan":12973,"Ġsabia":12974,"Ġjutge":12975,"ĠmÃ²d":12976,"Ġcosm":12977,"Ġcres":12978,"ĠÃĵ":12979,"ĠfotografÃŃa":12980,"Ã¨nia":12981,"Ġgall":12982,"Ġdisputar":12983,"ĠUrb":12984,"ĠSegunda":12985,"ĠHernÃ¡ndez":12986,"ĠincorporaciÃ³n":12987,"Ġfetes":12988,"ress":12989,"Ġadequat":12990,"ĠComitÃ¨":12991,"ĠmatÃ¨ries":12992,"ĠPep":12993,"Ġhisp":12994,"ĠXII":12995,"rates":12996,"dam":12997,"Ġlimitada":12998,"ĠFelipe":12999,"Ġforestal":13000,"Siempre":13001,"ĠvÃłl":13002,"Ġnormalment":13003,"Ġcandidats":13004,"Ġconocidos":13005,"ĠDNI":13006,"Ġdisting":13007,"ĠnavegaciÃ³n":13008,"Tant":13009,"Ġingles":13010,"Ġsupl":13011,"Ġrecordat":13012,"Ġcong":13013,"ĠDecisiÃ³n":13014,"arde":13015,"ĠAlej":13016,"ĠAlfonso":13017,"Ġaver":13018,"ĠPuigdemont":13019,"itorio":13020,"Urg":13021,"ring":13022,"ĠuniÃ³":13023,"icin":13024,"ĠFacultat":13025,"Ġtrasllad":13026,"ĠINTER":13027,"Ġhered":13028,"ĠMIN":13029,"ĠLla":13030,"GO":13031,"ĠSitges":13032,"itch":13033,"Ġhabilidades":13034,"Ġimpresion":13035,"Bar":13036,"pitalet":13037,"ivar":13038,"Ġtejido":13039,"ampli":13040,"ĠBall":13041,"Edi":13042,"ĠMich":13043,"Ġsuperiors":13044,"Ġ1977":13045,"Podeu":13046,"uster":13047,"politana":13048,"Ãłu":13049,"eure":13050,"POS":13051,"dido":13052,"Ġtransferencia":13053,"Ġmodalitat":13054,"Ġalliber":13055,"oraciÃ³":13056,"Ġdedu":13057,"iria":13058,"tricas":13059,"Ġestados":13060,"Ġiniciativas":13061,"Ġcometi":13062,"itoral":13063,"bly":13064,"Ġinstrument":13065,"olas":13066,"Ġhabituals":13067,"tamiento":13068,"Ġreferente":13069,"ĠpermÃŃs":13070,"Ġaceptar":13071,"Ġformulario":13072,"ĠPilar":13073,"Ġjornadas":13074,"institu":13075,"Ġblocs":13076,"ellÃł":13077,"ĠnotificaciÃ³n":13078,"Ã©rico":13079,"ĠConsum":13080,"Ġantecedentes":13081,"Ġempieza":13082,"Ġsindicats":13083,"Ġcuarta":13084,"Ġdescens":13085,"Ġmedian":13086,"ĠVis":13087,"Ġpiloto":13088,"ĠIsland":13089,"Ġintr":13090,"andre":13091,"Ġrestaurante":13092,"ĠdefiniciÃ³":13093,"cam":13094,"Ġintercambio":13095,"Ġvolc":13096,"ĠEjecu":13097,"ĠDOGC":13098,"ĠÃ¡mbitos":13099,"ĠbebÃ©":13100,"\":":13101,"ĠAmbiente":13102,"ĠDret":13103,"ials":13104,"Ġplanteja":13105,"Ġacollir":13106,"Ġcolectivos":13107,"ĠBerlÃŃn":13108,"ĠRibera":13109,"ĠantigÃ¼":13110,"Doc":13111,"Ġdegus":13112,"iena":13113,"Luego":13114,"Ġcuyos":13115,"Ġinmedi":13116,"Ġterminal":13117,"Ġestablecimientos":13118,"inicia":13119,"ĠConveni":13120,"Ġdesenvolupa":13121,"Ġmanifestar":13122,"lules":13123,"ĠreciÃ©n":13124,"Ġindicado":13125,"Ġpassos":13126,"Ġnev":13127,"ĠJocs":13128,"Ella":13129,"unciÃ³n":13130,"Ġasistentes":13131,"Ġopinions":13132,"ĠbÃ¡sicas":13133,"Ġvaya":13134,"Ã¡metros":13135,"OO":13136,"ott":13137,"Considerando":13138,"Ġcompetentes":13139,"erÃŃas":13140,"ĠDurante":13141,"trics":13142,"Ġencer":13143,"Pr":13144,"Ġfaltar":13145,"Ġentradas":13146,"alia":13147,"ĠArte":13148,"ĠturÃŃstic":13149,"Ġcifras":13150,"atac":13151,"ĠPrimer":13152,"pati":13153,"Ġreconocer":13154,"Ġrecuerda":13155,"Ġtalleres":13156,"olly":13157,"ĠinfluÃ¨ncia":13158,"Ġconstruy":13159,"moni":13160,"Ġilumin":13161,"Ġsimilars":13162,"Ġconveniente":13163,"iversidad":13164,"Ġtreinta":13165,"ĠConsejerÃŃa":13166,"Ġtraslladar":13167,"Ġcobrar":13168,"legis":13169,"Ġpensa":13170,"Ġobligatori":13171,"Ġpopulares":13172,"ĠStreet":13173,"Ġversions":13174,"Ġgala":13175,"izas":13176,"Ġtelecomun":13177,"Ġcorrectamente":13178,"Ġrealitzades":13179,"Ġtriomf":13180,"ĠPalacio":13181,"guard":13182,"ĠSÃ³n":13183,"Ġbellesa":13184,"Ġministro":13185,"Ġmillores":13186,"cusa":13187,"ogrÃ¡fico":13188,"amÃ©rica":13189,"Ġpsico":13190,"ÃįT":13191,"Ġpilot":13192,"ĠEspor":13193,"Ġconclu":13194,"ĠSector":13195,"Ġparlem":13196,"Ġalternatives":13197,"ĠDVD":13198,"Ġtornada":13199,"Ġdesm":13200,"Ġaltos":13201,"ĠrenovaciÃ³":13202,"ĠHisp":13203,"ĠfÃŃsicas":13204,"ping":13205,"Ġcriteri":13206,"tÃºa":13207,"Ġov":13208,"Ġpetro":13209,"assar":13210,"ĠAcademia":13211,"ĠhÃłb":13212,"ĠExtremadura":13213,"ĠcÃ¡lculo":13214,"Ġbols":13215,"Ġlici":13216,"Ġplaca":13217,"Ġinvertir":13218,"ĠFormaciÃ³":13219,"Otros":13220,"orien":13221,"ĠhistÃ²ries":13222,"Ġretar":13223,"Ġ--":13224,"teo":13225,"ĠVÃŃctor":13226,"ĠtÃºn":13227,"ĠGestiÃ³":13228,"Ġviatges":13229,"ĠdivisiÃ³":13230,"Ġextranjero":13231,"Ġvapor":13232,"Ġorganismes":13233,"imas":13234,"Bus":13235,"ineu":13236,"Ġnombrado":13237,"ĠSecretario":13238,"Ġfinalizar":13239,"Ġpagos":13240,"Ġsouth":13241,"Ġperro":13242,"Ġevidencia":13243,"Ġcultiv":13244,"Ġfirme":13245,"Ġperjuicios":13246,"Ġobertes":13247,"Ġmovilidad":13248,"ĠconstituciÃ³":13249,"ĠÃ©sser":13250,"Ġirregular":13251,"obla":13252,"hh":13253,"Mod":13254,"Ġarras":13255,"ĠordenaciÃ³n":13256,"Ġconsultes":13257,"excep":13258,"Of":13259,"onament":13260,"ĠprofesiÃ³n":13261,"ĠPL":13262,"Ġracis":13263,"Ġintegrar":13264,"Ġdistrito":13265,"ĠcapÃŃt":13266,"Ġabordar":13267,"Ġconvocar":13268,"Ġgau":13269,"Ġalojamiento":13270,"ĠPoble":13271,"Ġbancos":13272,"Ġrelativas":13273,"Ġrestaurants":13274,"Ġastr":13275,"Ġesportives":13276,"Ġrenovables":13277,"Ġconcierto":13278,"Ġquarta":13279,"Ġdejando":13280,"uestros":13281,"Ġembarazo":13282,"Ġcomencen":13283,"ensiva":13284,"ĠaparÃ¨ixer":13285,"ĠfarmacÃ©u":13286,"Ġprocediments":13287,"Ġangles":13288,"ĠmÃºsics":13289,"Ġdecidido":13290,"Ġ1976":13291,"ĠMira":13292,"Ġequilibrio":13293,"Ġasuntos":13294,"field":13295,"Ġvivint":13296,"ĠEUA":13297,"exterior":13298,"Ġelaborat":13299,"Ġincluidas":13300,"ized":13301,"Ġinversions":13302,"cident":13303,"Ã²bil":13304,"Ġrup":13305,"ĠpropÃ³sito":13306,"Ġsujetos":13307,"ists":13308,"ĠPolÃŃ":13309,"Ġesportiu":13310,"Ãºssia":13311,"Ġbuc":13312,"jades":13313,"ERS":13314,"Qui":13315,"Ġrere":13316,"zy":13317,"Reci":13318,"ĠNavarro":13319,"ĠlogrÃ³":13320,"ĠpreparaciÃ³":13321,"Ġdescone":13322,"Existen":13323,"Ġ72":13324,"ĠRoja":13325,"urem":13326,"mbia":13327,"igs":13328,"Ġeuropees":13329,"Ġtax":13330,"ĠEC":13331,"âĢ²":13332,"ortun":13333,"âĢĵ,":13334,"Ġpersonalidad":13335,"Ġfrecuente":13336,"Ġislas":13337,"ĠNomÃ©s":13338,"Ġdisminuir":13339,"ĠPA":13340,"ioso":13341,"andia":13342,"ĠsanitÃłria":13343,"ĠMy":13344,"ĠSor":13345,"ĠcontinÃºa":13346,"pot":13347,"Ġnois":13348,"Ġcomuns":13349,"Ġconformitat":13350,"ads":13351,"ĠRegistre":13352,"Ġcaptur":13353,"Ġnegar":13354,"Mo":13355,"Ġrecoge":13356,"dy":13357,"day":13358,"Ġguanyador":13359,"Ġcossos":13360,"morzar":13361,"Ã³logos":13362,"ĠRecursos":13363,"Ġbienestar":13364,"Ã¯a":13365,"iernos":13366,"lia":13367,"Ġperf":13368,"Ġdintre":13369,"ĠincorporaciÃ³":13370,"Ġinteressats":13371,"Ġdarle":13372,"Ġestudiant":13373,"earch":13374,"Ġhabilitats":13375,"ĠDesc":13376,"rents":13377,"usia":13378,"Ġcentenar":13379,"ĠCharles":13380,"ĠdepÃ³sito":13381,"Ġbegan":13382,"tigu":13383,"Ġcalendario":13384,"uevos":13385,"Ġguitarra":13386,"Ġcontemplar":13387,"Ġagro":13388,"tang":13389,"Ġbuild":13390,"ĠdepÃ¨n":13391,"Ġincloure":13392,"Ġfues":13393,"ĠDomingo":13394,"nec":13395,"Ġpresos":13396,"Ġaprofi":13397,"ĠCorts":13398,"Ġplane":13399,"Ġcantante":13400,"Ġrumb":13401,"ĠEgip":13402,"Ġopos":13403,"ĠJac":13404,"ĠHel":13405,"Ġepid":13406,"Ġpet":13407,"ĠpenÃŃnsula":13408,"Ġfundada":13409,"rales":13410,"ĠBlanca":13411,"Ġteor":13412,"ĠDos":13413,"Ġesdeveniment":13414,"ramos":13415,"Ġsolament":13416,"ÃĢrea":13417,"ofici":13418,"angel":13419,"esperit":13420,"Ġveritable":13421,"Ġjunt":13422,"Ġsiquiera":13423,"xos":13424,"Ġsexe":13425,"ĠLaura":13426,"Ġland":13427,"Ġguarda":13428,"Ġpieza":13429,"ĠredacciÃ³n":13430,"Ġfeli":13431,"Ġ57":13432,"Ġessencial":13433,"ĠSetmana":13434,"edora":13435,"ĠJuegos":13436,"ĠMusic":13437,"Ġcampanyes":13438,"Ġĉĉĉĉĉ":13439,"Ġvotos":13440,"Ġrecuerdo":13441,"Ġelevado":13442,"ĠcomenÃ§ament":13443,"DisposiciÃ³n":13444,"Ġ1975":13445,"ĠMÃ³n":13446,"Ġsubir":13447,"Ġemisiones":13448,"Ġhomenatge":13449,"ANS":13450,"view":13451,"Ġterrenys":13452,"Ġcantant":13453,"ĠsubvenciÃ³n":13454,"promÃŃs":13455,"Ġproveedores":13456,"Ġdestinado":13457,"Ġmonestir":13458,"ĠestrÃ©s":13459,"less":13460,"ĠplanificaciÃ³n":13461,"Ġrealitzada":13462,"ĠHan":13463,"ĠGranollers":13464,"ĠplanificaciÃ³":13465,"Ġdisposen":13466,"sivament":13467,"Ġpositivo":13468,"Ġfauna":13469,"Ġvinent":13470,"ĠEscol":13471,"Ġadhes":13472,"ispo":13473,"Ġoblidar":13474,"Ġdistingu":13475,"Ã¡neo":13476,"Ġintroduir":13477,"interess":13478,"Ġdilig":13479,"Ġdiagnostic":13480,"ation":13481,"ilt":13482,"Ġrelleu":13483,"ĠadreÃ§a":13484,"Ġdeportiva":13485,"Ġcontinuada":13486,"Ġtotalitat":13487,"Pal":13488,"ificat":13489,"Ġ58":13490,"Ġsenzilla":13491,"enciat":13492,"Ġalf":13493,"utilitza":13494,"My":13495,"Ġoficines":13496,"ĠTemp":13497,"Ġmercantil":13498,"Ġaeropuerto":13499,"tega":13500,"erves":13501,"ĠAgust":13502,"Oficina":13503,"Ġtardor":13504,"ĠexplÃŃci":13505,"Ġcorrecto":13506,"IFIC":13507,"iosos":13508,"...)":13509,"Ġcircuito":13510,"afec":13511,"siqui":13512,"Ġ93":13513,"Ġblogs":13514,"ende":13515,"isible":13516,"ĠprojecciÃ³":13517,"Ġretur":13518,"ĠhabitaciÃ³n":13519,"Ġtap":13520,"Ġdestinados":13521,"ALL":13522,"Ġbacteri":13523,"ĠGuadal":13524,"Ġsoc":13525,"Ġconeguts":13526,"Ġposses":13527,"Ġdeixen":13528,"ĠaÃ¯ll":13529,"Ġlast":13530,"Ġteatral":13531,"ĠÃ©stas":13532,"ĠsÃŃndrome":13533,"Ġexca":13534,"ĠcatÃłleg":13535,"Ġcardiovas":13536,"Ġrango":13537,"avent":13538,"istar":13539,"grÃłfic":13540,"ĠparrÃ²":13541,"Ġexistente":13542,"ĠPubl":13543,"ÃįA":13544,"Ãºmero":13545,"Ġcanals":13546,"lets":13547,"Ġposteriores":13548,"Ġrol":13549,"ext":13550,"ceso":13551,"Ġbanco":13552,"well":13553,"Ġescuch":13554,"ĠProyecto":13555,"amentos":13556,"CIA":13557,"ÃŃnas":13558,"Ġintes":13559,"ĠViv":13560,"EA":13561,"ĠÃ²rgans":13562,"Ġvinos":13563,"ĠsecundÃłria":13564,"Ġbajas":13565,"ualquier":13566,"Ġgestor":13567,"Ġanother":13568,"Ġeva":13569,"Ġanomenada":13570,"ĠÃŃntegra":13571,"Ġrestaurantes":13572,"ocl":13573,"ĠDep":13574,"explotaciÃ³":13575,"iona":13576,"ĠmontaÃ±a":13577,"Ġpromot":13578,"Ġrica":13579,"nam":13580,"oba":13581,"ĠmissiÃ³":13582,"TÃŃtol":13583,"ĠRÃ©gimen":13584,"Bo":13585,"Ġboscos":13586,"Ġestructures":13587,"Ġimaginar":13588,"ĠSants":13589,"Ġneix":13590,"Ġcare":13591,"onats":13592,"Ġdificultad":13593,"ĠVidal":13594,"Ġllegan":13595,"Ġdeterminat":13596,"Ġedicions":13597,"ĠCOMUN":13598,"Ġpersonalitat":13599,"Ã¯nes":13600,"ĠPot":13601,"ĠLL":13602,"Ġinvestigaciones":13603,"Solo":13604,"ĠparÃ¡metros":13605,"Ġcharacter":13606,"Ġdirectiva":13607,"Ġrepos":13608,"Ġobligado":13609,"rich":13610,"ĠSociales":13611,"Ġcorrer":13612,"Ġconsideran":13613,"Ġespl":13614,"ĠAren":13615,"Ã²nim":13616,"ĠvotaciÃ³":13617,"Ġsabes":13618,"Ġadequada":13619,"Ġlectors":13620,"Ġ1950":13621,"Ġber":13622,"tans":13623,"Ġcompanyies":13624,"If":13625,"Ġinterrup":13626,"ĠautonomÃŃa":13627,"Ġcircuit":13628,"Ã¨x":13629,"Ġ|-":13630,"PD":13631,"Ġtoo":13632,"Ġantiguos":13633,"entat":13634,"Ġtalla":13635,"Ġtrag":13636,"Ġoften":13637,"Ġdeclaraciones":13638,"Mun":13639,"Ġejemplos":13640,"ĠOccidental":13641,"Ġmanifestacions":13642,"NA":13643,"Ġescenari":13644,"emi":13645,"Ġafectada":13646,"ĠCF":13647,"ĠfrÃŃo":13648,"ivell":13649,"ELL":13650,"tancial":13651,"Ġplats":13652,"IDO":13653,"Ġaprovechar":13654,"ĠanunciÃ³":13655,"Ġescollir":13656,"Ġdeath":13657,"Ġdeba":13658,"maras":13659,"Ġdesesper":13660,"Ġbook":13661,"Ġmanejo":13662,"Ġunanim":13663,"Ġexpressa":13664,"Ġavantatges":13665,"Ġbaixes":13666,"reres":13667,"ĠLE":13668,"ĠrepressiÃ³":13669,"ĠmociÃ³":13670,"dament":13671,"Ġasistir":13672,"ĠSocials":13673,"tus":13674,"Ġenfrenta":13675,"ĠUNA":13676,"Ġaven":13677,"Ġindustrials":13678,"ĠValladolid":13679,"ĠProtecciÃ³n":13680,"Ġnul":13681,"Ġexceso":13682,"cipe":13683,"ĠÃģfrica":13684,"Ġcentrar":13685,"Ġesperanza":13686,"Ġquiera":13687,"ĠCarre":13688,"Ġoperacions":13689,"Ġinsec":13690,"iki":13691,"Ġcompatible":13692,"Ġsalarial":13693,"Ġlletres":13694,"agrup":13695,"mÃ©s":13696,"Ġsignar":13697,"quete":13698,"Ġremo":13699,"ordinador":13700,"Ġgarantiza":13701,"Ġbrind":13702,"ĠfemenÃŃ":13703,"Ġposicions":13704,"ĠTratado":13705,"ĠProced":13706,"Ġmedioambiental":13707,"Ġprodujo":13708,"tudia":13709,"ĠLiter":13710,"Ġpresta":13711,"Dentro":13712,"denes":13713,"Ġamen":13714,"Importe":13715,"Ġcastellano":13716,"Ġdistricte":13717,"Ġitaliana":13718,"ÂĴ":13719,"Ġrector":13720,"ĠFerro":13721,"Ġdigitals":13722,"ĠcirculaciÃ³":13723,"1995":13724,"Ġdeixem":13725,"Ġcaiguda":13726,"ivera":13727,"Ġconsultas":13728,"ĠactualizaciÃ³n":13729,"ĠterapÃ©u":13730,"illes":13731,"Ġreclamante":13732,"Ġpus":13733,"ĠColombia":13734,"Ġexpressament":13735,"uraciÃ³n":13736,"ULT":13737,"Ġbes":13738,"ĠEsqu":13739,"Ġcolegio":13740,"Ġcreen":13741,"esquerres":13742,"doc":13743,"endes":13744,"Ġtantos":13745,"Ġpir":13746,"Ġfestiv":13747,"Ġllamar":13748,"estudis":13749,"establiment":13750,"Ġinfraestructures":13751,"ĠrevoluciÃ³":13752,"Ġexterna":13753,"Ġvergon":13754,"ĠRoger":13755,"Ġfabricante":13756,"mus":13757,"plante":13758,"Ġalternativas":13759,"ĠBanc":13760,"ĠCenter":13761,"Ġoperativo":13762,"Apar":13763,"estern":13764,"ĠprÃŃn":13765,"Do":13766,"ĠConserv":13767,"paro":13768,"Ġtemple":13769,"orado":13770,"ĠrealitzarÃł":13771,"Ãłnics":13772,"Ġespecializada":13773,"Ġdifferent":13774,"Ġdelicte":13775,"Ġlimi":13776,"Ġescl":13777,"Ġremiti":13778,"Ġreguladora":13779,"Ġextremo":13780,"Ġvenen":13781,"sequ":13782,"Ġasimismo":13783,"ianza":13784,"ĠUnidad":13785,"ĠFoto":13786,"Ġcere":13787,"ĠBilbao":13788,"Ġcuidar":13789,"ĠNot":13790,"ocats":13791,"Ġtestimoni":13792,"Ġspe":13793,"Ġrespuestas":13794,"Ġhacemos":13795,"avin":13796,"Ã²lic":13797,"Ġdebes":13798,"mita":13799,"igar":13800,"Nuestro":13801,"ualsevol":13802,"Ġpudieran":13803,"ĠLeague":13804,"Ġescas":13805,"ĠconsiguiÃ³":13806,"Ġexpressar":13807,"eased":13808,"Ġplazos":13809,"Ġcorta":13810,"ĠXIV":13811,"vocat":13812,"Ġsuplement":13813,"ĠantigÃ¼edad":13814,"Ġdispositius":13815,"Ġagreg":13816,"Ġensayos":13817,"lumin":13818,"Ġllamadas":13819,"Ġsuministro":13820,"Ġmanifiesto":13821,"Van":13822,"Ġappro":13823,"ÃŃsima":13824,"Ã³sitos":13825,"Ġsingle":13826,"Ġhero":13827,"Ġplayas":13828,"Ġincendi":13829,"Ġmencionado":13830,"Ġdispositiu":13831,"ĠSaint":13832,"Ġlight":13833,"Ġindign":13834,"Ġesport":13835,"ĠCAP":13836,"Ġmediados":13837,"nado":13838,"ĠlesiÃ³n":13839,"Ġdotze":13840,"Ġinterno":13841,"ĠcadascÃº":13842,"ĠThere":13843,"piraciÃ³":13844,"ĠThey":13845,"Ġutilidad":13846,"Ġinmediata":13847,"Ġmuseo":13848,"emÃłtic":13849,"Ġsaps":13850,"Ġanteriorment":13851,"tificar":13852,"ÃŃgenes":13853,"Ġarquitect":13854,"ĠBill":13855,"ĠCC":13856,"Ġvio":13857,"iese":13858,"Ġgame":13859,"Ġpredomin":13860,"Ã±ar":13861,"ĠiPhone":13862,"assegur":13863,"TÃ©":13864,"EspaÃ±a":13865,"orno":13866,"Ġseres":13867,"imag":13868,"ĠAndroid":13869,"Ġaves":13870,"ĠOp":13871,"Ġconscient":13872,"Ġverdes":13873,"Ġverdadero":13874,"ĠRi":13875,"Ġvenci":13876,"cast":13877,"ĠONG":13878,"Ġcampionat":13879,"ĠestÃłs":13880,"Crec":13881,"cesa":13882,"eme":13883,"tipo":13884,"ĠEmpleo":13885,"ecs":13886,"ights":13887,"Ġenriqu":13888,"uente":13889,"ĠIndustria":13890,"DescripciÃ³":13891,"ĠnavegaciÃ³":13892,"Ġintensidad":13893,"Ġescuelas":13894,"how":13895,"oxid":13896,"Ġcolocar":13897,"Ġcatedral":13898,"Ġprofundidad":13899,"Ġcorrecte":13900,"cess":13901,"ĠCS":13902,"Ġindustriales":13903,"ĠHouse":13904,"Ġrique":13905,"ianÃ§a":13906,"ĠredacciÃ³":13907,"ĠmÃ¨todes":13908,"Ġconsolidar":13909,"anglÃ¨s":13910,"ĠAquests":13911,"ĠgarantÃŃas":13912,"torias":13913,"su":13914,"Ġpols":13915,"Bol":13916,"Ġfama":13917,"ĠMoreno":13918,"Op":13919,"IEN":13920,"Ġprobar":13921,"Ġobligacions":13922,"Ġpermisos":13923,"Ã²nies":13924,"Ġfacilitat":13925,"Ġminuto":13926,"Ġventil":13927,"Ġoriginales":13928,"Ġhistor":13929,"ĠJove":13930,"alment":13931,"estes":13932,"Ġroman":13933,"Ġnegocis":13934,"Ġhues":13935,"riga":13936,"ĠcÃł":13937,"Ġacercar":13938,"Ġdesig":13939,"ĠGreen":13940,"áĥ":13941,"ĠregulaciÃ³":13942,"Ġsostenibilitat":13943,"agra":13944,"Ġiniciat":13945,"Ġagricultura":13946,"Ġposiciones":13947,"----------------------------------------------------------------":13948,"Ġpensamiento":13949,"boles":13950,"Ġanuals":13951,"ĠÃŃndice":13952,"Ġregions":13953,"ĠRural":13954,"rot":13955,"ĠÃļ":13956,"ĠEF":13957,"Ġconsentiment":13958,"Ġconlle":13959,"Ġhot":13960,"ĠpublicÃ³":13961,"Ġmagnitud":13962,"Altres":13963,"Ġrendi":13964,"ĠVicent":13965,"peta":13966,"ĠTerres":13967,"ĠPad":13968,"impor":13969,"Ġcomplemento":13970,"Ġcopa":13971,"Ġalluny":13972,"Hospitalet":13973,"Ġdocente":13974,"Ġfichero":13975,"Muchas":13976,"Ġmg":13977,"Ġ59":13978,"Ġdimensiones":13979,"ĠimpresiÃ³n":13980,"Ġnuevamente":13981,"ĠelectrÃ³nicos":13982,"Ġpasada":13983,"Tres":13984,"Ġultra":13985,"Ġrecomendaciones":13986,"Ġsujeto":13987,"Ġrelat":13988,"Pe":13989,"Ġpermitan":13990,"remi":13991,"Ġpropietats":13992,"Ġmobili":13993,"mel":13994,"Ġlux":13995,"increment":13996,"ficÃłcia":13997,"utbol":13998,"Ġcooperativa":13999,"Ã©rcoles":14000,"Ġpeg":14001,"Ġcapacitats":14002,"Ġempla":14003,"versiÃ³":14004,"ĠPropi":14005,"Ġincidencia":14006,"Ġic":14007,"Ġdefinitivament":14008,"Puedes":14009,"ĠbÃ¡sico":14010,"Ġcoberta":14011,"ĠimplantaciÃ³":14012,"ĠadopciÃ³n":14013,"Ġedifica":14014,"ĠtensiÃ³n":14015,"ĠRock":14016,"ĠrecepciÃ³":14017,"Ġsentim":14018,"Ġdestacado":14019,"Ġsuposar":14020,"ĠtransmissiÃ³":14021,"Ġatendre":14022,"QUE":14023,"Ġbotigues":14024,"Ġmotores":14025,"ĠIrlanda":14026,"Ġintensitat":14027,"Ġfollowing":14028,"Ġpropone":14029,"ĠDesde":14030,"Ġtriste":14031,"Ġsecretario":14032,"Â³":14033,"Ġche":14034,"ĠNÃºria":14035,"itÃł":14036,"Ġcentenars":14037,"Ġmons":14038,"Ġdescargar":14039,"Tre":14040,"Ġpatri":14041,"Estem":14042,"Ġapas":14043,"Ġgrasa":14044,"Ġrelacionado":14045,"Ġtarjetas":14046,"Po":14047,"Ġcriminal":14048,"Espai":14049,"ĠBut":14050,"horari":14051,"ĠDrets":14052,"Ã¡ndole":14053,"Ġhold":14054,"ĠreproducciÃ³":14055,"Ġgla":14056,"ĠRic":14057,"Ġcord":14058,"Ġfrus":14059,"Ġconsentimiento":14060,"Ġdenominado":14061,"Ġdobl":14062,"Ġalm":14063,"ĠOriental":14064,"ĠcomercializaciÃ³n":14065,"ĠUnides":14066,"ede":14067,"ĠEstudios":14068,"Ġpostura":14069,"Ġinfraestructuras":14070,"Ġpuente":14071,"andra":14072,"Ġtraslado":14073,"ĠSalamanca":14074,"ÃįTULO":14075,"Ġrecolz":14076,"Ġesperem":14077,"Ġaler":14078,"Ġpresencial":14079,"Ġcultivo":14080,"Ġmejoras":14081,"Ġpese":14082,"tonces":14083,"ĠMario":14084,"Ġbanca":14085,"ĠatÃ¨s":14086,"ĠquizÃ¡s":14087,"Ġcargos":14088,"Ġquarts":14089,"Ġpand":14090,"ĠEstatal":14091,"Ġbiod":14092,"afeg":14093,"Arag":14094,
[...]
